fc
18
12
0d
23
fc
ed
1b
31
11
06
1c
fd
04
04
35
24
d4
c3
06
f8
9e
e5
0a
02
f3
ff
e8
fc
ef
05
f1
f7
fe
10
14
e8
fb
01
0c
ff
f9
03
1b
fd
e8
16
21
f5
e1
05
f4
fc
f6
00
ff
ed
ee
f7
15
fd
fe
13
0e
10
0f
23
0c
23
ff
09
fb
10
f3
ec
18
0f
fd
f5
13
1e
e0
e8
09
1d
d4
01
26
21
10
e7
2f
3c
0a
fb
13
1b
e9
c2
d5
0d
06
ed
da
c4
ff
0b
d4
c5
d5
f5
e5
ad
d9
0c
e1
d5
0d
28
26
0a
1b
25
ea
fe
19
0f
fc
06
fc
e2
01
0b
f8
fa
1d
f8
e3
df
05
05
f9
f4
f8
11
fd
ed
fe
0d
f8
bf
c1
e8
c7
f1
2c
0b
d7
a9
b6
2f
31
53
3c
af
00
15
42
67
23
03
d0
db
13
1d
e6
fd
08
12
fc
eb
0d
fc
fe
ea
03
eb
01
e1
e6
04
03
16
fb
ec
00
00
08
2c
0c
d3
ef
f3
02
ed
db
e4
f5
d0
ca
0e
05
d7
c4
c7
22
0f
f9
00
ef
05
01
11
20
0e
e6
f6
01
fc
13
13
f5
ca
b6
c9
1e
11
02
09
f0
ee
f4
0b
01
08
e5
01
fe
f3
f4
04
df
d0
fd
00
d6
e8
1d
2a
4f
00
d7
83
db
34
1f
37
33
dc
b6
ed
11
3e
14
fa
ec
08
de
fc
f9
d6
f2
d7
06
33
fa
ec
c1
b7
1e
0c
2d
4e
fa
ca
e8
10
33
31
fa
df
2c
4c
2a
04
90
7f
df
e3
fc
44
11
f5
f3
e1
35
2b
fe
11
fc
1a
17
15
01
d3
fb
05
f4
01
08
fa
e9
f7
f4
1a
ea
f7
03
06
e2
11
d8
c1
e7
e2
36
10
1a
fc
ff
df
0a
11
1d
06
f6
f8
08
fe
f6
d7
b9
a4
d4
ef
0b
02
e1
f0
1c
23
1b
14
f3
ed
ef
26
27
24
1c
d4
c5
a7
c0
ce
08
b1
ab
ca
f6
14
20
25
19
11
01
0e
03
e8
ef
ee
02
f7
f2
23
23
4c
52
50
25
dc
2f
00
f0
bf
b8
88
b1
f4
0b
1c
f6
18
3d
11
e4
0c
f9
f0
0f
fc
2c
2f
26
04
ba
c7
fc
f6
e3
fe
a1
d5
f2
e8
32
17
17
00
0a
1f
0a
e2
eb
1a
b6
b7
bc
c8
24
db
ca
97
86
d8
2d
18
fb
f9
bf
32
36
54
44
11
1f
ed
f6
fe
10
ec
08
f3
ce
1c
da
e2
c6
d0
16
cc
df
b6
d8
e8
eb
0c
07
fd
f0
11
0d
f6
da
04
dd
f0
e4
e3
00
bc
a0
99
df
f7
bc
be
a7
bb
e1
0c
fa
fc
ef
0c
0f
0c
f1
ee
fe
c6
d6
81
e8
0c
d5
c3
9f
c4
f1
1c
02
ea
ec
f1
39
34
20
2f
21
2e
04
f7
17
1b
47
46
10
21
23
28
04
dd
32
6a
cd
90
ae
f7
22
30
fb
e5
bd
ba
0b
f2
ff
09
28
17
ff
d9
15
1c
ce
ed
b3
0a
57
cb
89
b3
e0
10
2a
16
eb
e1
d2
f5
2a
2a
31
28
1e
2a
22
fa
14
ef
d5
dc
e9
fe
12
20
28
f6
dd
ec
f5
f9
ec
e2
fd
1c
f9
0d
fa
01
e4
d1
dc
f9
00
f9
f9
0f
fe
e2
f9
f8
dc
ff
f2
01
d2
ee
02
f5
eb
e8
e1
f6
fb
11
1b
05
f9
e0
06
f9
f8
15
08
dc
dc
02
fc
04
fd
16
00
1f
f4
05
00
08
1b
14
21
33
30
0b
e5
e8
e8
bb
c3
fb
e8
f9
05
22
1d
17
04
25
06
e3
c5
b3
9f
8c
27
1e
19
29
26
01
30
5d
3d
24
d7
f9
c6
ca
d3
f4
b7
e6
19
2f
dc
be
cc
b7
aa
0d
0b
10
1f
29
0b
22
20
34
26
d4
c0
e4
da
e6
01
04
d7
05
ff
20
f1
bc
de
0a
17
24
01
fe
1a
25
3a
21
30
14
09
23
18
06
fb
d4
c7
f0
04
f5
f6
f5
e1
13
02
f7
09
e5
0a
17
06
ed
cc
e6
d8
08
f0
01
13
f3
14
09
0a
ec
e9
10
fe
e5
f4
fc
f7
e3
c6
d4
dd
10
0c
01
f7
12
28
1e
19
14
fd
2a
22
01
05
eb
fd
f4
e2
ff
ba
ee
ee
df
f5
f0
08
09
28
26
0f
12
fd
1e
20
e8
fc
e1
eb
d7
e2
e3
e2
28
17
dc
cb
c0
1a
ed
d7
0c
e0
f3
ed
04
16
15
19
17
01
09
fc
06
ee
e4
eb
d4
f8
23
e7
15
c3
01
0f
d0
1d
da
d9
11
f6
11
fb
19
12
fd
16
ef
fa
f0
d0
e1
f7
fd
05
1c
38
14
fb
ee
45
09
db
d4
d9
08
c0
d8
b5
0b
2e
ea
d1
c9
01
15
09
e8
fd
fb
0c
f4
db
d0
0b
25
02
d6
d4
27
28
fc
ee
e0
27
2a
f8
b0
e9
31
20
06
e7
f0
e8
fc
f6
f9
01
0e
1b
27
f6
ee
13
36
0f
fb
d9
0f
34
ca
da
04
31
21
0d
f3
db
f9
07
0f
18
1c
14
fd
19
01
e8
0d
f7
09
ce
e8
eb
d5
b4
fb
24
f7
e6
1b
09
04
03
de
e4
d4
f7
cc
93
0a
22
07
ca
ea
22
fa
ea
c8
ca
e2
b5
00
f5
f2
fb
02
11
20
dd
cf
d2
0c
19
ef
e4
04
17
1b
f7
f4
00
23
27
f3
f0
d3
16
2c
f8
04
f4
ec
f6
02
f1
04
fa
0f
00
04
ee
06
f4
fd
0b
ec
fc
fe
f6
e8
e8
f1
08
ef
f5
e3
f1
fc
00
f6
02
fc
ec
f8
e5
e3
f2
e9
0b
fe
04
ed
ee
03
fd
f3
04
08
ea
ea
fe
f6
f9
0b
f6
e9
f1
f8
ec
e6
e7
fb
0e
fa
06
03
06
e5
f8
ee
e8
f3
05
06
04
0c
ec
ee
0b
f5
ed
02
06
f4
ed
f1
f6
f2
e5
02
08
e3
e2
ed
08
eb
e9
f5
f9
fb
f5
f0
e0
e7
0a
f2
f6
e4
07
f3
03
03
ec
00
e4
fe
f6
e1
f2
e5
eb
06
f4
e3
e4
fe
0c
f4
f5
ef
08
f6
f2
ee
fc
e6
07
0a
fb
0a
07
eb
09
01
0b
07
e5
fd
09
10
fd
e5
01
0b
35
47
0d
f1
f3
e9
ef
e4
a8
a7
19
d9
bb
0a
07
32
18
f3
32
4f
20
f1
fa
07
1b
fe
f6
05
0a
17
f5
fd
0a
08
fd
d8
e4
fc
e1
e8
04
e0
94
b2
f4
02
fe
ea
f5
1b
18
f5
0f
0f
15
fb
f9
19
09
ed
d1
e2
c2
9d
b9
f7
ec
9e
c6
ee
05
e9
f9
10
fd
1f
10
31
2e
32
dc
f7
08
f5
b1
d8
7c
51
9b
e0
22
0e
dc
1e
31
00
01
fc
cf
0e
23
10
01
0f
1b
44
58
3b
47
21
06
46
34
0d
cc
82
87
99
8d
ba
07
f1
14
f9
f9
0e
06
fc
dc
03
45
32
1d
17
14
ec
fe
f3
e4
c6
ce
7a
b1
d2
e6
1e
f6
05
1b
f3
e6
e1
df
0b
1e
df
d2
b6
e4
56
ce
c7
9d
a8
18
02
28
0f
cd
cf
12
07
fe
13
04
1e
23
0a
13
2d
ff
05
df
0e
24
f3
ee
bd
ff
33
ee
f6
bf
0a
26
15
1e
16
05
0e
1a
02
fe
f1
21
f7
04
cf
ff
0b
e3
c5
c9
f9
13
da
e3
c4
e9
13
39
0f
ef
f3
fa
06
dd
e5
ec
f7
f0
c1
d0
18
0b
08
95
c4
d2
c6
e5
ec
06
e0
dc
0e
11
fd
00
cb
0b
03
14
f5
d1
03
db
15
2e
ed
fd
d3
fd
66
28
06
9e
e5
13
39
f5
fc
05
08
ed
0b
ea
fb
29
eb
12
ee
f4
1e
28
f7
b1
d4
45
4b
ea
bb
c8
1e
30
f7
38
29
d9
d6
f2
00
1b
1d
19
dd
f0
04
2f
f3
31
27
d9
f6
eb
39
fb
c6
9f
d0
f0
13
e7
00
e3
01
f4
04
09
f3
05
f4
17
05
00
11
f2
fd
1b
f2
04
ee
e7
e9
f1
f7
11
fd
f7
e2
10
00
f8
f2
d4
ec
e6
fc
14
11
fe
fc
f2
ff
11
f2
1b
10
f2
02
f3
f2
19
fc
da
05
e9
0b
dc
e7
10
d8
da
e8
1e
de
00
06
ee
fb
0e
24
21
e1
e3
1e
bf
e4
34
3e
f6
12
ed
ba
c9
28
4f
01
b6
fc
df
0a
10
fb
d9
fc
ff
1f
08
e1
13
07
e0
f6
2c
e5
1e
09
03
f4
ed
30
35
0c
df
ff
ec
19
04
eb
13
dd
03
15
f1
16
da
ea
ec
fa
d0
2b
21
09
02
34
3d
05
ca
d3
23
e4
d3
cc
fb
08
15
fa
fb
06
4e
d4
b7
f8
0a
32
d2
e2
0a
31
ec
d1
ea
1c
10
bb
e4
13
2b
18
f6
19
0e
09
e6
4b
e5
dd
e4
1e
10
b5
ec
09
2e
db
ed
2c
35
23
ff
0e
23
f5
e9
df
ee
00
f6
fa
32
a5
b9
fc
03
b8
cb
11
48
38
f0
1d
31
45
e4
0b
2d
29
f2
d1
08
1f
e9
eb
d6
1a
de
d6
f0
f0
13
d0
a3
f3
1a
d1
a2
f8
28
35
e5
06
2c
19
b3
e5
f4
0b
f0
d7
fd
e1
ec
23
14
eb
cb
cd
e7
ec
d0
c2
eb
f1
06
ee
fd
09
17
dd
f3
0e
04
03
c4
e0
05
15
03
09
b6
cf
f1
01
a6
be
bc
8c
b4
0d
d1
b6
ee
27
4c
23
0f
15
18
32
16
21
18
0c
0b
11
37
fa
0b
f3
24
12
ef
fe
07
2c
f4
c7
e6
ce
18
e8
e2
ce
fe
16
2d
17
09
f9
2d
3a
0d
14
0e
20
2a
02
e2
d7
1b
0e
c2
b0
cf
d8
c4
d9
e2
1a
f8
1e
fd
03
0a
2a
03
d0
06
ef
11
ee
e4
cb
aa
f0
96
b1
e2
28
c8
e2
13
36
3b
ef
ba
dc
f5
19
01
fd
11
05
21
00
17
2a
26
0b
38
10
11
b4
7f
eb
a0
04
40
3b
36
16
ed
e9
e9
18
07
f1
13
ff
25
04
e4
03
d3
03
ee
cf
ca
cc
f4
a0
cc
17
0d
e5
fb
11
07
21
fd
f9
f3
fb
e5
08
e5
e2
ee
fa
06
c4
dd
0d
00
e2
f5
1c
0b
ff
fb
dc
0e
20
2e
f5
ef
16
32
17
d4
f2
07
29
07
c2
07
24
2c
ff
d1
12
17
1b
e7
df
e8
f1
30
32
fb
ee
1c
1c
12
f1
f8
1c
1d
0f
e2
18
22
0e
fc
db
ff
f8
15
e0
eb
fd
f3
1a
17
f9
11
0c
18
f4
d9
04
17
f8
9c
ef
fe
f1
cb
b4
17
23
ea
ef
df
d8
f3
de
dd
e8
e6
ec
e1
d6
f5
f9
f2
fc
fc
f5
f0
f4
13
0b
d5
e1
eb
f3
0a
e9
fc
04
36
39
eb
df
00
19
03
ed
09
21
10
ed
cf
fa
fb
1f
04
dd
03
03
19
1a
e1
fe
fc
e0
f8
0e
d5
0d
f9
d4
0a
0b
2d
31
07
fa
0e
36
15
12
ec
f5
23
0f
ec
f6
0a
2c
1c
d5
eb
2a
31
f1
f1
12
36
21
cf
ee
11
2b
07
ee
e6
fa
f1
1e
fe
f9
e9
f9
39
0e
d4
e5
1e
27
dc
db
da
19
21
e9
f5
d6
0b
18
e6
f1
e6
0a
02
f9
01
fc
16
29
c9
d5
16
29
e7
c2
f8
ec
15
ca
e9
09
ed
de
cb
fa
12
f9
bd
dc
fe
f5
f8
f3
d3
0a
01
19
fa
bd
f8
39
17
16
a5
b1
19
0f
21
00
33
0b
f5
2d
07
16
eb
f4
39
04
df
fb
10
21
f7
b2
0b
09
3b
fd
a9
09
1c
3d
06
03
11
f5
15
09
11
ea
e2
19
f8
df
f4
2e
1a
33
1e
fd
ef
df
0b
2f
1e
fb
ad
c2
20
4a
2b
22
f1
a4
f0
03
e6
03
e6
e8
06
0d
14
03
13
f8
f2
ed
ed
12
ec
ed
f0
14
1d
0e
00
da
ef
06
eb
fd
f8
01
fe
f5
ed
0a
fa
0b
f4
f9
f3
0e
0f
ec
0b
03
1b
04
01
03
00
f6
ff
13
13
10
0e
1c
0a
10
0e
20
ed
e9
f3
02
f4
00
0a
f6
d1
d2
f9
15
eb
df
e9
d5
ec
d8
d4
f5
e8
f6
eb
9e
b9
f8
09
26
0a
db
c2
f1
1f
43
3a
24
ed
df
fb
04
1f
e8
e5
e0
f5
f6
cc
03
f9
c4
d6
de
1b
0d
0f
e8
e9
09
36
22
1e
ec
d9
e3
24
28
f6