13
0d
ff
35
dd
ef
3f
73
4f
1f
e9
db
2d
5b
24
d3
ba
b4
16
13
b2
b4
da
cd
00
4e
29
3a
06
24
13
4e
32
21
0a
34
1a
f3
09
d7
be
d4
a0
e3
da
8a
9a
cf
e8
2b
f8
c0
0a
0e
4b
b2
f5
e0
13
4a
d8
c2
40
30
0a
b5
fa
23
59
e4
fe
d9
28
21
cf
42
f8
fc
33
1c
e9
e5
12
23
ff
f1
f1
14
30
e5
1e
26
3a
06
04
1c
20
02
06
c8
ee
07
cd
b0
0a
f8
c4
e4
2a
1b
fb
29
51
3d
4b
f6
3b
22
e7
ce
f2
1a
bb
ff
ce
e9
17
d9
e4
c5
fe
f0
ee
b5
ed
28
31
56
da
c7
c7
3c
37
3b
2e
fc
cc
1c
1f
fb
