00
ce
d3
f6
d1
15
f2
bd
92
a8
22
4c
0a
8d
bc
12
10
0d
0b
3c
10
30
85
81
6a
05
33
13
2e
b8
13
4d
48
cd
de
de
35
17
d1
c6
fb
f7
f4
23
df
2e
3a
2a
f3
ff
21
f9
2e
f8
0c
25
21
e1
f7
25
0f
50
2c
35
0c
1e
4c
fa
ea
f0
46
09
e4
cd
d5
9c
97
a3
ea
fd
a7
d4
25
37
f7
d7
e1
19
46
19
40
41
6a
20
0d
44
6d
fb
f4
fe
e7
1a
14
2c
32
20
51
68
82
56
f7
14
ed
39
3c
0b
db
9b
d6
ec
c6
82
5f
c2
d0
d6
f6
55
3d
9a
30
46
4c
63
23
bd
00
45
4f
40
b6
bb
dc
f3
2a
95
c7
02
ff
1a