e1
e2
e3
21
4e
f6
29
14
e0
17
09
38
46
15
f3
f6
f6
ec
d2
07
d2
cd
f1
f8
da
0a
03
e9
fd
15
11
13
e2
d5
bd
ec
fe
0d
ce
89
0a
f3
c4
e8
19
f7
d9
0c
0b
06
f6
cf
00
1a
01
e5
d0
c5
b5
eb
20
0a
d1
e0
0a
0c
f3
2d
30
f8
0d
29
34
2b
0d
e6
dc
ef
f6
cb
f9
f8
f4
11
f6
ff
f8
f4
e8
fd
07
06
2c
1e
f4
0d
38
29
ef
c7
10
e3
0a
10
e7
e4
f4
11
04
de
13
16
e2
f6
2b
1b
ea
09
2e
0b
29
41
34
13
b0
f6
1a
15
ac
c8
e6
35
49
19
e7
12
ea
09
36
08
0a
fd
05
f5
ee
04
db
e0
d4
f0
04
14
e5
e5
07
fd
1e
0f
ba
dc
ea
2a
38
f7
d7
ea
04
38
45
f3
ca
c3
ef
27
01
f4
f4
c0
f1
40
15
fb
bb
9f
ef
eb
0a
e6
cc
b5
fa
df
0c
06
e6
17
e8
00
0a
0a
07
f9
fc
03
0e
fa
e7
fa
c1
f3
0e
d0
b6
d3
d7
f0
12
fb
e0
d5
14
1a
04
28
05
31
17
2a
08
ee
22
16
ef
f9
1a
0e
fe
ff
f0
1c
01
f4
f1
0a
0c
e8
fc
e5
0d
01
10
00
36
4b
0f
22
07
f5
02
03
0c
d9
de
f6
08
d8
d2
d0
f9
f7
e6
f4
0d
05
06
fd
26
1b
fd
0a
e7
06
0b
0f
da
b7
d0
26
2b
12
ca
b8
ed
2c
2a
ee
f1
c6
cd
13
f3
eb
de
dd
ee
10
df
c3
bb
d9
25
d2
bb
85
b0
b9
9f
c0
e2
de
a0
b1
e7
f2
ec
e3
fb
fd
08
fe
31
15
02
e8
d0
17
2b
07
d9
f0
07
20
f3
0c
fb
dc
ec
f8
19
f4
30
0d
23
00
0a
4e
29
d8
ed
34
4c
c6
e7
1b
2b
fb
d9
26
23
24
de
3b
28
08
fb
1a
fc
ef
d4
16
19
f9
ce
ea
18
f1
e4
d1
08
2a
f1
c4
0f
2a
26
fa
1c
32
28
ef
10
e5
c3
a8
c7
f3
f4
a4
e4
ff
0a
f5
eb
1a
1e
fa
b6
18
24
05
f2
2e
3f
17
0f
04
eb
bc
9e
cf
16
ee
e4
d0
fe
f1
c4
02
00
00
dc
ec
07
fd
e9
f4
14
1e
fd
08
26
fa
03
f8
ee
e0
f1
db
ef
d2
02
e7
bd
de
fc
eb
e7
e8
f0
22
03
22
d7
08
11
f6
af
02
03
f9
c6
14
13
03
06
11
29
19
dc
e3
1e
f3
ee
f0
dc
06
ea
e9
d2
b9
14
26
1c
0f
0a
1f
2f
2c
f5
06
1f
fa
f5
d4
16
f0
13
a9
12
08
0e
01
df
1b
26
26
32
fa
fe
eb
2e
32
f2
c3
dc
32
ee
e6
c6
04
15
f9
d9
c2
10
ea
f4
e3
10
10
17
11
f0
d4
c8
23
11
df
b5
c5
2c
fd
b6
c5
ff
ea
f7
f0
c9
11
ef
f4
01
ec
f0
14
2a
f4
f1
d4
f4
04
e2
c8
e5
f7
02
ec
f3
f4
05
fa
e0
ea
fb
f2
17
f6
05
ff
bf
ce
f4
de
dc
19
ef
ec
f0
fd
29
1e
0e
24
11
1b
03
0b
f6
05
df
c8
b9
cc
e5
d8
d0
f5
01
12
1c
15
eb
00
0a
1d
22
2e
03
22
13
0d
1f
21
18
e4
f1
f8
e1
e8
df
02
fa
05
fe
d7
d4
05
0e
0e
df
ed
e9
f6
08
e4
e8
e5
05
c2
b0
d6
d8
ab
c0
14
09
1a
02
09
01
19
05
fa
1c
0f
ed
05
dc
ee
e2
fc
dc
e1
e1
ed
f8
e5
db
c5
02
11
08
e6
e8
10
04
00
f9
04
fb
17
04
23
0b
e9
f1
e4
ca
d0
e3
f7
ee
ee
cb
04
05
f1
f6
d4
0d
21
14
ed
ff
e3
00
02
05
f2
f8
0a
e9
d3
b8
ff
00
dc
f2
f5
23
17
f4
00
f8
43
eb
a2
ed
03
fc
de
d1
09
f9
e0
f3
05
14
f3
ef
d7
ef
fe
ef
e0
c6
dc
01
c3
e2
d0
d2
e9
9f
ee
00
02
e6
86
25
2d
39
d1
b9
54
2c
01
b9
f2
da
dc
e0
20
1b
03
f7
0f
1d
3a
3b
ec
df
26
2b
1f
e9
be
24
2c
e7
c5
10
2e
28
db
fa
d4
ec
0e
12
06
db
05
27
31
e8
eb
04
16
1a
f1
e4
ff
1e
f2
f5
02
15
0f
e6
c8
ce
dd
f8
12
fb
d4
e5
07
f8
e6
f6
14
16
19
f9
de
08
ec
02
b4
ff
f4
0c
21
fe
f7
08
13
13
16
07
f6
03
ee
0d
09
fe
fa
19
e5
d3
e1
f8
f2
d4
c7
e2
e6
15
e1
f6
01
e0
01
30
28
1a
1d
df
f8
19
1c
35
db
d2
00
14
21
f1
ba
e7
c8
d0
dd
c1
bc
f1
f2
00
08
13
fd
dc
e3
15
00
16
21
e8
e9
ea
ff
0e
e9
f5
dc
e1
eb
21
09
f1
01
f3
22
e1
cc
db
fa
05
fa
ed
f0
e9
f9
e5
ed
1d
f4
fa
af
06
19
0a
0b
03
00
19
19
f6
f1
df
03
04
09
dd
c3
d8
0e
01
da
d3
eb
fd
18
f5
ef
f9
0f
08
15
14
15
21
0f
16
1b
fa
0b
e0
e5
f5
0e
2d
d2
c1
cf
dc
f6
10
dd
cc
fd
f3
1c
15
05
f1
ed
16
1d
21
24
17
d3
cd
fc
17
f4
f0
c8
b5
d7
d7
fb
e2
dc
f1
f7
d5
03
19
30
33
a9
ac
bb
f3
08
00
fe
10
16
e4
f3
35
36
35
06
18
09
06
1d
16
0e
0d
1e
1a
10
0b
20
e2
e4
fa
fb
f6
0b
da
bb
f9
f0
ed
ed
ec
03
f9
fc
e0
09
16
ec
e9
f0
07
be
d3
dd
cc
e6
c2
f6
06
cd
d0
0a
0e
f6
ed
d9
0c
fa
02
e4
f4
ea
df
d6
c8
d9
d6
df
02
e0
de
16
17
19
f9
e3
21
1f
15
1c
f5
03
fe
28
31
1e
e1
c8
d9
ec
e5
ed
ef
da
cc
c9
1d
23
07
08
fa
0f
21
01
02
f9
18
09
0c
03
ee
c3
d3
de
e1
c3
fc
01
11
27
de
09
28
2c
42
15
fa
16
14
0d
1d
ff
0d
2e
29
1d
01
05
08
d1
f3
f3
0c
0b
f7
25
00
26
2c
00
ee
27
f9
f9
b2
c8
f5
a3
cd
17
3b
c9
e0
f0
d7
fe
d9
ea
eb
04
42
e3
f4
36
34
39
1c
20
1d
1a
b7
c5
ba
d6
e5
12
10
e4
d6
0f
0a
e9
e4
10
34
01
d8
0d
02
fb
d9
da
c9
b4
e3
06
ef
9c
de
27
10
07
e8
0b
1d
27
0c
0c
17
05
0d
02
0a
ec
c6
c8
ef
ef
d8
d4
00
04
f2
e2
e1
ff
08
fa
ee
12
13
f9
ee
05
2e
1c
1a
05
3c
fc
b7
ff
c1
bb
10
2a
12
23
0f
18
11
06
09
fe
02
12
11
23
20
f7
dc
04
2f
fc
a3
cc
09
ea
d3
08
14
10
dc
c4
d2
04
15
1b
0f
eb
fa
29
20
05
c5
11
dc
ee
eb
b2
f7
ef
de
f5
d2
fa
f9
f6
0e
f7
0f
ee
f8
d1
e3
fa
1a
ff
b3
ee
29
08
b4
a4
f6
06
d2
9b
d9
f9
f9
db
e6
dd
0c
fa
1d
0e
03
14
e3
f9
04
16
25
d3
f6
0e
33
00
b0
ef
18
1f
bc
b7
04
27
0d
b1
ef
e5
1f
25
25
01
e0
17
15
10
f0
01
22
2c
0d
d9
fc
09
11
f3
e0
19
12
ff
e7
e5
07
2b
19
18
1c
f2
00
fe
01
fe
e6
e6
1c
f7
c7
0f
f7
e6
07
e9
f1
0a
f1
fc
f1
18
0e
18
11
0c
f4
f7
22
f7
df
ea
f9
0b
f1
ed
fe
e2
06
14
fe
f6
e5
fb
0d
0d
1f
16
f5
d6
0f
25
33
1e
c3
15
07
28
32
bd
f7
e5
18
36
08
dc
e9
f2
23
1e
ee
fe
06
c8
db
05
03
d1
9c
f4
fc
d4
d9
cc
9c
e2
fd
db
ef
f7
ed
23
e5
ce
ee
ec
3d
19
23
17
04
f6
40
4c
fc
13
0a
36
39
e4
2b
e9
06
08
c1
0c
e7
0e
09
f1
cd
f5
e8
0f
f3
d0
e5
f9
1c
e9
e0
c6
13
fa
e8
f1
f1
0c
07
f3
1c
d1
f2
ee
ee
10
11
eb
1f
31
ef
d0
f5
10
10
03
cf
ec
f9
05
16
e8
e5
00
1b
1f
f0
ed
f1
2f
01
de
0b
0f
f2
04
dd
fc
1f
d6
c5
e5
f1
0c
20
cf
09
d4
25
3c
ed
ec
f6
02
1a
ef
07
be
cc
e0
d7
e5
b5
bf
e0
17
04
08
e8
f4
fb
05
2c
33
1c
e4
08
0b
3b
41
16
be
de
16
04
f6
f1
ca
15
2d
28
f1
b3
95
b4
f9
fb
01
10
15
df
ee
f9
22
2b
0d
01
0a
31
1f
0c
f8
04
30
02
f7
db
cb
d5
c3
03
d3
d0
c8
c6
e8
fe
e3
e5
f9
f0
32
0e
24
f7
d4
28
10
0c
f6
ed
03
eb
16
04
f7
e7
0d
e3
0f
10
e6
db
f2
d7
f2
25
2a
0c
24
f1
0a
09
0e
ff
f6
fd
f9
d3
ee
e4
df
fe
14
0a
1c
eb
15
13
26
29
2c
13
16
ea
f2
e2
ea
d7
ca
f9
ee
1d
0d
0a
d7
f9
11
23
32
1f
f0
02
e4
ef
f9
d2
f6
1d
1b
05
e8
de
d3
e5
dc
15
0e
d4
ea
10
2b
1f
31
13
04
04
fb
ee
ec
fb
f5
f0
04
05
eb
d1
f6
e7
ab
d9
f6
fe
da
0c
16
07
1a
43
20
2a
ef
e8
05
0e
11
2f
4c
16
f2
cd
02
e1
fb
08
f0
e3
e8
fa
fc
0b
e6
04
f5
f2
e4
f6
03
d8
d2
e7
06
fd
dc
f2
dc
f2
f1
09
fa
0f
03
04
20
2b
28
00
ea
ea
e1
fd
e7
ec
e0
04
03
09
26
0b
ef
d5
0e
f5
0a
29
12
eb
1d
31
26
29
28
27
19
19
1d
e9
d7
c4
f4
0b
f7
ea
f3
f3
1d
f5
eb
fa
10
15
1a
30
ff
f1
18
fb
df
d1
fb
1f
eb
dd
e7
da
d7
20
1d
1d
1d
2c
23
15
bb
e2
55
16
12
10
aa
8f
f7
f5
09
02
ed
02
fd
ed
0a
20
cc
ce
e3
ef
fd
b5
af
96
c5
08
c3
a9
bf
f8
fe
bb
bb
da
2d
01
e0
ba
f6
1b
19
21
01
d6
28
48
12
0d
dc
17
39
16
e7
c1
ee
09
1a
ee
ed
dc
cd
ff
f5
e7
e3
eb
11
ff
dc
d9
d5
fb
f5
f3
e3
f1
09
04
1b
07
f0
0b
1a
2c
1a
fc
ff
fe
21
11
f8
fd
fc
e5
ff
2c
04
fb
da
ce
04
e5
f9
1d
f4
d1
ed
e5
01
0b
0e
ff
0a
0a
00
1e
f3
1b
d3
ef
0b
06
25
00
e6
bf
ea
1f
26
15
0c
f5
07
ff
0d
34
e4
fc
fb
14
15
e9
c3
fe
cd
e9
0b
e0
ea
ec
09
27
12
17
15
07
16
1c
09
fe
f5
db
bf
d3
ea
d8
f0
0f
fe
24
22
f7
ba
bf
ed
e6
0a
10
0d
e2
df
f2
2e
1f
01
e4
f8
ea
e1
e2
f6
3e
05
39
07
d4
e9
00
16
d6
ee
0d
fa
d4
b9
c7
0d
e5
e1
e4
cb
e3
f3
f3
eb
f5
1f
dd
1b
14
e1
09
22
11
f0
29
e4
12
ff
08
30
e0
e1
f5
22
21
f6
1a
16
1b
1d
02
fa
2c
1a
d9
ed
f7
10
05
23
29
23
0b
15
1c
e3
05
0a
e4
f0
f6
fe
14
e5
dd
e4
d4
ce
0b
08
0f
11
04
1f
1e
1a
14
1c
09
0b
f0
cb
06
e6
0f
18
e5
ef
ff
f0
0f
14
21
2b
21
00
17
33
08
f8
ca
d9
9a
bd
cb
d8
e4
c2
0d
24
09
11
f9
09
25
ef
da
e2
13
25
07
26
34
27
ef
0a
18
09
c6
f4
e7
c4
e2
0c
0c
d1
f3
f5
f7
f7
f0
25
34
02
c3
de
e4
bf
d7
f3
c8
b5
e2
11
18
16
13
08
12
f6
32
2a
15
e0
ca
a6
cb
ef
03
d4
8e
d6
c7
df
13
ac
db
07
21
1b
0d
30
22
2b
0b
04
10
0a
fe
e2
b6
da
01
f3
fa
b8
f0
f5
bf
09
9e
ce
11
31
2b
07
1e
1e
23
04
1f
26
f8
ea
d4
cf
f4
01
01
ee
98
d6
e8
ff
11
fc
0b
12
05
12
14
2c
11
eb
f2
10
e6
ea
04
e7
