cd
e7
0e
0c
08
e5
fa
0f
f2
c9
01
0d
f2
d6
d5
d7
e3
02
ed
ed
06
12
f7
d9
da
d7
df
f6
09
07
f9
09
f8
12
06
1a
e9
de
02
da
0e
07
0e
0b
ee
f4
f6
06
13
20
6b
97
c1
0c
3e
b6
b3
b0
07
45
03
fc
f3
02
39
1e
12
08
fb
e3
22
15
fd
e2
ad
f0
ff
e8
21
36
ee
16
fe
06
22
0f
11
06
fe
2e
fa
15
02
00
1f
0e
1c
1c
07
d2
af
a4
d8
f3
f5
b4
aa
c2
0e
48
08
05
12
09
0e
0e
0c
03
ef
b3
07
0b
04
06
e9
c8
d6
f1
fc
10
d4
17
1f
24
fe
f9
0a
ee
ec
f9
08
ff
f7
13
06
07
0e
f3
02
22
de
05
0a
f0
e5
0a
1b
02
ec
08
14
1d
30
fa
ae
03
12
0f
e6
e1
ee
0f
02
0d
dd
08
ff
f5
09
fc
05
01
ff
f8
fe
06
0b
fc
fb
f4
0a
fd
03
05
01
04
ff
01
00
f5
a4
ad
ed
03
45
b8
de
c0
f5
4a
00
ff
25
f8
e4
0d
02
10
d3
cc
f6
06
04
0b
d5
e1
2a
0d
e0
30
0c
fe
f5
14
16
14
fa
1c
11
08
07
ff
27
0f
d7
0b
ee
0d
f4
d5
c7
d4
e0
f5
f0
fb
0e
fc
dd
dd
fb
05
ee
f6
01
0e
13
d0
f3
e8
fe
0b
ee
15
f1
ce
ff
12
23
28
de
fc
13
04
f2
0a
1a
0f
a6
9a
f0
d9
eb
ea
e4
fd
23
03
ed
d3
b2
cc
20
0b
fa
db
c9
c0
f5
cc
c2
f8
1b
35
ea
03
ff
1d
0f
f0
e7
dc
18
0e
f5
08
16
27
0b
f4
08
02
10
fb
d6
06
13
33
13
d1
f5
15
0b
f7
d3
fc
1f
15
07
b7
d2
0e
ed
f2
fb
d3
32
0c
11
eb
f7
15
ec
12
ff
e5
e1
1c
18
0a
c2
e8
11
13
14
e0
d3
d5
f7
15
14
05
e6
ea
09
34
f4
01
fa
cf
12
12
07
dd
b8
f0
1b
09
18
06
fa
f3
f6
11
fc
0a
01
04
07
f0
17
17
fa
e6
f9
0c
fa
ed
08
16
0b
e7
f4
fa
05
f8
05
f9
09
09
0c
f4
e5
f4
08
0d
f0
f8
ff
08
00
f0
07
fc
f7
ff
01
fa
fe
f1
05
fc
01
0a
f8
01
f8
f9
ef
ff
fa
f7
01
ff
0b
0f
10
f1
00
00
00
ea
ff
02
fe
0c
10
ff
10
08
0c
ef
f2
f8
f8
01
e3
f9
0d
15
01
f9
02
11
0d
03
07
ff
f7
f9
f1
fe
e2
e0
e9
fe
11
05
0e
04
07
f1
ee
03
09
ee
02
f6
f2
ff
07
ed
03
ff
08
fa
f8
08
fa
fa
11
fa
fc
05
f9
0a
10
f5
fb
f2
fc
0d
01
ff
fa
f1
fe
f7
01
f8
fe
f2
05
0a
01
02
f5
fe
0d
15
03
0a
0d
04
07
f6
f7
0f
f9
0a
12
f9
0b
0d
11
07
fa
06
f4
f7
03
f6
fd
06
0d
04
f9
01
03
04
ff
fd
09
02
f8
09
fc
04
09
07
ff
05
f4
e8
e8
f7
eb
f5
0f
0c
0c
0f
02
13
f8
06
fa
f3
0b
f7
0b
02
f1
fa
0d
f8
f0
f9
fe
f6
fd
e0
e8
03
0c
e6
f3
04
08
07
fd
fd
f9
fc
f8
fd
f2
07
01
fd
07
fc
ef
ef
ef
04
f8
fa
e9
fc
03
fd
f0
f4
fe
0c
eb
ec
f0
ed
0d
f2
fd
f2
09
ff
e8
ff
04
07
fc
0a
07
08
e4
ff
08
fb
fe
04
07
02
ff
03
0a
00
ee
f0
00
19
02
0f
02
e1
04
07
fb
f5
08
0c
fe
0c
11
11
f9
fd
18
10
f7
f1
02
1c
03
f2
07
f6
eb
f9
11
05
09
03
02
ff
02
00
03
fe
05
13
0c
11
f8
07
12
14
06
f0
04
06
f9
f1
f1
f3
04
f0
f0
fa
fb
f9
fa
07
ec
f6
f3
00
16
f6
f2
f6
07
17
02
f5
f1
f2
07
ef
ed
02
f4
f9
fb
fe
01
fa
03
fe
fa
f8
ff
04
f5
f9
0f
0c
fb
03
fe
fc
f9
f0
f3
fa
f0
f3
02
f9
06
f9
f0
02
fe
03
f4
ef
f8
f9
f1
ee
ef
f9
04
02
f6
f6
f7
06
f9
01
ff
04
fb
f9
f5
f3
ee
01
f0
fc
02
f1
fe
f6
f3
fe
f6
f0
f1
06
ff
f7
01
06
fa
ef
00
00
f4
f3
09
01
f6
0a
04
07
03
ff
05
ef
f5
f8
f4
03
f4
fb
fa
fe
00
04
01
f5
fc
01
fd
03
fa
fe
ff
f6
f8
f7
02
03
fd
ff
f8
f6
fb
fd
05
f2
f2
fd
00
0a
fc
ec
fc
00
0a
f0
fc
04
03
ed
02
00
f5
fb
f3
fa
05
fd
f7
fe
fd
f6
f7
fe
f7
fb
f3
04
f4
05
01
00
02
ee
ee
fc
f5
f4
f5
f7
04
06
fc
0a
04
ed
f4
f2
fa
ff
f0
04
fe
04
f4
01
fa
fa
f3
f9
f5
f3
fa
00
04
ed
f5
02
f2
f7
02
ff
02
0a
f4
fc
fb
05
f8
08
0b
f8
04
0a
f6
08
f6
05
06
f3
f7
08
0c
02
f9
00
02
02
ff
ed
f4
06
fe
f9
f4
fb
f2
f1
f2
00
fa
03
04
f6
f3
fb
01
f7
f3
04
f9
ee
06
f9
f1
fa
f6
0b
f3
f0
08
08
ff
f2
f1
ff
06
ff
05
fa
f1
f2
fc
fd
f1
fc
ff
05
fa
f8
f7
f7
fe
02
ec
fc
f8
f7
fb
00
05
fb
fd
f3
f8
04
f5
01
01
f9
fa
f4
f6
f0
02
07
05
f3
09
fa
02
04
ef
fe
fc
ef
f7
fa
f7
f9
f4
ec
f0
f9
01
02
fb
fa
f4
ee
f2
fd
fa
ee
00
0a
fa
fb
0a
07
05
ef
fa
ee
08
ed
f5
00
05
ff
f9
05
01
fb
f6
f1
fe
f3
f1
f1
01
f8
fc
f2
ef
fe
f5
f1
f4
fa
f0
f8
f1
f4
02
0a
f8
f9
00
02
fe
04
f2
fb
f6
ff
fd
f6
fd
f6
ee
f5
00
f4
f9
fe
f3
f0
f5
06
f2
f9
04
05
f2
ee
0a
fd
f9
f3
fd
fa
f9
03
f2
04
00
f5
f7
f6
08
ff
f3
07
17
12
04
f2
cc
ff
fb
10
e0
db
ec
ef
d9
08
38
fb
ed
f8
19
ff
df
03
f6
f5
e7
ef
ed
15
1a
1d
f2
01
0e
ea
fc
e6
0d
00
e2
d3
06
0b
f0
bc
ef
1a
13
18
29
54
2c
ff
f7
22
4a
e8
0a
00
fa
f3
97
cd
e5
f2
dd
e1
05
1e
db
95
1c
4a
1b
fe
fb
bf
f1
d8
0c
29
d6
07
04
13
f0
f1
f7
ef
1c
cf
ff
ef
27
01
8e
18
00
23
27
2c
1a
0a
ef
ef
e8
03
f5
fd
f7
da
d6
18
05
f9
e7
fd
16
13
fc
e8
28
14
ee
fb
16
15
12
08
04
f4
18
2e
ff
df
16
e9
0e
04
f6
ea
f4
0b
17
f4
e1
f1
08
1c
f5
f2
f7
18
f0
04
ee
fb
37
ef
00
0d
0b
20
de
25
1c
f1
00
1f
1d
3d
d9
02
29
1e
15
02
02
f8
02
fb
06
02
fc
f7
03
fd
0b
0b
07
f6
09
0a
0a
0a
ff
f9
fd
0a
fd
fc
fd
14
1f
09
01
d0
02
ee
f0
e6
d3
02
09
ef
c0
02
0b
fe
e2
cd
13
00
f0
f5
08
df
dc
ff
20
10
ef
06
0a
20
00
0e
f0
f8
0b
e1
1b
04
fd
16
01
08
ff
14
29
35
17
f7
1d
ff
e9
2d
00
1c
0e
13
12
fd
fe
f1
f8
f9
07
fc
f6
f1
fd
1d
f9
c7
25
0e
f8
1d
ee
d1
e4
f5
1b
d9
97
e8
fb
ef
d7
f7
01
da
da
23
35
f0
e4
0d
18
f1
fa
0e
04
12
c2
ce
09
f8
03
da
db
23
f2
e8
f5
f1
14
e6
ee
01
15
16
ed
09
05
0a
0d
0c
02
e9
17
fc
ff
f9
e9
ec
0c
e3
01
10
e6
ef
f9
1a
48
e4
da
15
09
f9
18
dc
0d
18
00
26
47
13
13
08
49
0d
33
07
f9
26
ee
12
f8
11
40
eb
f2
10
05
e3
fe
19
29
02
03
18
00
13
ff
fd
04
fa
d3
d1
0b
18
f8
ef
f5
08
01
04
ff
1e
16
14
04
fd
0a
0d
17
fe
0a
19
08
f6
f8
19
0f
f7
f1
f5
12
0b
f5
f2
e9
de
c3
14
17
ff
09
0d
f4
03
fe
f3
f7
f3
0a
fa
d7
da
ed
17
04
fe
04
e9
d6
e5
fc
0f
33
1a
06
ee
cb
ed
ea
fe
fa
d1
c9
05
ff
e1
f0
ed
1e
1d
05
f4
25
09
ec
db
07
ff
e6
0b
d9
cb
d8
f2
0a
ff
a1
1a
fa
13
04
e4
01
f8
06
fb
02
f5
e5
df
db
ec
1b
10
0b
11
f5
f6
d9
fc
05
e7
0e
10
16
21
1c
03
09
12
1c
09
11
0b
0d
1c
14
20
0f
0d
f5
04
13
f4
07
06
10
d7
d8
09
0b
fe
e4
13
1e
17
f6
f6
d9
ec
e7
d2
1a
03
f5
24
fa
00
13
e2
fd
e8
0e
14
f4
fd
22
dd
01
21
23
2f
cc
f9
1c
05
17
01
ff
0c
05
f7
f5
f9
f4
f6
fa
0e
02
07
09
f5
fe
0b
03
08
f8
08
0c
f5
fc
fd
13
0a
f4
dd
ba
04
0b
fc
d6
df
f3
06
14
3d
20
fc
f7
fe
1a
14
f6
e1
e3
07
0e
e5
c2
fd
2d
be
18
f3
06
f7
e2
10
23
02
eb
fe
14
0d
e6
e3
18
e5
12
f5
f7
f2
12
11
06
05
1b
0b
01
e9
15
0f
fd
0d
f4
f3
fc
04
0f
f8
e6
e6
de
03
e8
d7
f9
1b
20
f2
ed
09
0e
02
e8
f9
04
fe
f7
e4
17
0b
f4
f0
f9
11
2b
0a
03
f1
fb
12
09
08
fa
e8
e6
e8
01
15
dc
17
d6
01
00
1a
24
1b
ec
e5
14
02
ec
eb
f4
0b
0e
f2
ff
01
10
fc
08
fe
ff
13
17
0f
0c
f2
0b
18
04
fb
09
f8
23
fa
00
1b
f8
0a
07
e4
da
04
07
f5
fb
04
fc
1a
e1
09
0a
ec
04
fb
29
0b
01
0e
fb
e5
1b
0d
02
25
07
1a
0f
0d
1b
18
18
f8
05
0a
16
04
e7
01
05
0d
fd
fe
fb
ca
ee
e5
d6
f9
10
f6
14
07
eb
06
f7
fa
fd
f4
ff
ff
00
fc
12
f7
00
0e
0f
f2
16
29
25
1e
ff
e0
f7
06
03
02
fb
fb
20
23
13
f8
05
0a
17
f0
18
03
ff
f5
b0
12
f6
cf
dd
cf
de
f3
25
3b
27
bf
fb
1b
30
31
c7
db
f8
2e
32
00
f8
f9
de
df
f4
14
01
00
c5
dd
f6
09
17
3c
cf
e7
ee
0b
30
1a
02
e6
19
2d
0a
f9
f9
0c
fb
13
f6
f7
db
e1
e6
0d
2b
23
f7
f0
0a
07
14
1e
f1
f3
11
13
fc
ef
f3
fe
f1
d6
f4
f6
ea
de
cf
f1
08
05
09
fd
10
fe
0d
0f
12
f2
f2
01
04
0f
04
03
0b
f1
f4
0d
11
f1
ec
e1
f4
fa
f0
ea
e0
1d
17
f2
0a
15
0d
0f
0d
1d
fb
0d
fb
e1
0d
cc
ff
e0
dc
f5
d4
f7
f7
fd
f6
05
f5
f5
01
09
ff
f4
00
0b
09
04
01
f4
0a
f4
00
fd
09
07
fd
07
f8
26
20
1f
13
df
eb
08
28
24
f1
f5
0c
11
e7
08
08
ff
f2
f3
0b
1c
1d
15
00
e7
e9
c6
04
eb
f9
0d
0d
17
1a
1c
14
f6
f1
1b
08
0b
f5
d7
0d
03
e1
fa
f3
0d
ea
d7
ec
15
07
e3
fd
08
08
0a
0c
f0
05
3c
1e
f2
f2
06
09
fa
07
f6
fd
e9
cd
0d
f5
07
14
ed
14
ff
fd
ff
b6
02
07
fa
d9
e4
00
f0
0d
0e
fa
ea
02
12
fa
15
0d
2a
3e
0f
ff
d6
f7
14
f5
ea
f4
0c
f9
f1
03
0b
04
e3
0d
22
00
11
11
1c
0f
f6
ec
06
07
f1
16
05
fe
f5
d9
0a
fd
04
ed
e5
fc
fc
f9
07
f8
02
01
10
1f
fc
f3
f9
ec
fa
fa
23
05
ed
ee
fa
37
04
0f
02
f3
25
ff
f4
00
02
0c
e5
dc
e6
10
dd
e4
06
fe
06
fc
fb
f2
f8
1a
07
04
ee
fb
fc
22
f4
e9
ed
db
29
ff
f8
f7
b2
08
21
07
f8
f9
31
0c
09
dd
e9
19
07
e7
e5
10
16
11
fc
15
29
2c
1e
10
12
2b
f3
f7
11
03
f4
ed
dd
ec
e0
e8
01
e5
e9
e8
09
0c
00
f8
fb
3e
00
1b
30
20
41
04
08
00
f5
fa
f5
00
e9
d3
cc
19
29
03
de
de
eb
f8
17
e4
0e
e4
d1
d3
ee
3c
d7
e2
0c
fc
ce
03
07
16
f4
cc
e7
0c
2c
07
0c
c5
f8
e8
f5
45
ef
ec
06
2f
5b
f0
ea
fa
fc
0c
13
ff
00
e4
08
fc
26
19
03
00
00
f3
de
dd
1e
f1
e6
f2
0f
3b
10
14
09
fd
fb
02
f5
f0
f6
f7
27
f7
f4
da
f3
fb
0c
f9
f6
0c
0e
20
20
04
2c
f3
e7
06
24
2f
ec
e9
0c
fe
f4
f3
d1
fb
08
fc
12
f9
00
ee
26
1d
12
07
e4
15
0c
f7
0c
02
03
00
fc
04
0a
06
fb
fa
02
0b
fa
f5
f8
01
f9
05
09
05
fe
04
ff
0c
09
f9
f2
e1
33
21
0c
fb
c9
25
3b
ef
e3
09
fa
e1
da
d7
15
fa
03
fd
22
41
fe
f2
1b
26
10
00
ef
14
2a
1f
bf
d1
f4
db
0e
e2
c1
d8
d5
1e
0d
f9
fb
1e
41
fe
04
1a
11
ff
11
f9
25
fa
f1
14
fb
e9
e7
fc
fa
ef
fc
e8
f4
06
10
fb
f2
1d
05
21
24
fb
f0
1a
01
0f
e5
f8
13
07
f5
f5
33
11
00
f5
2a
5a
1d
08
06
03
0e
09
fc
04
f0
df
22
1b
07
2c
f5
29
25
eb
31
20
ef
fc
ea
08
08
f7
04
ff
f7
ee
07
03
ec
f7
fe
10
00
f9
f8
04
fe
e1
f9
0b
25
fb
df
05
fa
29
11
06
ff
e9
0b
f7
db
ef
06
05
12
f6
2e
01
00
0b
e9
ec
e7
ed
eb
e0
e1
06
e4
2b
f4
0c
07
df
e9
fd
08
1b
fd
10
2a
f8
e1
da
f3
df
e9
b5
d9
f5
0f
e9
0c
12
fd
22
11
27
40
25
2a
f9
03
fe
f3
ef
02
1c
07
01
10
1f
16
05
17
17
0d
f9
f8
05
ff
03
01
15
de
e3
1a
0a
0e
3a
2f
05
e3
e0
19
37
e4
da
d7
e7
f3
f1
ee
1a
06
11
01
04
03
00
e4
fc
11
18
b6
ff
f5
08
fd
e7
24
3b
de
e1
e8
0a
ef
16
fa
b3
c0
0c
18
20
bf
63
99
00
d7
06
22
fe
ec
c7
45
18
0d
fb
eb
f3
e4
02
f4
1b
c5
be
e3
13
15
d7
f5
24
21
30
ec
f0
fc
00
09
08
0f
08
fa
1c
15
03
0f
07
e6
ed
00
08
11
1b
22
1b
08
fe
ff
e2
ea
ee
fb
0f
ef
21
1e
ff
e1
09
f9
f6
e5
03
fb
01
f9
01
26
03
14
ec
fb
2b
1d
0f
e3
d0
ef
05
fd
07
0c
fe
0b
ef
02
ef
37
13
f3
25
17
2e
00
0c
f4
0b
0f
f3
08
fa
06
fa
f0
0e
09
02
f6
f2
02
01
08
f2
ff
08
f4
fc
fe
b7
de
10
03
fe
ef
dd
05
f3
eb
f3
08
0c
11
2d
ea
f8
01
fc
e4
fc
08
01
fe
f6
fb
f4
da
de
eb
1d
34
15
ed
e9
0e
f4
ea
e4
13
e3
d5
f4
03
11
16
f5
0f
27
0d
f2
ee
03
0d
15
ed
07
2e
0b
00
50
24
19
e6
e2
10
02
e5
fd
fd
0a
ec
02
15
0d
1c
2f
2b
fb
e3
07
ff
e3
03
f3
cd
e4
eb
2b
2e
10
26
18
11
00
0c
01
f6
f9
07
f1
de
0b
04
ea
a5
d6
fe
12
14
00
f8
13
23
21
06
17
15
08
ed
ec
e1
e9
e3
df
1c
21
ee
e5
e4
0d
08
ea
04
f2
ec
f9
18
0c
17
0e
25
12
fa
04
1d
ff
f1
f6
10
ed
b4
ee
04
0f
fb
2a
ec
ee
06
28
06
e9
f7
04
c0
d6
e2
19
09
ea
11
29
00
f9
d3
f8
16
11
03
2c
1f
02
db
ed
35
27
02
ea
fa
e3
03
f1
f7
15
fd
fd
f0
02
25
07
1a
0c
07
00
0d
08
fe
0f
eb
e9
e8
ec
d3
d1
e2
e6
e5
0c
0a
07
23
26
15
26
ee
f1
ee
08
fb
f5
d5
da
26
16
11
fc
de
db
f4
2a
12
1a
ee
d5
1d
04
f2
d5
e7
d5
de
ce
01
06
d9
e0
d0
e0
26
0d
18
ff
16
ed
17
14
05
ef
f0
24
25
fd
f8
a6
d5
f5
d7
db
16
e2
f0
d8
d4
1a
19
00
01
09
f9
09
06
07
16
fb
1c
fb
0e
21
cb
ed
08
0d
03
f0
f7
10
f8
e6
09
f5
00
0c
0f
f8
0d
f5
e9
e6
c5
19
00
dd
e5
f5
1b
04
06
08
06
ec
f2
cf
f9
05
d7
03
f0
da
fb
f7
01
e8
f9
00
14
ff
06
05
f5
ec
f1
18
ea
e5
1c
fb
19
ef
e1
2b
0b
0d
2b
f7
26
f2
eb
e5
01
00
ff
e3
f3
0d
f6
0c
03
09
ff
09
ff
fc
fc
0e
fd
f6
01
07
0b
09
fd
fb
05
07
f7
0c
fd
fe
f5
f7
f0
f4
fb
2a
e5
ec
ed
e3
20
05
ff
2b
07
ba
08
13
f0
d9
ab
1e
04
fc
1b
12
bf
fa
e0
0f
f6
03
06
fb
f8
ff
1a
08
fa
15
03
22
ff
e4
14
fa
fd
fe
f6
14
24
fe
e3
e8
02
14
06
f4
12
ee
f2
14
ee
f2
32
14
fa
f5
20
0d
04
fa
14
e3
c7
fa
0b
14
13
13
f3
0a
eb
ef
d0
af
eb
f5
f3
b2
a0
c7
ea
e8
e3
e5
fa
12
10
21
38
26
25
f9
e3
0e
ec
fc
d5
d7
09
c8
01
e7
0a
ea
f9
11
f2
fb
08
16
29
1a
2a
1e
fa
f3
06
14
ec
fe
fa
f8
0b
d8
04
fa
05
ef
c4
fc
08
fa
f3
f9
06
03
16
17
2b
df
d7
f3
ee
0f
e5
05
c6
0a
19
24
1d
d2
03
0f
13
ec
f4
f4
04
fb
ce
e2
dd
f9
ee
eb
f5
e6
fd
16
e5
e9
0b
fb
2a
15
e4
f2
0f
1b
11
e7
c6
d9
14
0a
fc
f2
ec
14
09
e8
ee
f2
f6
f3
1a
22
05
c7
c9
fa
02
1b
df
e3
e7
1b
02
e3
fe
e1
f6
d9
0a
08
11
0a
01
ee
02
ec
f2
fc
0d
10
e8
e7
e5
13
28
06
f7
0c
f6
fd
fc
22
18
20
0f
2e
24
e8
10
f4
02
db
db
f5
f1
02
ff
03
d2
06
17
15
c8
fd
1e
03
e5
e5
e5
01
36
19
cc
e5
f8
18
11
c4
07
0a
0f
11
eb
0e
08
0d
f5
c2
f7
fa
f4
e4
ff
02
2f
2f
1a
e9
fb
fd
f6
07
d2
ed
03
18
14
d5
08
24
11
12
f9
12
04
09
fe
e6
16
18
0b
fc
04
00
fa
0c
03
f3
d5
ea
f4
02
f9
fd
07
0c
0e
f4
0b
14
e9
f0
ef
03
fd
00
08
fd
fe
01
fd
f0
c3
f4
fa
f1
f9
0c
ec
ef
1e
0c
13
d3
fc
31
26
fd
fd
07
01
0b
09
00
05
f6
f9
03
00
09
0a
f3
09
fb
08
fa
06
fb
06
ff
09
f5
fc
1b
08
06
d2
a0
1b
ff
0a
01
05
f1
f7
14
22
ec
04
21
20
13
f9
f4
ed
f0
fd
ed
e2
d2
e6
20
ad
06
0b
12
07
dd
1b
1a
08
e0
d7
f7
f7
00
f0
ff
ca
fd
13
f7
e0
f8
f7
03
24
1e
f8
19
16
09
1b
f6
f9
0a
ed
02
fd
fc
f1
ff
f1
f6
f7
ed
ed
09
21
1c
e8
e5
c8
fe
ef
0c
0f
de
de
ed
fa
fe
f5
df
ee
f5
13
fa
de
fd
05
06
04
15
19
ff
ea
c4
0b
09
ee
10
38
e6
fb
f8
00
01
fb
f8
e6
1a
07
0c
ee
f4
ee
e5
f0
f3
ea
ce
e0
18
f9
fa
17
17
ea
ec
05
fc
22
e5
f4
f9
17
27
db
f1
0c
0d
f8
f6
cd
e9
11
06
e8
e5
de
03
fd
11
f7
e9
06
00
4f
28
e0
e9
0d
41
e9
e9
00
09
0f
fb
06
18
15
08
12
14
1d
0e
01
f4
ec
ef
f6
07
fd
06
f4
fb
eb
f4
f6
e7
e4
e0
f9
ea
01
fe
f9
f5
ec
07
eb
18
07
02
fc
f7
08
ff
f9
f6
ff
00
ec
ed
03
10
f8
fb
f5
f1
09
09
13
25
0a
19
00
1c
17
20
02
ca
d0
ff
16
f8
f8
fd
f8
e1
f1
f1
07
e9
03
19
ba
c9
14
0c
f0
f5
0d
07
17
2c
0e
e6
e8
0e
0c
ec
e1
0a
f2
ca
06
f0
fc
17
1b
e3
e9
f0
f5
f4
fb
00
fa
0b
39
0d
03
f6
10
13
fc
0c
f0
eb
fc
c9
d5
e4
ec
f1
c4
df
f7
f8
03
2e
1d
01
25
25
0e
fb
0d
eb
d4
fa
f6
09
ff
ee
c8
f0
e7
e7
f6
09
15
fe
06
fd
25
1e
14
1c
ed
03
06
f7
0d
09
da
ee
f8
08
fc
e7
07
0c
04
03
f7
0a
f6
e4
03
f5
14
18
f5
04
ff
0e
f8
e8
04
15
23
05
0a
11
fa
0e
01
04
03
03
fe
ff
fa
06
02
f5
07
f9
05
03
05
f8
05
05
f8
02
02
fc
f8
c9
d9
eb
f6
1d
d6
f0
f0
d9
12
14
fe
ef
1a
22
02
fd
02
09
e6
e6
ed
f0
02
f5
e2
1c
e2
e4
21
f1
f7
d5
dd
13
05
f8
f9
ea
27
06
18
06
eb
fd
1e
19
f1
f3
f3
fa
f3
fe
02
0a
10
eb
de
fb
0a
09
18
0d
f9
0d
05
08
ed
09
ef
08
05
13
17
f2
ce
ef
fc
05
f6
f6
05
fe
12
29
fd
0b
05
01
04
0e
21
f1
ed
0a
f3
05
fa
f4
0e
f2
f1
03
02
1d
dd
e0
e6
fd
07
08
12
fa
17
f9
04
11
0a
f8
fd
e2
d9
f7
03
0b
13
12
03
0c
22
ec
09
16
0f
06
02
07
12
03
f1
0c
16
0d
ea
e1
ee
11
fe
e0
04
12
37
0d
fa
01
1f
28
12
05
ef
26
19
04
08
ee
f6
f2
13
1b
eb
0b
11
1d
12
fd
e5
db
e7
01
07
04
0c
dc
e4
09
16
fd
11
fd
f4
01
00
1b
06
f2
0c
06
0e
13
fb
ff
0c
f7
00
e9
09
fc
fd
2f
19
fb
e8
0c
0f
2f
d4
04
05
16
e9
eb
1a
fc
e2
e7
f2
ee
fa
00
08
01
03
11
18
31
f4
05
c9
b9
e1
f3
05
f1
b9
cc
28
12
f8
02
50
01
ea
b8
ba
17
bb
e8
fe
04
24
c9
06
06
e4
a4
ee
29
32
e9
b4
39
3c
39
13
e1
da
e6
db
d9
26
db
e3
07
d0
ff
f3
06
08
e7
ba
1b
0d
21
df
e4
26
24
3d
42
40
1f
04
ff
fb
cb
e3
fc
f4
f2
e0
ef
18
26
12
0a
0f
21
04
e1
0f
1d
17
00
02
f8
10
fa
ef
ff
ef
e9
ed
f3
0b
2a
ab
f6
0c
fe
ff
d3
fd
01
c4
b0
10
1a
dc
c7
e8
f9
0f
1c
ff
c9
15
0f
08
e6
e2
22
13
08
10
fa
fd
d7
02
1d
48
e3
d6
0b
38
1e
09
fb
fe
f8
04
f4
fd
01
f9
02
fd
f6
05
f7
02
fb
0a
0b
f5
f9
fe
f8
fd
f9
ff
fb
e9
ef
eb
f0
eb
ee
e1
fe
d9
fa
f7
17
fb
f2
0e
1f
20
ff
0e
0b
10
01
f6
e9
fc
d3
e3
d1
f3
03
fb
f5
c7
91
0e
00
f9
e2
ea
18
00
1b
37
38
e7
cd
0e
4b
2a
fd
0d
06
1b
fd
fa
01
11
fa
01
f3
fc
f2
0b
08
07
0c
f2
04
e6
f4
02
df
f4
1d
14
19
18
02
d4
fc
02
0e
14
04
e8
df
0e
0d
1c
d5
e8
06
13
08
06
15
20
08
f6
38
25
26
30
00
dc
00
f4
1c
fc
b2
0e
ea
05
09
0f
f8
f8
24
26
40
17
1a
02
da
29
ef
04
07
e1
08
e9
0d
05
da
ef
f3
1a
06
1b
de
f3
1a
19
25
ec
14
ff
0c
f3
f8
ce
03
0a
fe
04
42
f9
16
09
3b
04
ed
f9
fe
47
04
e9
ec
06
0e
bd
fa
ec
ff
e4
d9
09
f6
da
0e
17
f8
03
fd
1f
17
0d
f4
12
25
23
f8
02
e7
ea
e5
ce
e2
f2
fb
fe
fc
fb
fe
04
f1
03
fa
f9
07
f1
f2
f2
04
fa
fe
04
09
fe
01
fc
06
fd
0b
f5
f3
f1
fa
f9
01
0a
06
f6
fc
f6
f6
f7
06
01
04
05
05
00
0c
fa
ef
f9
fc
07
06
f8
f9
f0
f6
fa
09
f9
f4
f9
07
01
f9
f6
0a
ff
05
f7
0c
0c
14
15
0a
ed
02
02
0e
fa
f9
03
04
00
fb
fb
07
04
02
f5
fa
f9
06
01
f7
fc
ff
01
fe
00
f7
fd
f2
f3
06
f5
f1
fc
ef
fb
f1
f2
03
f5
04
02
fb
fe
f1
05
f2
ff
f5
fa
05
f3
02
f2
f1
f8
f2
f4
00
f4
07
f3
f5
f8
fe
00
03
f2
fb
f8
fc
0c
f1
f8
f3
f7
02
0b
f5
f4
ef
f2
03
fe
fe
fe
fa
fe
04
02
f9
ef
f7
06
fa
fe
04
00
0b
f5
f8
fd
04
01
0b
ff
fa
fa
fb
01
fb
f7
07
f5
08
02
00
07
06
f6
f7
ff
05
02
fe
05
f3
f8
01
f5
ef
f8
f5
fe
ff
f5
06
f1
f3
fd
fe
f9
00
fc
04
f8
fc
f4
fc
fd
f5
05
f8
f6
fd
01
f5
03
05
f3
ef
f7
f8
00
ff
ef
f6
0b
03
f5
01
fa
04
fb
fd
07
0a
04
fe
ee
fa
f3
05
f6
06
fc
06
01
04
07
02
06
f7
fe
06
f1
f5
03
05
ff
02
f6
f7
ec
03
fc
fe
fe
f6
08
00
04
01
00
f9
00
09
00
fd
fb
f9
fe
05
06
07
fb
08
05
f4
f1
fa
05
f6
f3
f9
f6
f9
f6
01
f7
02
0b
fa
f1
01
06
f9
05
0e
04
f8
f3
05
07
fb
05
f4
f4
00
f4
fd
f8
06
04
03
07
f3
ff
f5
f9
fa
f7
f8
f6
f3
ef
fe
00
ff
0a
fc
0b
ff
04
04
fd
04
f6
04
f3
fd
08
fb
0e
08
ff
0a
ef
06
08
f9
06
f4
fb
f2
f6
f1
04
fb
00
f6
fb
ff
f9
f4
ff
ed
f1
fa
ef
f5
f1
f9
fb
00
fe
04
08
0e
f9
0e
0f
f5
0e
01
fe
04
01
f1
fd
eb
ff
05
f0
e0
04
0a
f4
f0
16
25
13
d7
1e
24
10
fb
1a
10
e1
13
28
03
0e
f3
fb
08
d7
0f
ff
0f
d8
85
1b
f6
f1
ce
c3
f1
12
14
10
13
0b
15
08
f7
19
08
f1
fd
0f
0b
f3
f6
f2
e8
d8
20
2a
12
fc
bd
ff
37
22
13
34
e3
f7
ef
f4
1a
f9
ed
0d
0b
10
19
f3
f7
08
e8
19
12
07
fc
de
d3
e5
04
21
09
22
2b
03
21
f6
ff
f2
12
13
f0
f4
f8
f7
ea
d3
02
fe
eb
e8
c4
01
04
13
16
05
09
00
f6
f1
0c
0c
fc
e5
fb
0e
f8
fe
02
ef
e9
0a
17
0e
ff
b3
e3
0a
0f
e6
f8
fa
08
05
03
1f
fd
12
dd
01
31
16
04
fa
08
cb
04
fb
d2
e0
e0
fd
ff
f6
0a
02
f5
08
06
ff
04
0d
0b
04
07
f8
04
fe
06
0a
fa
05
08
07
06
0a
f8
ff
f0
f7
fa
04
0d
01
f9
13
ee
f2
02
18
f0
07
12
f0
0c
f3
04
08
0b
09
f6
fe
f9
f0
0e
06
fa
ee
06
02
4b
1b
16
09
19
26
12
08
f9
ff
e8
f3
03
e0
e1
06
06
ec
de
e8
11
f6
00
ec
03
02
ff
ee
08
34
19
fd
ed
1c
19
e9
fc
02
f4
d5
d5
e4
dc
11
0d
fa
f0
f4
f7
f3
ce
f6
19
02
f5
ec
f2
e8
f8
f4
02
e2
f6
17
09
fc
07
05
04
01
14
07
07
eb
01
f1
f5
fc
f4
e5
f1
e2
e6
ed
01
1e
10
1b
09
16
25
d9
de
1d
13
e9
00
f6
fb
02
fe
0a
12
ed
e4
ed
fd
10
ec
06
0b
07
02
13
02
03
11
2b
ea
e1
f7
28
e0
cc
03
05
2f
f4
f0
ef
08
18
06
0b
e4
e9
16
08
de
dc
01
10
13
e4
e9
0a
0c
ef
06
0d
1b
06
e4
d5
00
09
07
ec
e8
cd
c0
1e
fe
f9
db
9e
04
f3
07
f5
f6
02
f4
fc
f7
ef
08
f5
f7
fd
f9
f1
00
fe
04
fd
f2
f0
f9
fe
fa
00
fe
f7
f5
f8
0b
05
08
f8
f8
f3
00
f9
0b
01
02
fe
f2
fc
09
ff
09
0f
f5
f3
02
08
fc
06
07
05
06
f7
05
02
03
f4
00
ff
03
f1
f7
03
fa
06
f3
f1
00
f9
03
fe
fe
05
08
f2
02
fe
ff
fe
08
f1
f9
04
fa
f3
f8
f8
00
0b
f4
f0
f5
01
f1
f1
00
f8
01
f4
03
f3
03
02
f2
ef
01
f7
00
fa
f4
fc
06
09
00
f1
04
05
f9
fe
05
f0
fd
ff
07
ff
f9
fc
f6
fa
00
f1
fb
f2
f5
f9
fd
f7
fb
f3
00
ff
0a
f7
f5
f6
05
05
f3
f1
03
f7
ff
08
02
f0
04
01
01
03
f9
04
00
05
f4
05
fc
f6
00
04
09
0a
fe
fc
f7
fc
08
f6
07
0d
05
f8
ff
07
0c
fa
fb
f4
0b
fd
fd
0a
02
fc
08
f9
0e
0e
06
f0
f2
f7
fa
04
fc
ff
08
fd
02
0a
03
ff
03
f1
fb
f9
06
05
f3
ff
fa
f7
f5
fc
06
00
f8
02
fb
f0
fa
ff
06
f6
08
04
f3
08
00
0a
fc
f9
f9
fe
00
fd
07
01
04
03
ef
07
fe
f7
00
ef
01
ff
04
fd
06
f3
02
f2
f7
f4
f0
f4
03
fb
fe
f5
f9
f6
f2
fa
f2
03
04
f7
f2
08
06
00
f4
08
f0
ff
f1
f2
0d
fd
fa
02
0d
f6
0a
03
ff
f3
f4
f4
fb
f5
fe
f4
05
f4
fa
f2
ef
f9
00
04
fc
fa
01
f7
f9
f2
f4
ff
02
ff
f2
f9
00
f4
f7
f7
f1
f5
f2
04
ff
ff
f1
f9
03
fc
ff
06
04
ef
05
f9
f2
fb
07
f8
f8
fd
ff
fc
ff
f4
f0
f7
fb
fa
fd
f5
f6
f8
f1
f0
0a
fe
00
fa
f2
f5
02
fc
fe
fd
f4
08
07
00
03
00
06
fc
01
f4
02
08
f1
f4
fc
08
03
07
07
f7
ed
ef
09
db
04
16
f3
d0
ec
15
f7
0e
0b
03
f7
0f
1d
e6
fa
00
1f
0c
f4
f0
e4
f0
1a
16
fb
f1
1a
19
0e
e4
2a
0a
0e
00
04
f2
ef
df
ea
f9
e3
eb
ee
1b
00
21
d1
ff
19
2b
19
d1
0f
18
1a
f2
ec
04
10
04
05
22
14
13
f5
06
eb
b8
e5
e9
00
15
ea
09
3d
3e
0f
25
03
fe
f4
0d
10
24
24
12
f9
ff
16
03
4c
ca
c0
0f
fb
23
ef
c4
fa
09
10
d5
f7
01
0b
10
10
0b
f7
05
2a
03
01
08
16
fd
fd
ef
ec
ff
0b
00
fb
f6
f4
f6
17
10
2c
f9
0a
ed
1c
17
f6
fd
f1
dc
eb
ca
db
08
fc
08
fa
ff
17
fc
ba
ec
d1
11
f4
e8
2d
19
ff
e5
ec
16
05
df
d3
09
20
02
f1
d3
1c
13
03
fa
f7
02
f7
04
02
09
02
fb
0b
fb
02
01
07
f8
08
03
0c
fa
0e
fc
07
09
f9
fd
c9
df
19
29
3e
d9
18
14
16
0b
1f
fb
00
13
0c
26
20
19
00
0c
04
ef
06
f5
0e
36
37
f2
f7
22
09
03
20
0a
07
f9
e7
1a
0b
1c
eb
cf
14
04
0f
fc
dc
f6
18
0e
e9
0f
d1
e7
ed
0f
09
ff
09
d3
10
26
03
f3
06
f0
03
d7
f7
f6
f6
f4
dc
f7
f7
de
ee
ed
0a
3f
03
01
d7
ef
3f
f0
ce
fb
fe
f9
17
03
fb
03
06
1e
29
1e
f9
f3
ad
0e
25
08
17
ad
fb
09
e8
ca
36
37
01
ef
00
4c
28
11
1b
ff
f2
2e
dd
d8
00
17
17
e7
eb
f4
20
1f
d6
dd
ea
1b
ed
c6
0b
1f
05
fa
f4
02
1a
0f
01
ff
09
fe
05
08
1d
d6
f7
2d
54
37
ea
e3
dd
20
24
d7
f1
f4
f7
01
de
e8
fa
fc
18
05
ee
f2
17
fa
fc
d3
0f
12
12
01
1f
11
0f
ff
df
fa
d1
d4
e2
f5
e6
f9
11
07
02
0a
ff
f6
fb
f4
fd
f4
e6
e1
f1
f4
f7
f1
f0
fd
01
d9
fd
f7
fe
fb
f9
10
01
08
0b
f7
f5
e1
f7
ef
f5
ff
12
fe
f3
e9
f9
fb
f6
04
fe
f4
f6
f6
00
f9
18
f2
ef
f5
db
e0
f8
00
f2
eb
f6
05
0f
0f
04
01
03
10
05
f7
fa
f9
e9
02
02
f8
fc
f4
02
f3
e1
00
17
0d
f7
e0
e9
05
1a
ff
fd
f3
0a
fd
0a
f7
15
06
f7
ff
00
0b
ed
f9
f6
f0
f9
fe
13
f2
e8
fc
ef
ea
0c
03
f5
f5
f5
e2
f8
f0
e3
e2
e4
f0
f5
00
f2
fb
fc
f8
f4
f6
f7
f2
09
f1
ea
ec
e3
f8
07
09
f6
e8
07
05
f7
ff
10
fd
02
fe
ff
fa
f0
f6
fd
00
00
f7
0a
fa
03
fd
f0
02
00
f8
ef
f3
fb
f5
06
ea
ea
e4
f3
f8
03
04
0b
01
04
f7
05
f8
04
fa
0c
f4
03
01
01
fe
f4
01
05
fe
f5
ff
01
02
f5
fa
fe
05
13
ff
f4
f6
fb
fb
01
0f
04
f0
ed
f6
f9
ee
e3
f7
f7
fb
fd
0c
03
f6
f0
f4
fc
09
fc
f1
04
00
fe
ff
fa
08
04
fb
04
fa
06
f5
fb
00
05
02
ee
fc
fb
ee
ed
ed
ef
12
fc
e6
f9
f5
f8
0f
03
01
ff
e6
fc
fb
f5
fb
ff
0d
07
01
00
f8
0d
00
f1
e7
fd
f5
e6
00
f0
02
ef
ed
f9
f9
ee
ef
f1
f1
fd
f7
fe
f0
08
03
04
ed
f8
03
f9
f2
fb
01
fb
ea
0b
06
f7
f3
f1
fa
ef
f1
f6
f4
e6
e6
f0
ec
10
05
0d
05
f6
f3
fa
f3
f9
fb
f6
07
04
e2
ff
fa
eb
ea
ee
fa
03
eb
eb
f9
0c
0a
14
0f
f9
e3
fd
f3
ff
09
e6
02
01
00
f9
f4
08
00
f2
fd
eb
0a
10
0a
f8
f5
fe
02
f0
f7
f9
f8
05
fc
f9
f3
f3
e4
0a
08
06
f0
f7
fa
f0
09
00
13
14
f8
03
05
02
01
01
d7
cd
10
f7
ed
02
fb
f1
1e
08
f3
0e
f1
1a
0d
0f
0b
f9
ff
1c
33
46
07
01
f7
f6
cb
07
07
21
35
1a
ce
cf
14
32
23
ef
eb
eb
0a
01
fe
06
fa
ef
0b
d5
ef
eb
0a
14
fc
f4
23
13
19
34
ec
e1
2b
1e
05
e1
e7
ef
17
f2
0b
1b
14
e3
fb
1f
f8
1e
4c
f7
f2
ee
08
4d
e2
ec
c7
25
5d
f6
08
ec
f7
1d
1b
0e
0d
e4
17
f3
04
f9
e9
f5
01
26
14
fb
e3
0c
e1
e5
ff
fe
f1
05
12
01
f7
08
08
12
ff
fc
e6
00
f4
eb
c0
01
f0
f0
1a
0a
f3
fb
12
26
05
f3
e7
e4
06
0b
de
11
16
11
16
f6
f9
f8
e9
de
fe
f1
e4
e2
ec
03
07
fa
f9
dd
17
f2
d0
d0
d2
10
dd
cc
08
db
f8
f5
02
02
f3
05
09
f9
ff
08
f4
08
f6
fe
f8
0a
03
f8
07
f4
0a
01
f9
03
04
13
fe
0a
19
29
25
18
37
2c
27
0c
ea
db
f5
eb
fd
1a
1c
00
04
0c
2b
1d
1e
09
f5
0e
04
d0
01
ea
d3
f6
e3
ec
07
0b
c8
d0
0c
12
13
10
d9
f9
f8
fd
f9
e7
f9
f2
10
03
09
e9
e5
e6
07
03
d5
d8
0f
f6
f8
05
e0
de
11
1f
fe
11
fe
f1
08
f2
f1
f8
03
01
c2
0d
07
eb
f7
0a
fc
1d
21
fb
0a
00
2c
07
f8
e2
eb
ed
f1
05
28
0d
00
06
26
31
3e
30
0d
1d
01
33
06
0a
0c
dc
b6
fe
10
03
17
06
02
00
07
f6
f6
01
fa
e8
e6
0b
0b
f8
ca
c6
f6
00
0b
01
cd
ff
1b
f9
f7
c9
01
f3
f1
0a
d8
fc
1f
15
19
f2
dd
fc
0d
f9
df
ef
da
f6
fc
e0
05
cc
f4
fb
e2
0b
e6
ce
d2
ee
f2
fa
14
f4
c1
ef
e6
00
ef
f6
db
fc
07
05
00
06
ea
03
0d
f7
20
0a
10
1f
00
ee
de
ed
03
12
e9
f6
f4
e2
f9
f1
fe
04
ec
d4
ef
e3
ee
16
ef
d7
fa
1d
1a
02
fc
09
e8
ef
cf
01
eb
f4
0e
fe
21
33
33
2d
30
21
1f
0d
f5
e9
14
04
11
ca
bb
0a
36
e9
b5
c8
33
0c
24
2b
09
28
34
14
30
34
0e
02
27
1c
04
40
28
07
06
de
2b
21
02
d9
cf
12
fd
f8
fe
24
01
00
f8
08
3a
18
0a
12
2e
f9
0b
e5
ea
c3
b6
35
2a
00
03
13
24
17
0a
01
06
20
12
0c
10
f9
2e
26
26
02
f7
0b
06
f8
f5
e0
f3
f1
e9
00
01
06
e6
fe
d6
dd
fb
ff
07
10
21
fa
e8
13
ff
01
ea
fe
f6
d6
d0
e8
14
28
f0
f2
f4
fe
14
ec
d7
f2
f3
0f
00
0e
f4
02
f1
06
fa
d5
e9
dd
ec
00
09
f9
05
0a
0e
f9
f6
05
f7
f7
07
01
07
ff
0b
f6
f6
ff
0a
02
fb
09
0b
08
f4
37
0f
fd
fb
13
16
09
0d
12
42
1a
0b
15
2c
09
2b
0a
04
00
e4
ed
da
ea
e8
e4
21
26
00
f8
d9
05
ec
e0
e8
11
0e
04
06
23
08
10
fb
00
de
0f
f6
ec
d3
c9
03
ff
fe
eb
f2
08
ee
dc
d4
f8
ce
de
02
10
27
25
ea
19
13
11
01
07
13
00
ef
e7
ec
ec
e8
07
38
f0
02
ec
ed
2c
16
1b
07
d5
9c
de
f6
f6
d6
ab
02
03
11
1a
18
20
f7
05
0a
3d
2b
1c
07
e0
0e
ff
f5
f5
f3
d1
15
17
07
e9
09
24
f0
00
11
1f
f0
eb
04
26
04
df
06
0b
0b
02
e9
f3
fa
e4
e8
ea
00
ec
f9
dc
f0
00
23
25
fd
11
1f
d3
df
0d
f0
ef
ed
01
01
c4
eb
fb
05
07
09
fc
ea
ed
ee
ee
e7
e8
e5
0f
29
fe
f4
ef
ec
fc
d6
d4
fb
fe
0e
19
22
2a
1e
07
fa
17
13
0a
09
02
e8
e4
b6
f3
f4
0a
fd
09
fe
fa
f4
f9
f4
03
05
f7
09
f7
08
fc
f8
05
fe
fe
05
f7
0a
f7
0a
08
06
f1
fc
fc
f9
f3
05
03
fb
fd
04
fa
fa
fa
0a
f8
07
04
00
f8
fd
fc
00
f3
08
0c
f2
01
f8
f2
f2
f5
0b
fe
fb
fd
02
f9
01
06
04
03
f5
04
f6
fd
05
05
f6
fd
01
09
06
01
00
0a
01
fc
04
ff
09
fb
f9
03
fa
fe
ff
f7
02
ff
01
05
fe
07
02
04
00
0b
06
05
fa
07
01
fe
01
fd
02
05
f6
03
02
fe
fb
fe
f5
f2
09
f3
f5
00
fe
f9
fd
f8
07
f8
09
03
fe
fe
f2
f7
f7
09
02
05
ff
00
ff
09
f3
0d
f6
05
05
fa
ff
09
08
fb
03
f7
07
fc
f1
fd
fe
07
f3
f4
07
06
fd
0a
f5
f1
fc
00
fc
03
fe
0c
f6
f7
0d
f7
09
0a
03
fb
05
fe
0c
f4
f9
f8
08
05
f9
07
f9
09
f9
f7
03
05
f8
ff
fb
f7
fb
f7
04
02
04
fc
06
00
00
fd
01
f7
f3
fb
f9
fd
09
09
0a
07
f2
f2
05
f4
f8
f6
04
f6
00
06
f2
f1
07
06
f7
f7
07
00
fc
fe
f4
0a
f8
fe
fa
f5
07
08
fd
03
f4
09
f7
0a
f3
fb
f1
0a
fb
f6
ff
f5
04
f9
04
02
fd
09
fa
01
f5
03
fd
f6
fe
f2
f2
fb
06
fe
02
fe
f4
f9
fc
02
0a
01
07
f9
fc
f5
fb
04
f6
fa
f5
04
f6
01
05
f3
fd
fc
fd
0a
03
f5
00
f9
05
fa
f9
f4
f4
fd
f8
08
f2
02
07
00
f8
08
f5
fa
fd
02
f7
fc
fa
07
f5
f3
f4
f2
fd
06
f6
f3
06
09
fa
08
00
01
f2
f6
00
06
f5
f4
f2
f9
fa
f7
03
f9
f7
f3
03
fb
04
0a
f6
01
fb
06
06
f7
fb
ff
07
f6
f6
f6
f2
fc
08
fe
f6
f2
f5
01
03
ff
06
02
02
07
f2
06
09
ed
07
f5
fd
f5
d9
f8
f3
07
f8
e7
1b
0c
ee
0b
08
11
0e
fd
07
fa
fc
fe
09
ed
fb
f4
e5
fa
fc
f5
11
26
1b
1c
d4
e6
09
1c
12
04
ec
02
fc
ee
e9
07
0d
06
e5
bd
de
e4
23
30
d0
ed
1a
33
29
ea
d5
c7
11
15
09
ea
db
e4
f8
d9
c7
ea
0a
e8
11
ef
d4
13
5c
f3
ff
e7
01
3a
08
fd
d5
1d
2b
0a
eb
f8
f4
de
10
01
ee
dd
02
f0
ee
17
05
00
ec
f7
0b
15
35
0b
09
f4
f0
ec
df
e2
e7
de
e0
f8
13
fe
08
f9
d8
ea
f4
e9
e5
e9
04
17
12
01
d6
0b
1c
1e
fe
01
e8
fa
f7
f5
f5
f5
06
12
06
01
03
f1
c7
c7
0c
19
ed
04
1a
0f
1f
0c
fc
d2
f4
24
12
d2
d6
fc
0e
ff
13
eb
0c
08
f7
09
09
06
09
fb
f4
f7
01
fc
06
08
f9
05
fe
f9
f6
ff
fe
fc
fe
fe
f7
d8
15
28
30
5d
d2
0d
18
39
2a
f6
e4
e4
d7
d8
e1
dd
e2
d5
f5
f0
03
0e
14
fe
15
10
bc
d0
3b
10
fb
cd
f5
0d
1e
ff
ed
0e
07
fb
14
03
f2
da
04
10
0b
ec
e9
02
e0
e6
fe
f8
1d
ee
e6
e5
f7
fc
ff
07
05
19
0a
1a
01
0e
f6
ea
fa
1b
13
f5
f7
07
06
17
04
f9
08
fb
f2
f5
e3
f3
00
fb
f5
07
1c
e4
e1
e0
05
f8
f0
f7
f5
c1
0e
2a
1d
18
db
fa
0e
01
d0
eb
fa
05
e8
b9
cd
e0
0b
f4
08
f9
e9
fd
00
0a
15
19
20
f1
01
03
f8
0d
dc
dc
f7
04
18
d5
d5
f8
10
f5
fd
e1
fa
fa
f4
ff
e4
f8
28
0b
f5
e0
10
36
07
13
df
05
0a
01
09
db
16
ef
0b
23
fe
fa
f1
23
14
0d
ec
eb
ec
f5
e8
11
09
e4
ff
0b
f6
f2
02
02
0c
ea
0a
fc
f4
f5
f8
18
1c
1c
07
02
e1
03
09
0a
06
15
18
f5
1b
16
f2
06
19
13
09
13
f5
ff
37
22
fa
e5
f9
11
38
1a
f9
f4
02
0a
16
13
d6
16
d2
e7
fb
09
20
d9
d3
fe
1c
0a
d8
c8
cc
08
22
26
2b
14
05
00
f4
d5
f7
00
cb
1e
00
ee
e9
0d
1e
f7
e1
fe
39
1d
ee
f4
ed
f9
36
45
5b
28
2e
fe
d0
00
0f
cc
fa
19
14
f4
fa
1a
03
eb
ee
18
e0
f9
0a
c9
d4
da
8a
96
b8
1a
fe
e9
fb
07
fb
16
0b
f3
10
15
f1
e8
d5
f2
0a
c1
be
09
06
ea
0e
00
f2
f8
0c
28
2b
36
29
1d
0a
d1
eb
e8
1b
00
e7
eb
f4
f2
0d
d4
da
e0
fd
15
2b
26
ee
f7
f4
11
1a
25
1d
f3
03
12
f4
2b
ec
f2
25
34
db
ee
f7
13
1e
eb
00
04
0a
04
02
f6
fb
fb
fd
f7
fb
08
05
f9
f7
f5
f6
f6
04
00
ff
fa
04
08
06
d7
d0
c7
ec
00
07
fb
17
0f
e6
07
0a
e1
06
fb
1f
05
ea
df
24
ef
d2
d8
e8
dc
14
0a
f2
07
f2
05
fd
27
13
0d
0c
18
21
09
f8
f4
00
15
de
cd
f9
fa
29
10
c0
f5
18
05
e3
14
2d
22
e3
0c
f9
e8
12
04
da
f8
02
01
f4
e5
24
f5
e4
fd
22
07
f5
cc
dd
f3
17
fa
1e
15
20
59
21
15
fe
13
f5
23
04
06
11
0b
0d
04
f9
12
06
9f
af
04
19
6a
07
f4
18
fe
0c
54
0c
0b
fd
f8
28
ff
fa
12
0c
16
20
f5
e5
01
f0
14
37
21
1b
1d
33
22
08
26
0f
11
f6
05
15
05
ef
1d
10
2f
00
04
05
04
24
46
3c
f8
f6
f5
36
2d
4a
04
08
e3
39
4a
07
08
19
71
25
04
01
e1
2e
0f
0b
07
32
07
e8
ee
d8
0f
12
24
11
12
d7
db
04
05
11
ca
e8
13
24
24
d4
e1
d9
01
19
f8
fe
ed
f4
fe
f0
0a
f7
ff
fd
f4
ed
f2
00
ff
00
f0
f1
03
f3
02
01
ed
f4
fc
05
06
f4
f5
07
06
f0
04
f4
ed
fb
fc
fa
f7
00
ff
ff
f5
f6
f5
02
05
f5
ff
f5
01
f4
f5
f6
f0
02
f0
f1
01
01
0b
fa
08
05
0b
ef
05
f6
f5
04
f3
f6
09
f7
08
00
fc
05
f9
ff
09
0a
f6
03
ff
fb
ff
02
05
fe
fb
fa
02
ed
f6
f0
f1
f7
fe
fb
0b
00
ec
ef
f7
f4
fc
ee
fd
fb
01
fe
01
05
f1
f5
fd
fa
f7
fe
f0
ee
00
f7
ff
fa
eb
04
03
f5
f8
fc
fd
fa
f3
fa
f0
ec
fb
fc
f7
f2
f8
f3
f1
f5
f2
f8
00
fe
f0
f5
00
fa
f1
ff
f6
f4
f6
f4
f5
f3
f3
f2
01
ff
fb
fb
02
00
f8
ff
f8
fa
ee
0b
06
09
02
fc
04
00
09
fc
ff
0a
fb
fd
08
f3
01
0b
06
0b
05
fa
f9
02
fc
f8
04
f3
fe
07
04
07
ee
f7
f9
f6
00
fa
ef
ec
f5
fd
05
f8
ef
f9
fc
01
f8
fb
00
f6
f8
07
01
f5
f5
f2
09
05
f9
00
f2
f2
04
f3
fa
f9
09
06
06
00
fe
f8
f5
01
f4
fb
ee
f8
f2
f2
fb
00
f1
fa
f7
fa
f7
f7
04
ff
f6
f3
f5
fc
ec
fe
f8
fc
ec
ef
fb
01
07
f9
f3
f6
f8
f7
07
f2
03
f3
f0
02
f3
f8
fe
fa
02
fc
f2
f9
02
f8
06
f2
fd
f1
00
0b
ff
f8
ed
03
f7
fc
f6
f9
09
ff
f5
04
f5
02
f4
f6
ed
02
fe
fa
fc
04
f6
fd
ff
ec
f4
f9
f6
f3
fb
ef
03
03
f6
00
02
f0
f6
06
03
05
f4
f5
f7
09
f6
00
fa
07
fc
02
f7
01
fc
fc
f1
f9
ff
04
fc
f5
f0
ec
f8
ed
fa
f5
f3
03
0b
f6
fb
01
04
06
ff
f2
f5
f2
f7
fa
00
eb
02
fd
ff
01
02
08
fd
f2
06
ee
f1
f1
05
07
f7
f4
06
01
02
f2
f4
f4
f5
fc
fb
f2
08
04
f4
09
05
00
fc
fb
09
ff
06
02
05
f2
01
fe
06
f4
fa
02
f7
fd
04
06
04
fc
01
f5
fc
02
fc
00
f2
f5
f4
09
f8
fb
f9
f1
04
f4
07
f5
04
fc
f9
fe
06
05
04
04
0c
f0
fa
01
f9
fa
f9
fa
f8
f9
f8
08
f0
fa
02
f5
f9
f0
08
f6
f8
03
09
06
f0
fd
07
00
06
00
f7
f7
fa
05
f7
07
fa
fb
fa
fa
f1
fd
fc
00
06
f8
01
f5
05
fd
f6
00
fb
f4
01
f4
09
f6
fa
ff
f0
f0
fd
f6
fe
f6
01
03
0c
01
ff
fc
07
f6
07
fd
00
fa
f9
f2
09
f5
f6
fb
08
f0
f4
fb
fe
f2
03
fc
fe
fa
f2
f4
fb
08
04
06
03
f3
04
f6
fa
01
01
fb
07
f8
0b
f9
fa
fa
f4
08
09
f4
fa
f8
f6
06
0a
f4
02
0d
0b
03
0c
fc
03
fb
08
0a
f4
fa
fe
f0
f5
f6
08
07
01
f8
f8
07
f2
f7
00
f2
fb
04
f5
f7
f5
06
fe
ff
fd
07
01
05
02
f4
01
01
fc
f7
06
fe
f9
f7
fe
f0
f2
00
fa
f2
fd
f5
f0
08
fd
f9
00
f6
fa
f7
f6
f1
08
01
01
f3
f5
ff
f8
03
04
fa
f6
01
f9
f5
f2
f4
f0
08
f6
f6
fc
07
02
f5
06
f4
fe
02
f3
f8
07
f6
03
fe
03
f9
f3
f6
08
01
f5
fe
03
0a
0a
f1
06
05
f8
f6
04
08
fd
f4
fe
04
fe
f8
f3
f6
06
06
f9
ff
f6
f0
03
fd
f4
03
f9
f1
f3
f6
f4
02
ff
f2
09
03
fc
f5
fd
f4
04
06
fe
fb
f1
07
08
05
f1
fe
f6
f8
f9
fb
fa
f7
04
08
ff
0c
08
ff
f6
f9
04
03
01
f6
f6
00
f5
03
04
07
f8
f5
fa
04
fc
03
f6
05
f8
06
09
f4
fa
f5
f2
00
f1
f2
f9
04
fa
fd
f7
fb
02
20
03
e1
02
0c
0c
d4
00
06
b8
dd
00
ec
c3
e0
dd
cd
f1
17
02
08
14
21
0e
05
02
0a
0e
e5
99
c7
ea
fd
15
c2
c3
f4
23
15
42
1b
1e
3f
0a
2d
15
fd
e9
f3
d8
fe
09
fc
e4
df
fb
0c
08
04
21
eb
eb
00
1b
27
22
0b
06
18
48
4c
18
12
bb
25
2e
14
ed
13
ea
da
0e
08
26
0d
15
f5
0a
2f
28
30
0f
22
25
f3
0a
0d
23
bb
06
11
11
0d
fa
13
25
11
0f
13
f6
dd
f6
e8
f6
ee
f1
fc
ed
d7
1c
0e
f4
e5
fc
0e
1e
2b
07
e2
0b
e6
ea
20
e9
ad
d8
e0
ee
0f
13
fb
d2
22
13
2a
18
10
2f
19
0b
1c
14
fc
e9
20
08
1c
f8
15
f6
07
08
07
ed
e2
e9
15
ee
06
e7
ed
f5
e0
0a
01
02
06
f8
02
0b
fe
00
f5
fc
08
fd
07
f7
f7
01
f8
f8
08
0b
0a
01
fe
02
f7
f5
16
1f
0f
10
0f
12
02
14
23
23
ff
f9
f1
e1
18
24
0a
f0
c9
ed
f7
ee
e9
ec
0d
05
01
1e
e0
00
0c
f9
1d
13
29
31
26
21
1f
fa
f3
15
0a
ec
e2
e0
e2
e0
ef
10
00
f2
ff
f2
f0
02
fb
f9
d6
d7
f9
fe
fd
07
e0
ec
1b
16
14
f8
05
07
05
05
ff
06
0a
e9
0e
09
02
d0
ef
06
e8
f4
0f
dc
ca
ee
ec
d2
db
1e
01
fc
05
10
1c
00
14
13
16
08
06
05
10
04
e6
02
eb
de
f5
db
22
03
02
eb
c7
5c
35
1d
01
f0
e6
00
13
ed
ea
20
0a
e7
c5
fb
1e
03
f2
ee
e1
fd
db
f8
d6
f9
e6
eb
0a
0e
26
dd
0e
18
14
e9
ea
cc
01
1b
e4
c8
f9
1a
19
ec
0e
ed
e9
15
f9
f2
e0
b8
0a
fd
17
15
08
f7
e3
de
e6
16
fe
0c
d6
e5
f0
04
13
0a
f1
08
fd
03
fd
02
f8
01
04
f4
0a
f6
fe
0b
fc
fe
f5
fe
00
fe
fd
ff
04
07
03
f3
f5
f6
07
02
fc
02
08
02
fd
09
fa
00
01
fb
fe
f2
01
01
f4
f7
06
f4
05
ff
06
fb
fe
fc
03
ff
0b
f2
07
0b
fa
08
f6
fb
0c
f4
06
f0
0b
04
fb
01
fe
07
f0
f7
ff
fc
fc
03
03
fd
fd
f6
ff
04
03
02
f6
fc
04
06
f4
03
f4
f9
01
f5
02
01
f1
f2
f6
fa
f7
f7
fe
f5
05
fc
0a
fb
fa
fe
fa
fb
01
0b
fc
06
fd
fd
fe
fe
f2
fc
f8
fa
ff
fc
fa
fa
05
04
fa
05
07
f8
04
0a
02
00
fd
0a
06
0a
ff
01
f3
fb
02
00
03
fe
f4
fe
fe
03
fe
07
07
02
05
09
f8
08
f4
fb
fb
03
f9
ff
00
02
f2
f8
f9
f7
09
03
ff
04
0a
f4
00
08
f8
f3
01
09
f6
fd
08
0d
f5
06
0a
09
f6
08
0a
0a
02
f7
ff
04
fa
02
ff
f9
f1
fa
f6
05
fc
0b
f1
f8
05
f2
0a
f3
ff
05
f0
f7
03
f3
f1
f9
f2
fa
03
04
09
ff
01
f6
fc
f6
06
07
fb
f7
04
f3
08
f4
f8
fa
fd
08
f4
f5
f2
07
fc
04
f8
02
05
fa
0b
fb
0a
fe
fd
f8
04
02
07
f9
00
09
f9
f2
03
f2
f3
f3
04
f8
fc
fd
fe
fc
ff
05
06
00
fd
01
fe
09
f5
f4
f7
f3
f2
f8
0a
f6
f4
ff
07
02
05
04
f2
fb
02
08
02
f8
fc
f4
09
0b
f4
02
01
04
fb
fb
fe
f8
06
06
06
ff
04
04
02
01
fa
0a
f4
fe
01
04
ff
08
0a
03
fb
07
00
05
fd
05
f6
fa
f3
f5
f3
f6
f4
f5
f2
06
fc
06
f6
f4
05
fe
fc
fb
07
01
fa
f3
01
fe
01
ff
f4
02
f9
0a
07
fc
fb
08
f5
05
f7
01
00
fe
fa
04
f8
07
fd
04
06
03
f7
f2
02
fe
f2
ff
fb
f3
f3
02
f3
10
19
ec
04
09
18
0b
f4
f8
0b
22
ea
fb
20
16
f4
04
f0
f8
c4
f2
e1
b9
ce
c0
23
0c
1c
f9
0a
1d
00
0a
1e
13
2d
24
06
13
00
e9
ca
bc
c3
d7
92
dd
09
1a
ed
11
08
09
ed
c3
39
fb
f0
01
18
ee
1f
fe
f1
f4
20
1e
f9
f3
db
f9
c1
be
c6
17
dc
ca
fc
14
d0
e4
0e
f1
02
e9
3b
24
09
e9
be
06
0d
dd
c7
1c
c1
da
e2
e9
29
e8
d2
e3
18
08
11
f4
01
0c
07
20
0f
f8
16
32
31
2a
28
26
2b
e7
d2
ec
ff
fb
0b
f9
f7
0a
06
14
ef
0a
0a
02
05
0c
2e
35
0d
13
06
f5
d6
d7
ba
bb
be
d7
ea
07
fa
0d
0d
20
0a
fd
f4
e8
d8
17
fb
13
0f
00
ff
f9
22
0f
fd
02
0f
22
de
db
00
fd
ff
fd
00
09
fd
0b
f8
fe
04
0c
fc
04
02
f3
04
01
f8
fc
fb
08
f8
fd
06
0d
e1
ef
e6
ca
1d
01
ea
e3
03
26
01
08
12
19
15
f5
03
19
38
da
de
d8
d6
ea
de
cb
f4
39
e3
0e
f3
ee
cf
c5
19
17
09
ca
04
e3
08
08
fa
43
06
0e
17
e7
07
11
f8
ef
fb
05
13
f6
f7
fb
1a
23
24
19
f8
f3
11
05
e5
f8
01
ed
e9
de
f8
f9
07
1c
15
21
18
1b
05
e4
f0
2d
03
df
dc
0c
3a
00
05
f7
f3
f2
04
09
de
dd
eb
30
0f
ec
db
fa
dc
de
ed
e4
00
e4
06
f9
2e
05
45
ec
f1
34
2f
bf
e1
e6
ef
ea
0a
fc
0b
22
25
f7
dc
ea
02
0f
f6
ec
f9
03
1c
f7
16
20
09
15
0c
19
03
ec
ee
f6
eb
f9
e8
fd
19
0c
00
19
17
31
1c
e8
04
03
fd
df
d1
01
08
c6
e0
61
4d
f6
18
e7
fe
fb
f5
2e
1b
ec
ef
ee
41
3f
0f
11
08
fc
06
01
ed
02
dc
d9
e5
d8
ef
fc
f7
fb
f4
ef
08
f3
fa
fd
f7
f9
f9
f7
fa
f1
ff
f6
f4
f4
00
f3
09
f3
02
05
f6
f8
04
02
02
f5
fb
00
07
f4
fd
00
07
00
ff
f6
01
fe
00
01
05
f4
ed
03
ee
04
fe
f6
f1
f6
f5
f3
07
f1
fb
fc
fc
01
0b
f6
fb
f5
fe
ed
f6
f3
ff
f6
0b
f8
fb
f7
02
05
03
f4
ff
f5
08
f7
f5
03
fd
fd
0a
01
02
01
03
08
f1
ef
fb
f6
fa
0c
fb
f4
fd
fb
fc
f8
f5
ef
fa
f3
fe
f0
f5
f2
ed
f5
03
01
ff
06
f4
f7
f6
fe
03
04
f7
ee
00
01
ed
ff
01
f3
fa
04
fa
fb
01
fb
fb
ff
00
fd
fa
f2
ef
ed
00
09
f3
00
fe
08
f7
05
f5
06
f1
02
05
ff
f2
04
05
f0
f3
f4
07
f4
f8
fd
f9
ee
0b
ff
07
fe
f4
02
0d
0a
09
f6
0d
fa
fe
03
07
f3
04
f9
00
fc
ff
03
fa
06
09
09
fe
fc
f8
00
f3
fb
fd
ff
f6
fd
fc
00
f2
f9
06
06
f9
fc
fb
ed
fe
ff
ed
f1
f4
f8
f3
f5
0b
02
03
f5
05
fb
f6
f7
f7
fe
fc
01
f4
f5
f7
03
ec
00
f3
02
f2
f2
fc
01
ee
f1
f0
fc
01
fa
f8
f7
f5
07
00
fd
fd
f3
f2
fa
fb
fb
04
fb
f1
03
f5
f7
08
f5
fe
f4
f3
f4
03
01
0b
00
fa
0b
02
fb
f5
03
04
fb
0a
f7
f0
f7
fb
ff
ee
fb
04
fb
f9
f3
04
f8
01
fe
f6
0a
f2
f3
f2
f2
08
f7
02
06
04
f3
f6
f3
f9
fb
fa
fd
00
f5
01
05
f8
08
08
02
08
fa
f0
02
06
09
f6
fa
f5
02
09
ff
ef
00
f8
02
0a
fd
eb
03
05
fc
f3
03
fb
04
07
ec
fc
f6
ec
04
01
ff
01
04
f5
ef
ef
09
08
03
f2
f8
fe
02
ff
fb
f2
0b
f7
fb
fc
ef
03
01
07
f9
fd
00
ff
ff
ea
fe
ee
fc
f1
f4
08
f1
f4
f0
ef
f5
01
ff
f1
ff
ff
ff
fd
ef
05
f4
00
f6
02
fa
00
f1
f4
08
03
0f
09
03
00
ef
fc
f9
07
fe
f5
05
f4
07
fb
05
f9
f9
ef
fa
14
10
13
00
04
ff
ff
f7
ff
08
fb
f6
f4
ff
01
fc
f1
ef
05
f1
00
fa
08
0e
06
ee
fd
0c
1e
06
f1
06
f4
f3
01
01
06
fd
fe
fe
00
fd
03
f4
fa
10
f9
06
07
f3
f7
fe
f5
05
fe
f5
00
f5
fe
06
05
fa
0d
f7
f2
ff
ee
fd
ed
ed
fb
02
05
06
07
ee
ff
ff
f7
fb
f6
f6
0c
03
03
ee
0a
fa
03
f9
fc
11
f9
0a
fb
04
f6
eb
f0
fd
f7
03
ec
f4
f7
f1
07
f4
f8
f2
02
fd
fb
f3
eb
ff
09
fd
fb
06
f0
01
f0
f4
07
f4
0b
f6
01
fc
0c
02
03
ff
fa
f8
0a
01
f6
0c
02
07
f4
03
fd
01
fc
f5
0a
f4
f8
f5
f2
09
09
07
fc
fe
03
fd
05
fc
00
06
06
f9
08
05
03
00
f8
14
fb
08
fb
fa
fa
01
02
07
07
f1
f7
f8
fb
0b
ee
f0
02
fb
fa
04
f3
04
f5
fa
f7
01
f5
f6
e8
f5
fe
fc
ff
ff
01
f0
f5
ec
f7
fe
09
f9
f0
eb
0f
fa
09
fd
01
f4
00
fd
03
00
f3
f7
ed
04
fa
02
f5
f9
fd
12
f7
f6
f1
f5
0a
fa
02
f9
ed
fd
f8
ef
fa
f9
16
02
f8
f7
f4
ee
fd
f6
ff
00
06
10
09
ff
f2
fe
ed
f3
fe
03
f3
13
06
0b
02
fe
01
f2
02
04
f4
ee
05
00
fe
00
f5
f9
03
03
fc
fc
ff
01
ee
ed
fc
ed
f8
ee
f1
fd
f4
ed
f5
f0
fb
0d
f7
f4
ff
0a
07
f7
04
f8
fb
fb
fd
06
f3
f9
f0
ef
05
f6
f4
f7
f0
04
04
f8
00
05
fc
f6
ff
fb
f2
f2
f3
01
06
05
02
06
f4
f1
fc
0e
03
1c
ff
04
0f
2b
12
01
09
fb
22
e0
13
0f
0a
1e
f8
1f
0c
ff
e7
1c
18
25
19
31
f9
f5
09
f7
0b
dc
01
0c
17
22
e9
07
07
22
27
dc
c9
f4
f1
20
b8
da
04
f4
fe
34
13
f5
fe
2f
f4
d5
fa
e5
fa
06
ef
f3
03
09
0d
df
b8
f6
21
b2
b1
cd
f3
fd
f0
05
0d
19
12
e0
fe
01
e4
14
0f
0d
eb
e8
fb
10
f7
c4
d1
ec
0f
fb
ef
d8
02
2b
09
da
bb
00
16
f8
ff
f3
f8
0f
ff
db
0f
fb
d1
df
eb
e5
fb
b1
d3
e9
f6
0b
21
fc
f1
fd
07
24
24
fe
27
0e
04
fc
1c
08
10
e1
f7
01
1e
20
da
d5
0e
2b
0b
06
fd
f4
01
2b
0a
f8
f8
10
19
ec
0d
fb
03
ff
f4
37
de
1a
14
1f
3e
d7
03
eb
fd
f3
f7
fa
fa
fa
f8
fd
fd
fe
06
f4
f5
fd
0a
f7
0a
f8
f5
f8
0b
fb
08
ff
06
2a
fd
e2
ef
00
ef
f4
06
f6
df
08
f4
c1
c9
0a
fd
d7
d8
be
e9
c2
fd
f9
06
ef
ea
27
1b
e5
0c
0f
0a
fb
0c
07
18
0d
e5
e2
f0
12
1f
cc
ee
f3
38
32
fa
04
22
0f
0c
00
ea
f6
11
f8
00
fc
05
06
03
07
05
0f
04
08
01
1c
fe
00
f3
18
ff
16
28
fa
f1
ef
16
18
15
0d
31
4e
fb
03
09
20
28
f8
38
06
12
d9
09
17
fe
0f
bb
09
16
f5
fa
f6
0a
2e
14
0e
fd
21
0b
f6
e8
ee
03
fc
00
c7
ed
b4
ea
f8
0d
23
57
28
04
f4
24
25
11
fe
00
46
01
01
f6
fb
25
fd
1a
03
07
ff
f2
13
02
0b
02
fe
29
42
1a
f4
0f
1d
1e
17
0d
2d
2f
fc
08
07
f3
f0
0d
15
04
c4
0b
19
ff
1c
fe
0f
f0
e5
f8
f6
f6
0d
0d
ef
0f
06
02
0a
08
e5
f4
0b
f9
f9
01
f2
18
25
0a
16
09
2a
09
e1
0f
fc
06
f9
ff
f8
0c
19
10
fc
1b
e7
01
fb
f1
f8
19
fa
dc
f0
c9
e9
0f
15
20
e7
fa
ee
fb
d5
06
e9
f4
0f
f6
07
00
d6
ef
03
fe
04
e0
f0
05
e7
ce
fa
15
fe
f9
11
05
f7
f5
24
e8
db
d0
df
fc
09
ec
f2
ce
dc
10
f4
d6
d3
b2
c8
de
05
f3
ee
15
1a
26
e3
02
d7
e4
d2
dd
f1
ed
f8
c7
e1
fd
f4
e3
d4
f5
fd
1a
2e
18
f7
e7
1a
2e
12
f7
e8
fc
ef
e8
e3
e2
03
22
f6
e7
e5
02
13
04
ea
ff
1c
2a
28
22
f5
03
db
e3
f8
19
0e
0c
f8
00
ff
f3
ef
e3
f4
f9
15
ef
f0
fd
01
e3
04
fb
f4
00
ec
07
f6
05
e6
f5
10
f7
f7
09
fe
1b
ec
dd
0b
14
fa
01
12
08
04
f2
f9
f5
f6
f4
0c
f6
09
00
0b
f5
f4
fa
08
01
08
0a
08
f9
04
00
f8
0c
28
1a
36
08
ca
17
fe
e6
e6
dc
fd
03
de
fc
05
fd
10
f8
de
fd
00
0d
07
08
0e
e3
d8
11
0b
ef
06
f8
f8
d9
f6
0c
08
fe
db
f3
f5
07
f6
e0
04
fb
00
09
03
ff
ff
fc
08
ec
07
e3
dc
15
11
29
ef
fc
ff
0b
ef
f8
e0
f0
f9
06
e3
f2
02
09
1e
09
0d
2e
17
f4
08
fd
f8
e6
ba
fd
0e
2c
06
ec
25
f9
09
e1
05
f3
08
08
da
e4
24
36
21
fc
c5
28
24
0a
e6
f4
1c
07
f7
e8
29
fc
08
e1
06
f8
e6
f6
e1
00
f7
f2
f2
ff
f2
0d
07
f9
f0
fc
0f
08
01
10
20
01
fd
03
1a
05
fb
05
04
10
e7
f1
12
c8
df
06
10
e3
c8
c2
cf
fd
15
db
da
02
0b
0f
f9
e8
11
17
28
2c
fc
17
16
e8
05
34
21
1b
f6
f5
fd
eb
19
e9
04
ea
0b
03
e4
dd
e9
ff
1b
16
f8
fd
fb
0f
f1
f0
01
f7
e9
fc
fd
f1
fb
f9
fe
00
f5
04
02
fe
00
01
f5
07
fc
f2
02
07
f8
f2
f7
f2
00
fc
03
05
ff
f9
06
03
fd
fd
f5
ff
00
00
0b
03
f7
0c
10
08
ef
00
ef
dc
e7
fa
03
fd
f3
f5
fd
15
ff
f8
f2
ef
00
fd
06
06
ee
fc
0b
fe
12
f5
fb
fd
ed
fa
0b
0e
03
fb
fd
fc
08
f7
f8
fe
fc
fa
01
ff
e9
f7
ee
0b
ff
07
03
01
fa
0a
f5
0c
07
00
ef
04
05
ff
fd
f4
e7
f7
02
f5
fb
f8
ed
f5
fa
0b
0d
fa
02
03
f1
f8
ff
00
f1
fa
f6
fa
06
f0
f2
fd
f9
02
f8
05
fa
fa
01
f3
fa
f5
fc
fd
eb
ee
fb
fe
05
f8
fc
f2
f6
f4
fd
f5
fa
f1
04
f0
f8
f3
fc
07
02
ff
02
06
f5
f6
fa
08
08
00
08
f3
00
0e
04
0b
06
03
07
02
07
f2
f6
f4
fa
08
f5
f7
08
fd
ed
09
0a
06
16
f9
01
07
0e
0f
ed
f6
e8
fb
ea
00
f1
f6
ee
ff
0c
03
03
fd
fb
fa
f7
f1
f6
07
f2
f7
f4
f3
fc
fa
05
f5
fa
ec
f6
f3
03
05
fa
fb
06
02
09
fc
f1
01
f0
fb
f0
fd
fb
ff
fb
f3
f7
02
ff
f0
f5
01
f2
f1
05
f2
e9
f7
f9
f2
fc
00
fa
fb
eb
f5
01
f9
f4
f9
f5
f1
03
01
02
ef
f8
0a
01
04
f1
f3
f9
fe
f7
fb
e7
f6
07
0a
12
06
03
ff
04
fa
f4
f5
f8
f4
e6
00
07
f2
fc
ef
f2
ff
ff
f8
02
f9
f3
fe
02
f3
f7
fd
ed
eb
00
01
ff
f2
ff
f1
fb
f7
f9
08
03
f5
f7
fb
f7
08
0b
f6
01
08
04
0a
f6
07
04
04
08
fc
05
fc
f0
f2
04
09
ff
fd
10
ec
f8
02
f1
05
f2
03
00
ef
01
eb
ec
f9
02
fd
00
fe
0b
02
f3
07
03
f4
fd
fb
fc
f6
f5
05
00
f6
ef
09
f9
f7
f6
f2
ff
f2
0a
ff
fe
f8
f0
03
01
fc
f1
fc
f4
fa
f4
f4
fc
f7
ff
f8
f6
02
09
04
fa
01
fa
fc
f3
01
ff
f5
01
f6
03
fb
fb
f2
f5
07
fb
ff
fc
06
fd
07
fe
0c
09
fb
08
fe
00
03
f9
f4
05
02
ff
01
01
f8
ff
fd
f6
03
04
f5
f9
08
f4
eb
f4
05
f8
08
f2
f3
f8
f2
07
f6
f8
01
f7
09
00
00
f9
07
f5
fa
f4
f8
f7
05
ee
f5
f7
f8
f3
f4
fc
04
f8
f0
ea
f4
f6
ff
f3
fb
09
06
ff
f0
f6
fe
f6
fe
02
f4
f9
f6
fb
f5
f8
04
f6
f8
01
f8
f7
07
f5
01
ff
f7
09
fe
ff
ee
f9
ec
ed
ff
f7
02
0a
f8
09
09
f4
ff
02
f9
f9
02
ee
0b
f8
0b
f6
f9
01
f3
fe
fe
02
0a
f5
f5
fe
f8
03
f4
0b
04
01
00
fe
00
ff
fd
0b
fa
0c
f5
fe
03
ff
f5
f5
fc
f4
fc
fc
fa
05
02
f6
fa
fe
06
fb
0b
f4
fd
fb
0a
fd
04
ef
f3
fa
00
ff
f8
fd
05
f5
0a
f1
fa
01
f4
04
f0
f5
04
fe
0b
f4
f2
00
f9
f7
fe
f0
f1
fe
f0
05
fa
fd
02
f9
fe
fe
eb
f3
08
00
ee
f4
ee
eb
fe
02
f7
f5
f7
fe
f2
ec
f3
ef
02
f8
09
ff
09
03
f7
fa
fe
ee
06
f5
08
04
f7
fe
f5
f3
06
f6
00
f3
08
f6
03
f7
03
f5
f8
00
07
00
fe
0a
04
f2
fa
ff
fd
f8
04
fc
f6
fb
fa
fa
f2
01
ee
fe
f9
eb
f4
fa
09
fd
fd
0b
f8
fc
07
0a
f3
09
02
f3
ec
fb
02
ed
fa
f3
00
ef
ed
03
08
00
f2
f0
01
f9
f9
fc
f5
f7
04
f3
ee
ef
06
fb
f9
f9
f1
ff
f8
0c
ee
f2
ff
fb
f2
fc
04
03
02
ee
f8
ec
03
f0
02
f9
f8
06
fc
f9
03
fa
00
04
f2
ee
01
00
ef
0d
fd
08
08
f8
fa
fd
0d
ff
ff
0d
0d
0c
05
0e
00
fc
eb
f9
f5
f7
db
f0
0d
06
f1
fb
00
00
fa
f5
f4
17
02
fa
01
fd
00
fd
f4
f8
06
07
0c
ff
ee
f1
f9
0e
f2
05
02
03
f2
03
08
00
ff
f1
0a
0d
01
f9
e6
fe
e8
fd
f4
fc
fe
fd
00
08
f8
00
0d
03
fe
ee
0a
04
ff
fb
03
03
00
08
f5
fc
05
f1
03
0e
ee
09
ff
07
09
f7
0a
07
fd
f9
fd
00
f9
0f
08
ec
f0
fc
03
06
ff
fc
06
03
fc
fa
09
0a
0f
fb
ee
fa
08
f3
f2
11
02
f2
05
07
01
fc
f0
0e
fd
0f
1f
f1
07
ee
f5
08
f7
ed
e7
eb
01
03
03
0a
f8
fd
05
07
05
ef
0d
f7
f2
10
f4
fc
0b
e9
04
f9
fa
07
04
f9
fd
0d
f5
06
f8
fc
fd
fc
fc
f4
fc
fe
f7
05
fd
04
04
fe
f9
f9
ff
fb
01
f6
00
f7
f9
fc
f9
fb
f1
02
f8
06
03
fd
e9
f8
f1
14
fa
01
f3
f4
15
04
fb
f9
ff
fe
f2
f4
fd
09
03
f4
fb
fe
06
ef
f3
01
fb
fb
04
f6
08
f5
ec
00
fd
ff
f5
06
10
05
02
e7
fd
ff
ee
ff
fe
f4
01
f4
f6
f9
e6
05
f7
00
0a
01
ed
0d
f1
f8
f7
f9
f5
fa
09
fd
fd
f9
05
fa
0d
0a
f9
f9
f4
14
f7
f2
07
0b
0f
0c
e2
fb
f2
eb
fc
f8
0d
02
fc
02
f9
05
09
f4
f4
08
06
f4
ff
fb
ff
f0
ee
0b
f6
1e
09
0b
ff
ee
e4
01
fa
f7
0f
f2
ff
f6
f2
13
14
06
f9
f1
fe
f6
f1
f7
e9
10
04
ff
0d
ec
fd
f4
1f
f4
07
f1
03
ed
ec
09
ee
f5
09
ef
fe
f1
03
15
ef
07
f3
f0
06
fd
0b
f2
ee
ea
f0
00
04
f5
ef
00
f9
16
0d
f6
00
f7
04
0c
f9
fa
f6
f5
18
08
f0
0b
09
fb
06
f8
f0
06
f2
03
fe
03
f3
f4
06
02
f3
00
02
fb
ff
f7
09
03
fb
09
f3
fd
f8
f5
f2
f1
f9
fe
f5
00
f9
ff
fb
fb
03
f8
f1
07
f7
fd
04
f2
09
fa
f2
01
f4
f6
f9
fc
ff
00
f4
fd
fa
07
fd
fe
ff
05
f5
07
08
00
fc
09
fe
09
02
0a
09
f7
f0
f8
07
08
03
fd
f9
ff
f1
08
fe
f9
08
05
f4
f7
06
f1
03
f4
0a
f7
06
f6
07
f9
01
f2
f1
05
fa
fe
ff
03
f9
f7
f0
fe
f7
f6
f9
f7
f4
f9
f8
f7
fc
f8
06
f5
f6
04
09
01
fb
06
f3
f5
06
fc
f8
03
02
fc
f4
fb
f9
01
0a
f7
f2
02
08
f2
09
f8
00
f3
f4
f1
f4
f6
f8
07
f2
fa
06
f1
00
fc
f8
f7
09
f8
f8
05
fb
01
04
09
07
f4
0d
f5
06
f5
0c
f8
fc
fd
04
fa
fc
01
07
f9
06
ff
04
09
fb
fd
ff
00
02
f1
f5
ff
fe
06
03
f8
fa
f5
01
06
08
f0
00
f6
f3
09
08
f9
03
f5
f8
09
f3
f9
07
fa
07
00
04
fa
f4
fc
09
07
ff
05
04
fa
ff
ff
f9
00
03
fd
f5
03
03
f6
08
06
05
02
08
fe
05
06
fb
05
04
03
fe
0a
f3
05
fa
ff
f9
08
f2
01
f7
01
07
f3
02
00
08
f2
f7
f3
07
f5
05
03
06
f4
f5
00
f5
04
f9
f7
0a
07
03
f8
01
04
f4
f6
04
09
04
07
03
f6
fa
f5
fd
f8
09
ff
f8
fd
f3
08
ff
03
f2
f5
09
01
f5
fe
07
f5
fd
02
f8
f2
fb
09
00
f3
fa
f4
f0
f4
ff
f8
07
f4
fc
fb
f3
08
f0
f1
f3
00
00
04
f6
06
f5
f9
f4
07
08
07
0b
f5
fc
fc
f1
fa
f2
f1
f4
f7
04
04
04
fc
f3
f5
f3
fe
fd
f0
fd
fb
07
09
0a
0a
f2
fc
fd
fb
fd
00
08
f7
04
f0
f2
f7
fa
2a
15
0c
03
13
f9
f9
ec
eb
1b
e9
fb
ff
13
f3
12
07
0b
ff
03
15
f1
d2
ce
d0
12
15
0e
0e
ff
e3
f1
f5
f6
fa
04
0d
05
1d
0c
d8
04
ff
35
25
bc
c4
e2
1a
1b
13
f9
f7
0c
df
18
18
1c
14
07
1d
e6
ef
f3
16
0e
02
e4
f8
0e
eb
f0
ed
dc
02
de
d5
05
01
14
eb
18
17
0c
f8
01
ea
0f
ee
ea
e6
ee
f8
c4
f4
de
e9
c4
b0
ef
16
20
2f
2a
18
0f
07
0c
2e
1f
0e
d2
9f
fa
eb
e6
f5
09
f7
f2
f1
03
29
07
03
27
23
15
18
12
04
de
e5
e9
fc
03
fc
ed
fb
0e
07
0f
1b
fd
09
fd
bc
c6
ce
f6
0e
1c
03
0a
1a
f7
09
fd
fa
fa
e3
f5
0f
e8
ec
ea
e5
1a
e5
b2
e9
fc
2b
02
0f
0c
02
0b
08
fd
fd
04
07
f8
06
fe
0a
f4
fa
f8
0e
0b
f5
06
01
06
06
f6
ff
00
30
1a
20
01
14
1a
11
ff
13
1c
20
f5
ae
fd
f1
02
04
fb
f9
18
c6
d0
d2
f2
fd
e9
e1
12
f9
e3
f3
f3
1a
0c
fb
04
f9
fc
ef
df
e4
fe
13
c0
e5
e5
1d
14
ec
d2
0e
1b
f5
ff
08
f9
f3
fb
0a
14
fa
f0
f0
e9
ef
eb
0d
db
e2
f1
bd
df
eb
1c
fc
32
0f
e8
fe
15
f6
07
ee
f0
f9
0e
05
fc
15
ea
12
fd
15
f6
ed
0f
f1
eb
ba
da
e3
0f
2d
c3
ee
22
20
11
e9
2e
36
27
10
fa
07
20
08
e4
f1
04
c6
e6
e0
df
e9
f3
ff
db
ee
06
10
1a
fb
08
ff
01
01
fe
0f
ff
f7
00
07
27
ec
10
ff
0c
04
dd
1d
ef
01
05
f9
c0
df
e6
f6
f2
b9
12
ec
ec
0f
bf
1b
ec
f1
15
eb
f1
fc
10
20
1c
0c
1e
1d
15
ff
e1
01
e8
00
cd
d0
de
f1
f7
c4
fb
09
1a
04
b6
f6
f7
05
2d
e7
f3
fc
ec
f7
f2
f5
f6
f4
f8
f0
02
05
f0
f5
ec
f2
fc
ff
fa
f4
05
f7
f3
f4
ec
eb
f8
f3
f1
fc
f4
00
fd
05
f9
03
fa
f3
02
08
08
ff
ed
fb
06
f8
fa
f5
f1
01
06
f6
fa
04
0d
0a
01
f9
03
fb
fa
f2
02
01
f6
f6
f2
01
f8
01
f8
01
fd
f2
f3
f4
fd
f7
f5
03
f4
fa
f1
01
fb
f4
ef
00
fc
06
f8
f7
06
f9
f7
03
04
02
fb
0f
03
08
fb
04
f4
06
f7
f7
f7
06
fb
f7
ed
ec
fd
f5
fb
01
f2
ed
fd
01
f0
fb
ec
fc
eb
f5
f4
f3
00
fb
00
f2
fc
00
f5
f0
fb
f3
fc
ff
e9
f7
f6
05
01
fd
fd
e7
fb
fd
f4
ff
f3
02
f9
ed
f9
f3
eb
fe
ef
fd
01
ec
01
01
fa
07
f7
f7
f5
e5
08
f3
fa
f4
f6
04
03
fd
09
04
09
08
f6
01
fa
fc
f9
02
08
fc
06
0b
0d
f5
f7
0e
03
f8
f6
f8
05
fd
f7
f9
0d
00
04
04
f9
e3
f6
ff
ee
00
04
fe
fd
ea
ec
fb
f2
02
05
f8
04
eb
ff
fe
f7
07
fc
ed
fb
fd
f5
ea
04
02
f0
fa
fb
fc
ed
f0
fa
e9
f8
ed
f6
f7
f3
00
ec
eb
ea
e9
fb
f7
f1
fe
03
f5
f9
00
f8
f6
f1
fb
f2
f0
fb
01
fc
fb
ed
eb
ee
fe
fd
f6
f8
07
fd
04
fb
ea
fd
fb
e6
00
f7
f0
ef
f9
ed
ff
f7
00
ef
fb
05
f0
f7
fb
03
f5
f0
f7
ed
ed
e9
f6
00
03
fe
f5
ef
ed
e8
ee
01
f6
fa
f8
fa
ea
e7
ef
f1
e5
f1
f5
ee
01
e4
ea
f2
f7
04
ff
03
eb
fb
f3
fa
e7
eb
f6
f3
f6
06
fc
e9
ee
ef
fd
ee
f7
f7
f8
f7
f5
f8
fb
06
ec
06
09
fa
f9
f3
03
08
fa
f6
01
fd
e9
ed
f0
02
fe
fb
02
f3
07
01
fe
f4
ee
09
fb
fc
f8
f3
fc
f6
ee
1c
30
0b
0c
ef
00
f6
20
16
05
04
f9
09
0f
03
0d
ee
06
e9
fd
03
03
00
fa
f0
e6
e2
12
19
13
02
ea
11
26
42
32
21
c2
da
09
04
08
c2
d3
18
f0
cf
33
17
e0
da
c3
e1
e0
0e
ef
da
05
0c
e8
f9
0a
24
e1
e1
12
22
ef
d3
01
0f
13
2d
11
21
b5
a4
07
f6
0f
f6
b1
0d
02
db
e1
ef
0c
04
f8
e3
fb
0e
17
1c
01
e8
0d
e7
de
d4
11
cf
d3
da
e1
f3
2d
f8
e4
f1
14
0d
06
17
1a
13
f0
fb
f4
f8
ea
f0
e9
e6
f2
06
19
13
00
ee
ea
32
19
0d
1e
12
0f
0c
f3
0d
1a
d8
b9
e4
09
06
04
fd
e5
17
33
ec
01
ea
fd
0b
f9
ff
06
fd
fa
e6
34
0b
2a
1c
ed
19
fb
f0
e9
04
fb
00
f2
03
fe
ff
03
fe
ff
00
0a
f3
f7
fe
fb
0d
f4
00
05
fe
f6
01
fb
03
fd
ee
c5
e3
e0
b6
f1
f8
d7
e8
23
fe
ce
fd
0c
16
ee
fb
ef
06
e8
e5
e2
ea
fa
0b
2c
24
23
e6
0a
ff
e4
ec
f8
05
14
03
db
f3
0e
20
11
f9
ec
2b
21
17
f3
f3
1b
0b
fd
fb
0b
1a
0f
dc
f9
01
07
08
11
fb
ed
14
18
04
18
19
10
f1
1b
1a
ff
09
eb
fa
f6
34
1a
08
f3
12
51
0f
f9
ea
1a
34
0f
27
fe
08
e9
f3
1d
f7
02
c5
f5
de
e0
de
11
e1
ea
0c
f5
05
f1
f9
d0
e8
ee
1a
01
0a
d9
f9
f1
f6
f6
fa
1a
14
18
03
20
65
fd
18
06
1d
4a
00
ea
ed
0e
16
00
1a
08
f0
0d
fd
11
fa
0b
11
0d
2e
fb
07
01
1f
20
24
fe
0a
0b
33
15
09
1d
e3
f7
26
f6
10
e2
0a
31
01
01
fe
de
f8
03
e8
00
01
f0
e4
e0
21
17
14
16
03
00
07
0e
2a
0b
e7
02
0c
0d
ff
0d
1a
f7
13
11
fb
00
f8
08
1a
fe
06
09
07
ee
fe
df
f8
00
d0
ed
00
15
0f
f5
13
14
0e
09
25
18
fa
15
09
e8
04
0c
13
ec
c1
23
14
ff
e5
db
1b
fa
f1
dc
d0
c7
0d
34
31
00
d9
f6
fd
26
1b
00
e4
04
0e
2c
15
18
fc
f6
e3
10
07
f5
ee
c7
1a
17
11
2b
11
15
0f
db
e2
1d
33
fe
c2
fc
3a
1b
fc
db
e2
20
f9
e1
d7
e1
dc
da
04
0e
2b
11
f6
f8
fc
0b
30
02
ec
e6
eb
ed
e6
d4
d3
bc
bc
fc
07
f2
d6
ba
0d
04
fc
11
15
15
00
18
07
e9
f6
ef
ef
01
d9
13
ea
fd
fc
10
03
0b
f9
f2
07
fa
0f
f5
f0
ed
1b
29
e9
dd
dd
10
14
ff
05
f7
11
01
e0
ff
f2
ed
e2
d9
e7
b5
f9
f4
f8
0a
04
f8
fc
08
06
fb
fe
fc
f5
04
f4
00
ff
ff
f7
f6
07
fa
07
f9
fd
df
fd
ff
f5
10
ef
c2
e3
29
57
ed
d9
e5
eb
34
eb
c6
c3
e3
d5
01
1d
1d
f0
d8
1a
2d
f4
ee
e0
11
1e
fc
08
11
2a
39
0f
08
22
16
e7
d7
fa
06
17
f1
d8
e4
fd
f1
e6
f2
04
17
ea
0b
04
0e
1b
11
21
22
29
dd
03
38
1f
10
d4
f8
12
13
ea
f8
f1
fb
0c
02
09
19
fe
ef
01
0b
fb
14
04
fe
f6
0c
12
1f
fd
9a
01
fe
09
bb
d9
09
08
ec
f6
03
e2
d7
f6
df
2e
f9
d3
02
fa
1b
16
e9
c1
d0
f3
e2
18
0b
0d
0d
f8
17
00
fb
08
06
ec
e0
04
e4
fe
04
0d
fd
ce
0e
1b
04
f4
b0
02
f8
08
fe
ea
e8
f4
d2
e4
0f
fe
1a
e1
d9
ee
f1
1c
14
12
04
de
f5
0a
0f
12
e8
01
ec
fe
1c
0b
03
f2
0f
10
1a
0a
f2
0d
1f
35
08
fb
f3
cd
04
17
f4
ee
d4
12
fb
e8
e0
ec
14
12
ed
04
0b
e5
e2
f3
2e
23
ed
f3
2d
1e
09
ff
0c
09
05
f5
08
00
02
10
0c
d6
f4
01
f2
ec
3b
24
03
fa
fb
21
2c
09
f5
ed
06
1a
1e
0e
e7
f8
1f
09
13
1c
fb
f7
01
29
12
e2
0b
00
20
f2
35
21
30
08
ee
18
1b
fe
1a
19
e0
cb
f6
e8
f5
f6
b6
00
05
eb
27
0c
fd
fb
fb
55
0f
fb
fb
10
d6
f4
05
07
23
d7
c4
e9
d6
dc
0a
0e
0b
25
31
ea
00
04
f4
08
38
1c
04
1e
26
f7
08
05
f8
da
0d
02
fa
e5
d9
fc
e9
f2
f4
f8
e4
f0
0a
00
01
e5
09
09
08
da
10
fd
e4
f3
0c
09
12
04
08
1f
1d
1d
db
e0
11
03
24
d2
dd
ec
ff
fd
1b
e7
0b
0a
ce
0c
ee
02
1b
ea
0e
f7
f9
01
0a
f6
fd
f7
fd
f4
0a
f9
04
04
fe
f9
fb
ff
fd
f5
f4
05
f7
08
01
ff
fb
f8
ee
e5
f0
02
0a
dd
e7
1d
13
1d
39
15
1d
25
2b
d3
ea
f8
e9
d2
0b
03
06
f3
f2
3e
21
d5
e7
dc
41
32
e0
fd
eb
17
0b
fb
05
10
e9
c2
f2
f9
f4
08
e5
f3
de
f5
d5
da
e1
0d
0c
e4
12
2b
0a
f5
41
25
1b
f7
00
ea
08
fb
18
f7
0b
00
02
10
06
1f
14
ec
fc
01
f8
d8
e6
06
39
d3
d4
00
17
1c
0a
0a
0c
00
de
2a
03
11
f3
fe
ea
eb
ff
f4
0c
b9
b7
f2
00
0a
09
e8
14
27
11
0f
0a
13
f9
e7
ef
d9
f5
f7
f1
16
1f
d6
ec
ed
f6
fc
e1
e9
e2
d2
fc
11
ff
f7
03
12
0e
ec
0a
25
00
fe
0b
10
e8
eb
df
f1
ff
fa
14
f1
e8
f4
e6
d3
db
00
03
d4
e5
f7
20
0d
cd
06
0a
0e
00
e8
f2
f6
fe
f7
3d
0c
04
04
f7
20
35
09
0f
f4
f5
ef
09
11
f9
09
02
03
02
18
ed
0c
17
15
df
f1
fd
0e
f6
ea
0b
09
f5
f7
ec
2e
fc
01
05
00
3d
0e
14
fa
0c
d9
f3
df
df
06
cf
0b
0f
ea
d1
df
f1
26
f2
01
04
08
0e
fc
e4
27
18
1f
26
07
fa
16
1c
0e
e4
1b
fd
0c
e6
cb
04
fc
e1
d4
e8
d1
03
0a
08
1c
ca
f0
25
34
10
de
2c
04
fc
b5
f8
ed
05
23
dd
f2
01
10
ed
f9
d9
09
1c
11
0c
f7
1b
1d
1b
39
df
0f
17
11
0e
0a
14
00
e5
e5
f4
13
0d
f6
ed
ee
09
14
0b
06
ee
e7
00
09
0c
df
e3
e5
e2
0e
08
08
ee
ca
d8
18
0f
f7
fb
d2
15
f8
0b
09
e9
24
16
2f
1b
10
e7
cc
0c
0f
25
d4
cf
f6
fd
0e
e9
dd
ea
e5
1b
15
0e
f8
d6
c2
43
04
e7
e7
f8
f9
04
fd
00
03
f5
f6
0c
fc
fd
00
fa
00
0b
0a
0b
fa
ff
fc
fe
0c
ff
00
0b
f5
08
14
19
1f
db
16
f7
f2
d3
db
e1
12
02
fc
1c
e7
01
0b
1a
01
eb
0f
09
1a
fd
ec
e5
3e
3a
42
e0
ed
06
16
1c
da
f2
00
08
11
ea
f7
f9
1d
0a
15
f7
d1
19
06
d3
ec
15
1c
23
05
12
e5
f4
15
db
e9
07
0c
eb
e7
d8
10
0b
fb
11
0e
25
f9
f8
f0
00
2e
05
e2
0c
08
30
ee
cb
f4
17
19
11
27
2a
1b
f3
12
25
1a
05
0a
04
22
0b
0e
1d
26
03
25
12
03
1e
fe
30
f8
e2
0b
06
dd
0f
ff
1a
02
f3
1c
24
11
fe
d1
08
0b
14
11
ea
f0
fc
11
22
f8
02
07
fc
04
14
16
0a
f8
f1
1d
07
f1
e1
10
df
d7
d8
ee
1c
d9
b6
fa
ec
00
ec
e7
04
07
05
15
ef
0e
0a
e6
40
2b
22
13
ef
d4
e1
ee
16
2e
d3
f4
e3
da
ec
c8
eb
17
f9
f9
dd
f1
03
0a
ec
1f
18
1f
0d
ea
25
0f
11
d9
bf
0f
08
1e
0c
09
b8
ed
1a
12
2d
fb
11
f8
f1
f6
02
f4
14
25
36
e5
f3
14
2d
10
f1
e5
1a
12
0d
fc
ef
ea
eb
d8
16
f1
09
f0
fd
0e
1d
1d
26
4a
fa
e4
f4
33
4b
d2
e4
f8
ff
09
e5
e0
19
15
c9
ed
e2
f6
f6
d5
c7
fa
19
2b
38
a1
f4
ff
19
26
ec
f6
03
04
ed
1a
fd
de
f3
ef
0b
f2
02
eb
db
0d
0f
04
15
26
e8
10
16
0d
fb
04
09
1d
fc
d0
d8
ee
16
eb
d8
e4
f5
0c
f4
f8
f8
ef
f4
04
1f
02
00
15
08
ed
10
f1
fa
1d
1a
fb
0e
18
0d
e6
17
15
0c
e9
f5
e5
0a
08
2c
24
f4
ed
f7
05
1b
0b
fd
e3
da
03
04
0b
e9
e6
ec
04
f9
dd
c2
ef
1c
07
e0
ec
e8
02
09
0d
f7
fa
0b
f5
0b
07
f6
0d
00
f6
0a
08
00
f7
fa
0b
f8
06
f4
06
fd
f9
f9
13
f6
e6
b4
fc
00
03
06
b3
ee
f9
e0
e4
f2
cd
f5
0e
0b
0f
0a
18
14
1c
f0
cb
dc
0a
e8
eb
0a
0a
09
e9
ef
13
2a
eb
c3
e1
05
1d
0d
06
fa
14
fe
07
03
0a
ee
01
08
2a
05
ef
f9
38
1f
17
16
f4
08
0a
f2
fa
f8
15
15
fe
04
fd
27
f1
0b
29
0f
0f
d3
85
16
04
10
e4
b8
c9
f0
1d
1a
47
fa
0f
f8
02
16
ef
e0
d6
01
ee
35
13
04
f7
c0
d0
16
fc
1c
f6
f6
fb
df
07
0c
ba
cd
f5
0d
11
09
07
fd
f4
f3
1b
03
f5
b4
c5
1b
f7
ed
de
d0
fa
f1
07
11
02
e9
fe
0d
00
00
f5
f3
d9
f5
e6
fd
da
f5
26
12
01
ef
d1
f5
10
4b
08
f6
02
f2
38
fe
f4
fd
02
0e
e9
f6
eb
12
cc
e5
07
16
07
ed
f7
12
10
0d
02
0b
01
1b
f5
22
f4
06
f8
e6
1c
16
1c
2a
10
ef
ef
00
f4
f8
f5
f6
f5
07
01
f4
ff
f6
ff
03
fa
fd
ec
fd
02
f0
fd
03
f2
06
09
fe
f6
fb
f6
fa
fc
f5
ee
f8
02
01
fb
03
fe
04
f6
03
05
f3
fd
fe
f8
fd
fe
06
f9
fe
fd
fb
ff
04
f5
00
f7
ff
fe
04
f1
fc
fd
ff
05
06
01
0a
f9
fe
ef
ee
f7
f8
00
ec
00
f1
02
0a
fe
f9
f6
ff
00
f5
f6
03
05
f4
f3
fa
f1
04
f7
f8
00
fc
03
ee
f9
07
f0
f7
01
09
05
08
07
f3
f5
f8
00
f7
fe
f3
03
0b
fb
f2
03
01
fc
ef
ed
01
f0
f2
fb
01
fc
ee
f4
07
f4
ff
fb
f7
fe
f2
00
03
f3
03
f8
f4
00
02
05
fd
07
08
fd
02
fc
00
07
fd
fd
f8
02
00
ef
03
f2
f5
f9
05
00
fd
ef
f6
05
08
08
fe
09
f7
0b
09
03
02
f4
f4
04
f5
06
f8
09
05
f6
f9
f7
f6
01
05
fb
ff
02
f6
02
05
05
fd
f0
09
fa
f5
08
f7
f7
fc
ef
f5
f9
fa
ed
09
fb
fa
eb
01
fd
f2
fc
ff
01
03
fb
f9
f9
fc
00
f7
ff
f5
07
fa
f9
fa
f6
f1
ef
00
01
00
02
fb
01
ef
f3
f8
05
fa
05
03
f7
00
f3
f5
ed
f5
03
03
fe
ed
ff
f7
f6
f2
f8
fd
ee
ef
f7
f6
06
04
0a
ff
06
03
09
f6
fd
f6
01
fd
fd
f2
fd
02
fe
ef
fe
f8
02
01
f3
f9
ff
f4
f5
ee
f7
ff
f5
0a
09
f2
05
03
00
01
02
fc
03
f7
fb
f2
fe
fd
02
f4
07
fa
fd
04
04
03
ff
08
fc
fd
f6
f5
fc
04
f1
f2
ff
f4
f8
f8
fb
f5
fd
09
04
f8
ed
07
f3
03
ee
ff
f0
ee
09
f3
f9
05
f5
03
08
00
f0
07
0b
fa
00
08
f1
f5
fe
f3
fb
00
08
fd
f5
01
0c
f1
03
f4
03
f5
f9
01
fa
fa
f6
ff
05
f3
03
ef
ce
d7
26
3e
d8
07
14
13
0a
18
15
0b
2c
21
05
0e
0a
0f
ed
e1
f7
ef
b9
c9
ec
10
fa
e6
ee
e3
f7
ed
e4
1c
e7
fe
1e
10
2a
02
fb
e8
f4
e8
f0
f1
d3
e6
dc
d4
d1
94
b6
f5
c6
9b
e9
e6
e2
7a
90
c8
f4
15
09
f9
1b
de
ec
14
fc
01
eb
f4
12
fc
e2
ce
1d
ee
ad
f0
e0
d8
ef
bc
d6
f8
fa
03
02
01
db
de
0d
0f
09
e6
0b
05
ba
af
b0
d7
e0
a1
b1
dc
05
fd
fd
fb
f3
18
19
18
1c
08
22
33
04
09
04
f6
f1
d7
c1
eb
05
f1
f4
12
07
15
18
eb
1f
21
22
07
10
28
06
00
06
dd
da
c3
de
19
27
08
fc
d2
07
26
e6
04
dc
1a
16
01
07
ff
ff
01
06
0a
21
fe
11
16
f0
02
f7
fa
ff
04
16
f5
f9
0a
01
fb
f0
fa
fc
07
fb
06
06
01
01
09
f4
02
05
0b
f3
ca
d2
9a
b7
04
b4
d6
e4
f0
0b
f4
ef
fc
ec
09
1c
fb
07
06
29
12
02
f8
ef
09
1f
f4
dc
ff
1a
f7
cf
c5
d0
09
12
f1
f5
fe
d4
0f
06
06
e3
08
0c
08
1a
13
16
1a
0d
f8
0c
ed
fc
f9
d1
eb
00
f3
00
eb
f9
14
04
1e
f8
f1
fe
11
ec
ed
05
f3
f3
e1
cf
16
3a
e3
19
0f
29
44
0c
11
e8
14
11
0b
0f
ed
ef
ea
1d
06
f3
cc
d3
df
ee
f9
11
28
e7
f2
15
01
1a
ad
eb
dd
eb
fd
11
f9
fa
fa
23
1a
02
08
1a
0d
1b
13
09
27
4b
04
07
1d
2b
13
f5
0f
f4
01
14
04
01
fb
fe
fb
04
1c
18
03
ea
0a
1a
1b
f8
07
2c
13
2d
f8
05
f0
1c
1d
f0
0a
05
1b
0e
f5
07
03
08
f6
19
18
05
f4
ca
dd
bc
e9
df
a7
db
e8
f8
fc
09
f5
11
1e
18
0c
2d
0f
08
e5
de
f8
eb
f3
00
01
03
fa
09
f9
06
02
04
f4
f5
00
f6
f5
fb
08
07
f3
07
02
00
08
f5
f7
fd
fc
03
f4
0a
f9
04
f9
fe
08
f6
07
0b
fc
00
fb
fb
f7
03
01
07
07
f1
08
03
ff
07
f6
fa
f8
fd
05
f6
01
f4
fb
01
fc
09
01
f3
09
fb
fe
01
fa
02
07
fe
f7
00
04
f3
fc
f8
02
01
05
ff
07
02
01
f7
04
07
f9
06
00
f3
05
ff
f6
f2
fa
fd
f5
f6
05
f4
0b
f9
ff
05
f3
ff
09
09
f8
fa
f8
fc
f8
00
05
fd
09
fa
f7
fd
05
04
07
f4
f1
09
03
fc
04
08
f2
05
04
04
02
fd
03
f6
09
f3
06
fd
f5
f3
01
07
08
f7
03
06
ff
f4
fa
02
f8
fe
f7
fe
01
f2
07
04
f3
0b
08
09
06
09
05
f5
f7
f7
0a
0b
05
fe
04
01
0b
fa
0c
f5
f9
06
04
0c
0a
05
07
ff
f6
00
f8
f6
fe
fa
09
02
f8
fb
fe
0b
f4
09
fb
0b
ff
04
0a
f2
01
f9
f8
09
f4
f9
fa
fc
00
ff
fa
f1
09
f2
fb
08
03
09
f2
fd
f2
f3
02
f8
f7
f9
00
0a
f8
fc
f9
07
f7
f2
00
fa
f7
f8
f9
08
f6
06
07
f8
09
ff
0a
fb
01
f6
02
f7
06
0a
f3
fa
03
06
08
05
f7
08
09
07
f4
fe
fd
fa
00
fe
00
05
f3
fe
05
01
fb
02
07
fa
f5
fe
00
fd
f2
fd
f9
f3
f3
f4
04
02
f6
f6
fa
ff
06
01
f9
fa
f7
06
f3
ff
fe
f4
f8
f5
f7
fa
f8
f9
00
f6
fd
05
f3
f9
05
0a
fa
f7
f7
f6
00
fa
f8
f2
fe
05
f7
04
fc
01
f4
07
04
f5
03
fc
f8
01
f9
f9
07
02
ff
fb
fe
01
fe
07
02
f3
00
09
fc
01
fa
f3
f8
f2
00
fc
04
f5
04
0a
fe
00
09
03
05
0a
f7
f5
07
03
02
f4
f6
f7
ff
07
f2
06
fe
fa
06
05
f9
fb
fc
eb
fa
ed
f9
fd
f4
03
ee
f5
03
f2
fa
ed
04
03
01
f9
f5
ec
0b
05
fe
f0
fa
05
f9
00
fd
f9
fd
e9
f9
f1
f4
f0
f7
fc
f9
f3
07
01
13
f9
fa
fd
00
f4
f7
f4
fc
f5
fc
03
f4
0a
0f
04
fa
03
ec
f1
f2
03
0d
05
f3
f7
07
f8
03
f6
f4
fe
f8
fa
fc
fe
f6
01
03
05
03
f6
f1
f7
ed
04
00
fa
08
03
0a
f9
01
f7
f2
f2
fa
06
f9
f3
e6
f7
f3
fb
f3
f3
ed
eb
fe
fd
f8
07
f7
0d
0e
03
f4
08
04
04
f3
f6
f6
fd
fc
00
00
fe
00
fd
f5
01
f6
09
fb
eb
f7
fb
f1
f3
fc
05
00
f9
eb
f3
f6
f8
fa
fd
01
03
03
fc
01
f0
03
03
f1
f9
f8
fa
05
fd
f4
fe
f6
04
08
f7
04
fd
ff
0a
f9
f9
06
05
fd
fb
09
0b
ff
fa
fc
05
fd
00
f9
f3
03
0b
06
fc
00
fa
f9
0d
0f
01
f7
01
fd
f1
02
f6
f6
f9
f9
ff
f4
fd
f8
10
ff
f5
f7
f5
ff
01
ef
fc
f6
01
f5
f4
07
f3
f6
f7
f6
02
ed
f4
f1
ec
f7
01
f3
02
08
f9
0e
00
05
eb
fa
ee
f6
fe
ec
04
f8
f9
f1
05
00
fd
fe
f8
01
fb
f0
ff
f4
02
f6
f6
03
fe
f8
ed
ff
ff
fc
f9
fb
ec
ff
f6
f5
fe
fe
08
00
f2
fb
fe
f4
fa
02
02
f9
f8
ec
f8
03
f6
02
07
06
01
fa
f4
fe
04
ff
fa
fd
fa
fe
f7
f6
08
f4
f8
f0
01
fd
00
08
f6
0a
f6
f2
00
f8
ee
f4
02
fc
ff
fb
f1
05
01
f8
f3
f3
f0
fa
fc
ee
fe
00
fa
f1
fc
f4
f1
02
fc
02
f1
ff
fa
01
09
00
0b
ea
04
0d
ef
ee
fd
ed
08
04
03
f4
eb
04
f3
01
0c
f4
ed
04
f1
f4
fb
fe
f9
ff
fa
ec
ee
03
f4
05
f3
21
0b
fd
17
0e
0e
09
1c
1d
17
fe
05
10
f7
1c
ec
e3
e9
0b
e6
d5
e3
10
14
03
1c
1f
12
0c
0e
24
03
04
01
fa
07
fe
27
1e
03
03
02
0f
f8
e5
10
11
f5
bb
b4
2d
48
35
24
08
47
12
15
08
f0
34
f9
04
1c
2e
e0
f9
0a
31
15
f4
27
2c
2b
d9
20
06
22
22
04
1c
fc
e3
df
ff
00
f8
f3
f9
34
0f
f8
f5
00
f6
19
0c
ef
e4
c4
16
22
1f
1a
00
2a
13
0c
1a
e2
04
14
03
26
03
f8
fb
f3
eb
ef
e0
02
03
eb
d3
1b
0a
15
0d
13
0f
fb
06
13
11
10
01
f6
0f
0a
f9
f9
f1
fb
fa
ee
00
12
ee
d3
0b
f8
04
ea
0a
f8
ff
11
06
16
ef
09
ed
e7
21
06
13
f4
f3
d7
ea
fc
ff
f3
fc
06
0c
0b
07
f1
fe
02
f7
0c
f5
0b
f3
08
fa
fa
f7
fb
07
f7
fd
fe
03
f8
fb
07
39
14
f4
d9
cc
23
f3
f3
fd
19
01
f9
f7
17
18
e9
00
00
1a
f6
e8
fa
06
ec
e8
1c
ed
ec
eb
e4
fa
fd
fd
da
32
0d
25
f0
fb
0d
00
13
ea
fa
fd
0a
0b
e0
d7
e1
ed
f9
e4
03
04
04
01
f0
10
19
f4
f8
07
18
1e
f9
e6
2f
1f
e9
0b
16
05
07
e1
18
09
ed
ed
e7
07
ff
fa
f9
06
19
24
fe
f3
15
f9
0c
fa
f8
cd
d6
f4
01
08
05
1a
09
e2
ef
f5
22
f0
fd
0a
31
18
ff
1d
f7
fd
d5
e5
df
e5
f5
ff
f0
ea
f7
07
f3
dc
e3
ef
da
08
f0
f6
02
ed
03
ee
fb
f5
02
0d
00
ff
fc
0d
ee
04
12
13
21
0d
1c
ea
fe
fb
0e
ef
df
02
fa
08
db
df
18
01
22
2b
e7
f2
dd
0f
1a
f1
e7
fa
19
04
06
ff
09
0d
03
17
14
12
e0
f7
f7
1d
1e
ff
eb
f2
08
06
0a
f4
e5
d4
c0
00
fb
ff
fa
02
fb
04
f1
f2
f7
09
09
f8
f3
f8
fc
05
01
fc
09
fd
01
f8
fe
08
fc
fd
fb
f5
0b
07
f3
f8
08
04
02
07
ff
f4
fd
02
06
fc
07
f4
fb
f9
f6
08
01
f6
fb
f3
ff
08
fa
f9
f5
f2
09
f6
03
02
fa
03
f5
fb
fc
f7
03
f7
f8
fb
04
03
f8
f7
05
0a
f1
ff
01
08
f4
06
f1
05
07
00
fd
04
04
08
fb
fb
08
f8
02
07
04
03
f9
fe
f6
0a
fd
f6
f3
00
f4
f2
fc
01
fb
f7
07
f2
08
04
f8
fa
04
fd
07
f4
04
fd
f7
00
fb
03
fc
f6
fc
f2
04
f1
03
08
f9
fd
f9
f6
f9
fd
fe
08
fa
04
fe
f2
f7
fd
f5
04
fd
f8
fb
f1
02
f5
fe
fe
00
f7
03
f3
f8
fe
0c
ff
f5
f1
f9
f6
00
f8
00
07
f3
fc
f7
02
00
00
f4
fa
08
04
f3
fc
06
f3
f7
fd
f5
04
0b
f9
f9
04
f8
fc
01
fd
f4
03
0a
03
f0
01
03
05
05
f6
fa
fc
00
fd
00
f1
fe
f1
f1
f8
f5
05
f5
f3
09
fa
03
f2
f7
01
05
f4
f8
ff
0d
f5
f7
09
fd
f6
fd
fb
f4
ff
f1
02
f3
f8
03
f5
f7
08
f3
fc
01
f1
06
fc
09
04
f6
08
fe
05
f1
06
05
fd
f2
f9
09
01
04
09
ff
f1
03
f6
f3
08
f8
f5
01
05
f5
f8
07
f4
f3
0b
05
f2
f6
f8
f6
0a
f5
08
08
01
09
0d
fc
f7
ff
07
fb
03
fe
fa
fc
fa
01
f4
09
09
09
fd
fe
08
f2
05
f9
06
f3
f9
fd
02
f5
08
f8
05
04
f3
f4
fa
f8
f7
f9
0a
03
02
fe
fb
f2
03
fa
f7
f2
06
ff
ff
f4
02
f4
f3
f9
f2
02
06
f9
ff
fd
f2
fb
0a
ff
f5
09
f2
f3
06
f4
ff
fe
06
fc
f7
f4
f7
fd
08
fd
07
f7
f6
02
ff
03
f8
f1
ff
f4
00
fe
f6
06
05
12
2c
10
0e
f6
e5
fe
35
f9
df
0e
fe
10
fe
fe
fb
f2
ec
e1
c4
dc
ce
f9
16
1e
03
f0
da
fa
e5
e9
f1
0b
26
02
f2
06
0a
1b
16
ff
0f
e0
ff
18
0d
06
ec
f7
e8
ea
e4
bc
ec
0a
f6
12
df
00
0c
f0
fb
fe
05
0e
f7
e2
40
27
0a
0d
08
fd
f2
e9
e8
db
ec
fb
fe
f0
f2
1b
fe
30
fc
0c
14
fd
0e
01
f2
09
f0
f8
00
10
e4
f2
d0
c8
f4
ee
dc
f5
fa
40
fe
0b
02
e6
21
0c
0a
06
19
03
24
28
1b
1b
0d
03
f9
0a
08
10
01
0f
03
e0
ef
e0
eb
03
e4
11
02
08
2f
04
0e
f7
df
de
c5
d5
02
16
0c
09
10
ff
08
0e
f0
f3
0d
0a
fd
06
f0
fe
fc
29
25
27
da
f0
2e
f7
05
f6
f6
ff
fc
08
05
08
fd
04
fa
fd
f7
0c
04
fc
07
f4
f9
f5
fc
0c
f9
06
01
07
d9
f4
02
f3
1f
e1
fd
fa
e4
25
01
0a
18
0c
1b
0e
f2
f3
0c
0e
1d
04
e0
d5
fa
07
11
fd
19
f3
0b
fa
32
02
2f
13
fa
1e
07
03
22
f5
01
eb
12
06
f2
02
fa
00
f1
06
08
fe
e7
20
08
e4
0b
db
f4
09
02
06
e4
12
26
e1
df
ed
f4
00
e1
dd
11
f9
fc
e6
21
4c
ff
15
ec
ee
0e
1d
fb
c9
e5
e3
21
d5
01
f6
1e
fa
ec
f4
d1
f1
d4
d6
c8
c3
f6
e0
f2
f7
d6
f3
06
27
f1
08
14
11
fb
dc
f8
fd
e3
fb
f7
f8
04
f4
f6
eb
24
28
03
0b
08
14
09
07
12
ee
02
f7
07
f4
ef
0e
ef
0f
01
14
fe
fb
02
f6
ec
fb
06
ed
16
05
14
0e
dc
12
1b
f3
19
e5
2a
16
e0
19
f9
0f
0f
0f
0c
f6
f7
0a
06
e8
10
04
06
fd
de
ef
0b
ff
df
f6
0a
1a
07
0c
03
e2
ff
e8
e8
e7
13
0f
ef
07
d3
fc
fb
02
3e
0e
ed
fb
1e
12
ef
dc
ed
e0
e3
ea
f0
f3
ff
2f
2a
d6
eb
11
1b
12
fc
ff
00
06
e0
e9
04
f4
fa
e2
22
0c
0c
f0
03
46
3c
ff
df
fe
e1
df
e7
20
38
e2
f2
13
2a
18
01
f9
0c
f4
11
23
2f
24
15
e7
00
29
17
0c
be
d6
f3
fe
fc
1a
db
1b
ff
da
d9
32
0e
c2
d6
2a
29
2d
09
dd
ef
08
ff
fe
1d
b5
e7
0f
0b
03
00
f8
08
01
00
f3
03
f4
11
00
03
1c
19
18
f2
c7
fc
1d
de
ec
bc
19
1b
0f
0c
fa
ec
f1
f0
16
04
c7
10
16
fd
d4
fc
ec
b8
dd
19
29
14
e8
09
0c
fa
f0
fd
e9
eb
13
e4
f1
e3
ec
f3
10
01
f7
0e
d7
fd
e5
f2
30
f0
f7
fb
09
2f
05
02
fb
f8
04
fa
00
f8
07
06
05
fb
08
01
08
fe
f8
00
01
f1
04
00
06
f4
fc
ed
fa
ef
02
ef
ee
09
fd
00
fa
0d
08
18
09
25
f6
24
0b
08
ac
fc
0f
ff
ee
d1
c9
fa
07
f5
d7
12
14
fe
ce
ee
1d
34
f8
ee
0f
09
ff
05
42
06
fa
dd
d7
02
fc
02
e0
f4
09
02
03
d8
23
18
13
38
10
00
eb
ee
04
e3
14
3a
00
06
f7
1d
01
16
1c
fc
0c
03
ca
fa
f2
08
ed
b6
d0
e0
25
18
0b
d9
ff
fc
e1
d9
06
0d
e7
f2
0c
0f
2a
ec
10
eb
db
08
f5
1c
04
ce
d7
ec
22
27
01
0c
f1
fe
d8
fd
f6
03
f9
e9
0d
ea
f3
08
d1
05
ce
fb
04
cd
ef
dc
39
01
07
e8
09
1d
e3
eb
ea
fd
05
f6
29
ea
e8
ef
0f
14
06
07
b0
07
fd
25
0a
c9
20
f4
f4
ce
ee
20
fd
e3
ed
e9
0a
fa
ec
fb
09
fe
16
14
f4
eb
fc
16
41
39
1b
06
dd
09
f0
f2
e7
ef
0d
e9
e4
d1
f5
de
e5
0f
13
e9
f9
01
23
d2
c5
0f
fe
eb
f5
f0
0d
ed
f3
09
ee
df
02
f5
f0
da
f1
07
06
0f
0f
05
fc
00
12
08
28
26
02
1e
0d
f5
ee
f1
f8
0e
17
f9
c7
de
13
0b
15
10
f2
14
df
04
fc
10
21
08
10
27
1a
39
e2
0c
01
f5
fa
18
1b
1d
06
2b
e4
0a
0e
34
12
06
23
22
24
31
ff
f8
08
28
23
0f
0c
06
15
13
04
0d
37
20
20
de
f5
ce
ce
ee
15
07
09
36
3f
02
f2
03
0c
22
14
09
11
04
0b
15
fc
05
0a
10
cb
ea
f2
03
04
15
fb
18
13
f9
15
fd
ff
fa
f1
1a
f2
f8
fd
f0
f3
e9
e7
d5
de
bb
0c
f4
ec
14
e9
31
f8
e9
18
ec
21
d2
eb
e3
e4
eb
b2
ea
11
bb
f4
fb
f4
f5
05
07
f8
fb
ff
00
fc
ff
07
0a
fa
f8
fd
04
00
03
01
fa
07
f9
05
07
05
fb
fa
e2
e1
db
0a
16
1d
0c
28
43
4c
f9
06
fc
01
fe
09
18
03
fe
fa
0e
0c
01
00
0e
e4
fb
fa
e1
d5
f4
eb
e3
12
30
08
04
d4
07
2f
05
ec
09
0d
0d
da
d3
00
fe
09
d7
e2
05
12
f2
f3
f6
0d
e5
00
0b
ef
04
0a
f8
ee
09
22
01
e0
f8
dc
de
dd
d6
e0
d8
02
05
f7
dc
0d
15
ed
be
f2
0f
e0
f4
11
f2
d6
f5
03
18
e3
eb
f2
e3
e2
22
14
db
c2
ca
ff
f5
f3
40
ef
de
d4
f2
2c
de
11
fe
e2
f9
e9
0e
1a
09
ef
e6
d2
c9
de
b8
e2
c6
f3
25
bc
ce
d5
0e
0c
d9
e3
ee
02
dc
e5
14
fd
e0
cd
d7
e5
dd
e9
ea
f8
fd
d2
c8
0a
f8
e7
4f
db
15
0a
e4
06
cd
f9
eb
d5
2c
e8
bc
b4
d1
d5
e5
d5
f8
02
f4
07
06
0f
fd
08
03
f5
f7
0a
fd
01
17
ee
f1
f6
ea
f7
ff
0c
08
07
f8
02
01
0b
f2
fb
fc
fd
ee
05
fc
f9
f0
fc
01
f1
f1
fd
ee
fd
05
fc
09
fd
08
f9
0b
05
fa
fc
f1
f6
f3
fa
00
09
ef
02
fb
fb
05
f3
f8
f5
ff
f4
04
ff
f6
eb
f2
f9
f9
ef
f2
f6
f5
02
0d
06
fc
fd
f5
f6
f8
fe
08
10
06
06
ff
05
06
fe
eb
f1
f7
01
01
f5
00
f8
f8
0a
fd
fc
fa
00
05
ef
f3
f1
12
f4
05
f9
f8
f7
03
ec
05
f0
f8
0c
f9
0a
f1
eb
09
f8
fe
ed
fd
0b
f3
09
f3
f9
f8
02
03
02
09
08
f9
fa
f9
01
01
f5
f8
f7
f8
fb
f4
07
03
0a
00
00
f7
02
03
f0
e9
f1
fb
07
f5
fd
fb
fd
fe
00
03
fd
fd
ef
fd
fd
f0
ed
06
fb
06
03
07
fd
f0
07
f8
f6
05
ff
f5
08
fc
0a
f9
08
f4
f5
07
05
f9
0c
08
ff
04
09
03
05
fe
03
f9
0a
0d
06
ed
f5
fe
f4
01
ff
03
05
ed
f0
f3
f7
f4
fc
06
07
fd
f7
f1
fc
04
fc
f5
03
fe
f5
01
ff
ec
e9
f2
f6
03
f2
fd
02
08
ed
f7
03
02
01
fd
fc
fe
f7
00
ff
f2
fe
f5
f1
f6
f8
f8
fc
06
fc
f7
f8
f8
f4
f9
f8
02
f5
f1
fe
f5
03
ea
f3
f7
01
06
f6
f4
01
07
f1
f9
fd
f4
02
01
ed
f3
07
f5
02
f8
ff
f0
f7
fa
f8
f1
ee
01
0e
e9
fa
fd
ec
f5
09
06
09
fb
ee
f7
00
ff
f6
f2
03
04
05
08
f2
f0
08
fe
f1
ed
fa
00
f6
f0
fa
f8
f1
fd
ef
f8
05
f5
08
01
fe
06
f3
fd
f1
03
fc
f4
06
f1
f7
ff
06
09
f8
fb
f1
f8
ee
f2
f1
01
f9
fa
f3
fa
f9
f8
fe
f7
f4
fe
ed
f0
fd
fb
fd
f8
f3
f8
fb
09
07
f5
fc
fc
0b
02
fa
08
f6
fb
f7
ff
ef
03
fe
f6
f2
09
01
e4
fb
01
1c
07
d9
eb
0d
1a
0f
1d
fd
18
2c
00
1e
03
f3
e6
ea
f3
d1
cc
e5
fa
fe
f5
df
ee
01
e4
fc
0b
f2
f8
d7
17
10
e9
e2
e1
f7
ff
f2
05
2c
1d
17
0d
20
fa
e5
d9
f2
f1
d7
ee
d6
09
0c
d0
07
17
fc
fb
d9
04
19
29
17
fe
f5
1c
04
dd
d7
a9
ac
d6
bf
1b
f4
bc
d2
df
15
12
e3
df
f6
fd
fc
f7
e2
0c
04
08
ee
e3
09
f5
db
e2
0d
2e
e1
d0
dc
ef
09
e8
f2
fa
12
38
f5
07
13
08
16
fd
05
1c
28
fc
f5
f4
f9
f3
06
c2
f1
ff
f8
fa
ff
fe
0a
1c
f0
ec
f9
fa
ed
13
f9
f3
fe
0a
11
13
13
db
ef
09
15
07
fa
e5
f9
08
f6
2d
e9
10
09
f2
16
fd
ee
f6
f2
2d
04
13
01
08
0c
02
09
fe
0b
fa
fb
04
fd
01
fd
fe
0a
f9
09
f7
02
fa
fe
f5
fd
f4
01
cb
ad
ca
db
09
e2
ac
d9
d6
0a
cd
d8
00
13
43
e4
de
ff
1c
0c
fc
f5
fe
f8
04
21
14
ba
f0
03
1b
34
18
a2
fa
fe
0b
15
e8
12
0a
09
fe
f6
1c
11
02
19
12
f6
03
dd
de
06
23
f8
0e
19
f1
16
f7
0e
1a
fb
fb
ff
0f
00
04
e9
26
09
22
1b
14
e6
08
24
14
06
da
fd
fa
19
24
03
f1
dd
20
26
3a
18
da
e0
0b
22
fe
e9
da
0b
e4
e8
e8
e8
f4
c9
ac
c9
05
0f
ef
ef
00
06
28
e5
03
03
2a
fa
c4
cf
ff
08
eb
06
11
07
eb
28
f0
f3
fe
fd
0a
06
07
16
09
fb
16
15
0c
e7
b6
17
f8
f8
df
f6
0e
12
fc
fb
08
e3
02
ef
12
ff
e1
ff
f5
23
fe
b6
06
0e
23
19
f1
34
1d
08
00
18
0d
c5
e3
1b
11
15
fb
e7
ea
e2
05
2c
04
fc
0e
2b
16
0a
f2
f9
fe
f9
0b
24
0a
ff
fc
16
ec
e4
e3
08
2a
0e
09
2a
3c
16
02
0f
14
f0
fd
00
db
cb
fb
00
1a
fd
e4
e7
ec
f0
07
09
0c
1c
23
0d
17
0f
26
38
c8
e7
06
ef
28
03
18
00
f2
d9
d9
f0
c9
f3
11
00
fc
07
0e
09
35
09
f4
01
02
d8
e3
f6
2f
1d
cf
d4
fd
f5
08
c4
d3
dc
ec
0f
05
0b
dc
d3
12
01
c7
b2
d8
2c
ee
e2
e4
fc
1c
10
0e
f3
f4
16
d5
e3
f4
f0
0b
1d
0e
08
09
ed
0b
f8
ec
1b
29
f2
06
18
fd
23
fd
fb
04
0b
02
ee
04
f2
f5
e9
ec
0b
ff
1e
0c
20
1f
2d
32
0e
fb
fa
e6
ff
0f
de
fc
00
07
02
06
f6
f5
00
0e
01
f4
cf
dd
d9
fb
00
ed
f0
0a
1b
2b
e0
f0
04
12
01
f6
11
19
0b
fc
fb
03
f8
ff
fb
fd
0a
07
f9
0d
01
f9
fa
08
05
f6
04
f6
f6
08
03
f8
f7
eb
d2
d9
0b
14
12
ff
0c
ec
03
f0
e6
dd
0c
37
eb
ea
03
0a
2b
1b
17
0d
1c
0d
07
00
ff
e9
06
14
e9
aa
bb
ec
e7
e3
c7
dc
0e
10
fe
02
fa
27
1f
17
0e
09
04
e4
ee
0a
f1
f5
05
f0
12
f4
00
0f
08
21
01
13
fa
ff
1b
25
08
18
0a
1d
21
0a
fb
18
1d
0a
e3
10
f0
14
1a
3c
15
0a
18
06
0c
34
31
ee
e7
fd
ee
f7
e1
04
07
fd
f2
f4
2a
32
07
ef
f6
1a
1c
31
f4
fe
17
e7
ca
0d
23
fd
01
f1
d4
ef
04
06
23
11
05
fc
0b
10
f5
00
fc
f1
09
fd
04
e1
e1
2e
1e
02
e5
db
0c
0e
f8
ee
06
11
26
00
fc
08
d9
09
e5
08
f1
f9
f2
ce
21
00
05
fa
fa
0e
e9
21
04
2c
f8
e9
fb
ee
e4
d9
f2
f7
03
e4
e1
f9
e8
09
11
34
34
f3
fa
18
07
1f
fe
10
f6
01
08
fd
fe
10
e5
e3
f8
fb
f2
c5
ff
02
11
da
f9
06
13
fd
fe
fc
fa
10
f8
fe
f6
21
f9
fc
0b
12
03
02
dd
ee
0e
e0
09
06
fd
fc
03
0c
02
f5
f8
f2
05
f7
e8
16
06
e9
15
30
2e
0f
18
fe
ff
df
05
30
fe
08
f1
d7
ff
0b
ed
f7
09
e0
fa
0a
19
30
07
33
2e
1f
02
11
10
f9
ff
16
04
0b
fe
eb
01
ec
e1
e3
fe
1d
00
fb
fd
34
30
dd
f9
f2
06
25
14
09
03
02
20
fd
14
13
00
fe
eb
f2
f3
00
16
00
f7
f6
ff
16
ee
05
1e
0f
03
02
fe
ef
01
ff
23
10
f5
ea
0c
0b
03
f5
f2
fc
03
0a
1c
08
1f
fc
f6
fe
ee
19
f2
f5
15
f6
05
16
e5
11
fe
ec
24
e9
e4
f1
fc
17
fd
f3
e6
01
fc
f4
fc
01
02
ff
fb
07
08
08
08
f7
f6
09
05
f7
04
fb
f7
00
fc
fe
03
07
fd
0c
00
e4
ef
e2
15
f9
f7
0f
08
23
1f
f1
f0
1e
ef
fb
e0
06
17
15
17
25
08
22
dd
23
47
e7
f5
f1
14
13
fc
10
ea
ea
f7
e3
f5
f9
ea
e8
f7
16
ff
f8
f0
f9
22
df
00
fd
fb
f4
e6
e6
1f
08
f0
06
ea
0e
0c
e5
f9
0c
0a
00
f9
f3
03
0e
01
ef
09
e4
f7
f0
d1
ee
f8
e8
bd
e2
f5
f8
f4
c9
31
10
fd
f4
ec
03
08
fe
f5
e3
06
fe
f3
ea
d2
e7
30
00
eb
0a
fd
40
0f
0d
f6
ec
fa
03
f0
f4
02
23
17
0f
03
04
f2
ef
f9
07
d4
02
f8
05
fe
e2
f7
ee
fb
fa
dd
14
fd
f1
fd
ea
11
f3
f7
f3
fd
06
d2
01
10
f5
fb
b8
ea
fd
fa
eb
d9
03
f9
f9
e2
d4
02
05
ff
1e
f3
d4
f1
fc
fc
0a
06
f8
03
f2
f1
fe
f1
e1
00
e7
e4
e6
ef
f9
f1
fa
09
fb
06
f8
08
0f
06
0c
02
fa
07
21
0a
03
f4
f2
04
fb
f7
07
0a
d8
06
ff
07
1a
ea
f9
19
14
1b
ea
d8
d7
ed
07
fa
24
02
ed
11
eb
33
2d
ff
fd
0f
2d
17
09
f5
d8
0d
e0
d3
dd
ea
db
ff
15
0a
cd
d1
fd
e7
00
ec
09
1b
1f
09
e9
0c
0c
05
e8
e9
29
28
e1
e5
e4
f6
ec
12
fc
a2
0f
fb
0c
01
df
1b
0e
1b
16
05
0e
03
00
11
ec
fe
ea
05
19
e6
e9
0f
20
0f
fc
ec
e8
fd
f2
18
12
03
04
f0
fc
3c
09
05
12
f2
14
f9
d6
db
d8
0b
fd
09
f2
08
ff
f4
e9
e6
fa
07
e5
fd
f8
f7
17
13
1c
fe
0e
fb
11
0b
00
ec
fe
1d
fb
12
18
0d
0c
f8
08
e9
10
f2
08
3a
02
26
d6
de
f8
43
04
e3
cf
ec
05
fa
03
fe
f6
f7
fa
fd
f6
fb
ff
0a
0a
fc
02
f9
0a
06
03
fe
06
07
04
fb
f8
00
eb
f5
f7
ec
dd
f9
e6
fe
f0
16
21
f5
24
24
12
10
f3
e9
cd
cc
0d
05
08
ec
de
07
02
06
19
dc
0b
0b
26
39
f8
06
24
1e
36
24
14
e2
f2
23
18
05
e3
f0
04
32
f7
ea
fc
13
1d
f7
03
e8
1d
fb
0e
02
0c
30
10
f5
08
10
13
07
09
04
fa
cd
0c
09
15
00
fb
07
10
ff
f1
d3
fc
fd
07
e2
fb
d0
e7
e0
fa
1e
e9
08
06
0e
fe
e8
19
fc
ee
cb
e6
e2
f2
09
e5
02
c3
df
eb
07
10
27
01
f0
d4
fc
2d
18
10
0e
1c
f9
31
06
17
17
fc
0d
ff
0b
08
00
0a
f2
19
0e
ff
00
e3
0c
09
30
0a
fd
17
1e
db
b2
dc
f5
23
11
fe
02
e6
14
09
04
11
eb
1b
d3
f5
0c
ee
09
f2
d5
eb
fb
07
e3
f7
0a
15
03
0a
e9
f5
fd
de
40
32
f1
17
12
20
0d
fe
f3
10
23
12
e6
f0
ef
df
01
25
12
ff
06
1d
03
e0
dc
49
14
ff
0d
f3
1f
23
03
0b
03
10
0a
03
fc
02
d7
da
d7
f4
ec
01
e9
03
c5
e0
e5
0b
2e
20
19
f5
06
10
ed
19
eb
13
05
1e
46
06
11
e6
df
de
f8
ff
fa
01
d0
df
11
0a
f9
e1
aa
de
fd
e7
01
10
fd
fd
ca
17
0e
f9
29
0d
d7
19
02
23
2c
ec
d5
fa
1b
03
f4
75
c0
e6
f1
0f
f1
22
2a
ff
e1
06
f5
08
14
1c
f3
f1
f9
f7
fd
d8
2f
f6
d7
d8
14
12
17
19
f1
2f
1a
fc
ee
08
e2
e1
0a
00
fd
0b
11
eb
d5
db
28
0b
19
02
e3
27
18
0a
fd
f1
f7
02
1b
0d
20
d5
dd
e6
37
28
d6
ef
d1
23
02
05
cc
d0
08
10
0d
08
01
1a
2a
16
12
fd
19
2c
fc
08
0c
fe
00
0a
09
f6
f6
09
03
0d
08
f8
07
f8
02
07
07
fa
f7
f7
ff
f5
f6
27
13
16
08
ff
15
0c
ff
f2
e4
dd
16
e1
e9
f1
03
05
05
e4
ea
20
13
00
f6
02
03
f0
17
30
2b
d4
ee
fa
24
0f
83
8b
e5
d0
f4
dd
e1
fd
fc
ee
09
03
1f
1e
07
e6
10
0e
1b
05
f8
f1
dc
ef
01
db
f3
20
e5
08
00
f0
14
fe
0d
f0
08
09
1c
12
e0
0b
25
2f
00
fc
22
ff
f5
e0
1b
14
f1
0f
f5
22
07
0b
10
33
18
03
f4
2b
1b
18
0b
1b
f4
d3
1a
f8
06
00
08
1a
2a
e8
f8
ff
08
21
0e
07
ef
65
06
e6
e0
f7
fc
f9
f3
09
29
e6
0b
06
ff
19
f5
ff
d0
f9
0a
1c
0b
fe
0f
2e
11
04
e7
00
36
fa
e2
e0
e9
14
06
e4
0f
ee
03
04
d3
01
ef
fa
12
f5
13
11
f6
24
f5
15
1b
fa
ca
f0
fe
09
05
a1
d2
db
b0
c1
bb
d9
1e
f1
02
ff
03
0f
1c
0b
02
ff
22
21
25
fa
f3
15
16
17
f4
fd
1a
ee
03
19
23
eb
1a
fd
2d
05
05
ef
f7
02
0b
0c
09
f8
15
f4
2b
13
26
db
ec
dd
e9
e8
eb
fa
0f
b8
a5
19
f2
dc
b8
71
0c
0d
fd
cd
8e
ce
d3
ef
fa
11
13
eb
ee
f3
10
c5
c3
d1
04
d7
e2
f2
e9
fa
e4
ee
d1
ed
23
d2
ef
3a
ea
04
f0
fc
26
10
03
ce
e2
d4
05
02
db
fc
d6
0e
26
1d
fb
f7
f6
19
1a
d9
d8
d6
eb
26
f2
f5
fa
fe
21
fd
d7
d1
d9
01
d2
cb
cf
08
e7
ea
f7
e5
ec
c6
01
07
07
17
25
11
0c
e8
f4
fc
41
22
f7
f7
eb
01
09
02
f4
ca
22
1c
14
29
f8
f9
0d
1c
f6
1d
08
0f
10
24
32
fe
1e
ed
ef
40
01
21
ef
f0
b3
00
11
c5
b3
d4
05
01
f2
ff
08
07
fa
02
f6
01
fc
fa
08
fc
09
f8
00
06
08
08
fb
fe
fb
07
fc
d5
cf
f7
e2
09
be
e5
de
ff
ee
b0
e2
ef
07
f6
c9
e2
fe
31
02
06
01
19
fe
06
f5
11
3c
46
1f
e2
02
1f
19
22
08
f8
1b
22
3b
f9
04
1c
0f
1e
25
18
f1
f1
09
0a
08
0e
f1
16
08
27
0d
26
29
f1
07
fd
05
0d
0a
0b
07
e6
f0
1c
16
2b
da
bb
ea
ee
07
fc
1e
05
04
17
e0
db
1e
36
14
27
2d
2c
29
f9
24
20
06
f4
19
15
0c
e3
cb
f5
ed
ea
03
fb
ff
ef
f0
ca
ff
14
fc
21
bd
ee
10
ff
02
dc
28
2b
17
12
da
08
13
08
fc
01
25
00
09
21
18
2c
0e
08
12
24
21
01
06
0c
01
0f
01
fa
14
e1
ef
fb
06
11
e8
e2
05
0e
fd
08
25
41
e5
12
03
1a
21
e7
f9
1f
2c
1a
fa
fa
1f
06
20
20
25
d7
d4
00
25
10
f9
c0
c7
db
cf
fe
e9
d3
a9
9c
24
17
0f
e0
b7
0f
15
ff
11
0b
00
fd
f4
ee
e9
3d
1b
f9
e7
fa
16
fb
14
10
f1
f8
ec
20
04
1c
0e
0e
16
01
fd
30
2a
38
fd
de
de
08
34
2f
0d
b0
b8
e2
e4
2d
fd
02
fc
e0
cd
2d
21
2f
06
fc
0b
2f
21
07
e3
0e
ea
d4
00
2f
cc
d1
cf
fb
ec
a4
b6
0a
01
f5
fb
ee
f6
03
fb
0e
2b
0a
ff
eb
0d
00
ec
12
2b
dd
c0
dc
e2
c5
fe
ed
df
ec
f6
23
27
2d
1a
13
11
fe
05
ea
fd
e2
fa
d4
ef
f0
d6
f8
02
d0
f5
b6
d0
fb
08
1f
00
06
f4
fa
fb
10
08
05
e6
ee
37
32
31
00
f6
dc
e1
14
fe
25
af
e3
20
f1
e9
f4
f6
e6
04
12
10
fe
cf
05
fa
15
00
06
1a
e1
01
21
f4
f3
11
12
00
e9
ea
fc
06
09
0a
f4
09
07
fc
f6
03
fd
fe
fb
fa
01
fc
08
f6
fc
0c
ed
f5
fe
f7
f9
08
26
1b
13
eb
e2
01
f9
e1
f8
1f
f1
e6
be
f4
17
ce
cb
cb
ca
c6
e6
f3
0f
f8
0f
f7
f0
0c
02
00
0c
03
19
22
10
f9
f0
da
f0
f0
fe
01
e0
dd
f7
2c
16
fb
06
24
0d
f3
0b
09
ff
ff
f3
11
12
f4
1a
12
e9
04
f2
e6
fe
06
0f
f4
f6
01
f7
e7
08
15
13
0f
08
09
fe
09
e9
04
0d
1c
1f
f0
e7
05
2d
2f
13
1a
d7
f3
e9
08
0a
de
1e
12
03
f4
f8
0c
f3
f7
13
13
2c
ff
0f
ec
fd
c8
f1
f5
f5
e3
99
c6
f6
fb
12
1c
04
12
ff
1d
f1
ff
fb
f9
f6
10
ff
f8
f5
e1
18
1e
f7
ed
d3
00
06
f1
02
e2
ff
f9
07
09
11
e2
30
fb
f4
0c
f8
fc
0d
0d
0b
d9
db
21
03
07
07
25
08
df
19
f5
0e
15
20
04
19
25
ff
f0
de
f1
11
0e
00
f6
d5
d8
ff
0b
1d
ef
02
04
ee
f1
0a
f2
e1
0a
0d
f7
ed
25
25
1b
cf
e2
f9
10
18
e0
ee
01
1d
fe
f1
0d
fa
f0
f2
16
13
03
0c
f6
fc
12
f1
fa
fd
20
0f
09
0e
09
fc
05
f3
fc
fd
fb
07
07
0e
f2
6f
42
26
eb
dd
32
18
28
f0
bf
16
22
1a
04
fe
f5
05
1e
1b
f7
ea
fb
15
02
0f
04
1f
33
d7
ad
1b
13
16
0b
d6
10
0e
0c
ff
f3
0f
12
08
03
f9
fa
07
de
be
07
28
31
05
f0
d4
28
05
08
f7
bc
05
23
2d
2e
0c
04
2c
1d
1b
18
f2
02
05
00
da
0b
f8
f2
fb
07
05
ed
0a
15
04
01
fa
04
14
10
fd
10
09
06
ea
f6
01
f7
ea
e7
f1
1d
1c
fe
14
cc
f2
07
da
fc
d4
ec
10
e0
21
ef
f7
17
06
d5
fe
fa
0e
0a
e3
03
0a
08
02
00
0c
06
ff
08
fe
12
0a
fb
0d
f9
0d
0c
ff
fb
fc
07
f7
f9
f4
fe
51
18
e5
b1
81
3e
18
13
09
ee
12
0f
13
24
1a
00
0a
19
0f
23
d7
de
d1
ef
f0
06
02
f7
19
a7
0b
11
e9
ce
d8
fd
2c
f7
de
d4
f4
01
f6
e1
eb
e5
20
02
d6
ee
0e
1e
2e
02
1b
de
f0
07
f6
f7
e8
0d
05
f9
0e
f4
e3
1a
f5
f3
05
07
00
12
f1
1e
00
d5
ca
cf
01
ee
08
26
27
f0
0c
09
df
11
d6
02
17
10
f1
d8
0a
0a
f8
03
1f
fa
fa
14
ec
4b
19
11
13
42
13
f9
09
0d
f3
01
e9
ea
22
17
19
f9
ef
00
07
e7
d7
f2
01
ed
ea
ee
03
16
34
d8
e5
0c
f9
27
cd
ea
15
10
2b
de
08
0b
fc
fa
21
06
e8
05
fe
d2
cc
ed
12
13
f6
c4
df
23
0d
52
0d
ca
f5
f9
2e
fe
01
16
11
22
0f
16
fb
f6
04
0f
1b
fc
fe
05
f8
0a
0b
12
00
fd
10
20
00
00
f3
08
e0
dc
f3
e7
12
f4
00
f4
08
1b
f3
0c
fb
03
ff
0e
16
fe
0e
fd
fe
f4
02
0b
12
12
01
15
1c
02
f5
db
e2
d9
08
27
11
fd
0e
2f
09
13
06
e7
0c
f7
ef
f3
ff
fc
e5
fb
17
2d
16
1a
02
23
fd
fc
e3
e2
22
0b
1f
21
e4
05
f7
0f
09
21
c6
f3
0a
13
2e
16
2d
0d
09
01
fd
fa
f8
07
0c
ea
f7
02
0a
15
10
05
00
ff
15
f2
0b
09
f8
20
1d
0d
f0
d8
e9
0c
14
12
f6
e9
1f
22
1d
16
08
d6
05
19
0c
24
e7
e0
ef
fb
12
e3
ed
ff
f7
e7
0e
0b
13
15
01
20
15
02
ff
11
fe
f4
00
00
f8
ec
04
1c
02
f8
db
09
e8
ea
24
ea
ec
f5
11
2f
e4
f3
d9
ee
0f
0d
06
ce
e4
d8
18
f5
c7
cb
f3
fe
f9
fd
fe
03
0a
0c
fa
f7
f9
03
03
f6
f3
fd
07
fb
f4
f5
f4
fe
ff
fc
03
09
36
f7
e0
e8
af
01
11
10
05
de
1b
22
09
12
17
f1
ef
f6
1a
31
02
0e
1d
2d
26
e5
1b
14
ff
ef
f3
e8
cf
19
26
f4
0c
f0
ff
15
e9
0b
0b
e2
1c
0a
f6
f6
f2
13
f4
16
0d
e1
eb
f4
f8
f1
f7
f7
f0
04
07
19
fd
ea
fb
20
15
e6
1a
07
09
f4
e3
04
da
f0
e2
ed
fc
04
0a
06
2f
08
2c
01
05
1e
f8
0c
0b
0d
1d
f0
f1
03
fa
1a
28
07
00
ee
e4
43
2a
19
0f
e6
0d
0f
0a
fd
fa
d2
e7
eb
0b
2d
11
01
19
19
09
fa
eb
ec
02
eb
f9
fa
0f
d8
1d
05
f4
e9
ea
f9
f5
02
fd
fe
f4
15
02
08
ed
ee
00
10
1f
03
e7
f8
c7
e0
13
fd
f4
e1
0e
fb
09
13
e7
0d
df
e7
21
f1
ef
ea
f0
e5
e8
ee
ed
e7
d4
d7
27
16
f8
e7
eb
0e
10
1b
f6
fa
16
13
e0
20
0e
09
04
d8
01
f9
fe
f8
f0
0c
f0
fb
fa
03
00
fc
f1
fb
f8
ff
f6
03
f9
06
01
fd
f3
f0
02
ff
08
fa
fa
05
fb
fc
fc
fe
fe
06
f2
fd
f1
fd
00
fd
02
ff
f0
03
fc
f7
02
f8
07
07
ff
02
fa
07
00
fd
fe
00
04
f4
02
fb
01
01
f8
05
ef
0a
05
f7
f6
0c
09
f4
07
f8
02
00
05
fd
f2
fe
ef
f5
02
f0
fc
f9
fd
ee
ff
f9
fe
f8
07
0c
f7
06
fa
f7
fd
07
f9
0a
fc
ef
ef
fc
f9
f2
03
f8
04
fa
f3
04
0a
0a
f2
06
f8
f5
fc
04
f0
f9
ef
fa
f6
f3
f4
02
04
f1
f3
fd
f5
fe
02
f3
f6
07
00
01
fc
f1
00
ff
fa
f6
05
f9
fa
fc
f9
fe
f5
00
fc
f5
ee
f9
fc
f6
f0
01
f3
f1
f1
07
fb
f2
fd
07
fb
07
0c
f9
03
0a
fc
f5
f8
f5
01
03
fd
02
fd
fa
08
f5
0a
02
f7
fc
08
f7
f8
f4
fe
ff
03
fb
01
fb
00
fe
fc
fa
f4
f6
fa
08
ff
00
0a
fb
01
f5
ef
f9
08
01
05
ef
f8
ef
02
fc
07
ef
f6
0c
f6
00
04
fc
0c
05
fe
f5
f4
01
f2
00
ff
ff
f8
fa
f0
fa
f6
f4
08
f7
ef
fe
fe
fb
f4
00
f4
f5
03
f4
fd
fb
ff
f5
00
f1
fe
f2
03
f2
fc
fc
f4
f5
f2
05
00
01
00
f6
f5
0c
f7
f4
01
fc
05
fb
f5
ff
09
00
0c
f8
05
05
f0
f7
f6
f9
04
02
02
f5
07
02
04
0b
ef
f0
07
f8
04
f6
01
06
f6
f9
fd
fc
04
ff
f1
f8
f3
f0
f3
fe
f2
f3
f1
06
00
06
04
f8
fa
fc
07
f8
ef
01
03
0b
f4
fe
f4
0d
fe
fd
f1
ff
fe
05
f7
05
fd
ff
01
f6
f7
07
f5
fc
0a
00
06
f7
f1
f4
f6
fd
00
02
f6
0a
05
06
01
02
fa
00
ff
f1
f4
f4
f0
ee
00
f8
fe
05
07
ea
f5
ed
f3
ec
f1
24
fa
07
02
13
f9
09
0c
fd
0e
0d
14
0a
19
1d
0c
12
15
e6
ff
10
1e
fc
e4
d9
fb
02
fe
e7
ee
13
e3
ef
f7
1f
11
f8
de
12
12
18
14
0f
14
2e
2b
fc
01
13
07
0d
ee
d1
c4
ee
04
fe
cb
a7
f8
16
14
16
d4
e8
fd
ed
44
1b
26
18
f7
cb
0a
06
2b
18
0a
df
fe
10
0a
f3
f0
f6
fd
fc
05
06
08
01
04
28
19
3e
0f
e1
de
16
fd
06
fd
ef
c4
14
12
0d
08
d4
f0
ec
fd
25
eb
f9
01
02
19
fe
e7
f2
09
fe
f6
f2
f7
11
11
29
05
07
02
00
ef
14
21
f5
e7
00
1d
10
ff
07
00
06
0a
f1
2e
ec
fe
f1
e3
0a
01
f4
ec
fc
19
27
f7
cb
d2
e7
27
0c
d1
bd
f6
07
06
0a
08
02
fb
0b
fc
09
00
06
02
ff
f4
fb
01
f9
0c
fd
ef
0c
03
0a
fb
f9
2e
13
ed
e9
9d
1f
05
0b
13
d9
c1
0a
0e
2f
1a
cc
e7
d9
02
2a
eb
fe
13
10
19
e9
1b
38
18
ef
d0
06
08
0e
2f
e5
04
fc
f2
fd
f8
f5
d4
e9
f9
1f
f8
07
fe
13
ea
23
27
1b
fe
fb
e8
2f
1b
0c
03
ea
0b
13
f2
03
dc
1f
f4
ef
24
14
18
e8
da
26
f4
cf
ae
be
f7
ff
08
de
01
00
2e
13
fb
52
eb
1e
15
24
29
05
00
fe
13
06
05
ee
de
cc
c3
23
0c
07
1a
03
ef
00
f9
13
14
df
e3
d9
14
17
ff
0b
02
0e
05
18
f3
d7
dd
d2
f6
ed
fa
ec
05
08
f2
01
ec
f3
17
03
fe
09
21
0d
06
e3
fc
fa
03
dd
19
20
14
e2
e6
ea
fe
09
19
05
00
ef
f0
21
12
05
f5
e9
28
fc
ff
fe
e5
da
05
18
2d
01
c8
e2
01
0c
f4
d9
ed
f9
07
1a
0c
0b
19
04
e9
16
11
3c
10
06
04
1d
0f
fb
e1
0f
09
07
0a
0f
03
22
18
0d
f0
17
0e
0d
f2
ec
1f
e0
f7
ee
0b
d4
e3
fd
13
09
25
23
0a
e3
e9
e5
02
12
00
06
dd
ff
0c
f1
1f
0c
26
08
20
2b
0a
01
04
2f
18
07
fd
18
04
cd
1b
fb
ea
c9
e3
d7
d6
e0
03
24
bb
df
1e
09
50
f6
f1
06
12
e2
0e
fa
0c
07
b8
fe
ea
ee
e5
e7
d0
e6
e8
02
17
04
f1
ff
02
32
e0
fb
18
1a
20
f2
02
07
0c
f4
0c
08
fd
0d
25
d1
01
fc
f8
09
d8
e0
05
07
1b
e0
f5
01
07
11
09
07
f5
15
03
18
0a
05
0a
eb
fd
f6
fc
fa
07
07
04
17
11
28
f8
dc
e5
13
40
e6
e5
f1
db
01
ed
f9
eb
f1
ec
06
1c
de
d7
ea
1d
00
c9
f4
fe
0b
fb
06
01
fb
06
fb
fc
0a
f4
0b
00
f6
f4
f4
f7
ff
07
09
f7
f6
02
07
05
07
fe
06
1c
01
ca
18
ec
f3
ed
d9
02
13
e7
01
39
d1
08
fa
0f
1b
f3
18
02
00
01
eb
f7
1c
f7
fe
04
01
e0
f1
09
e7
d7
cc
e3
fb
00
f5
fd
ff
09
24
0b
eb
09
0a
d6
12
0f
1b
01
07
08
2a
0c
00
04
16
22
fb
dd
06
05
18
10
fd
fc
03
20
19
04
13
21
25
e0
c6
18
f3
fb
eb
f2
07
0d
12
09
23
29
30
08
ea
0f
0a
db
f1
e6
05
f9
f7
00
e9
f8
24
f1
f8
13
07
4b
ec
07
07
13
c1
08
1d
06
01
f3
fe
04
eb
f3
16
13
e9
f5
e4
09
08
f8
f5
06
f1
f3
fe
f1
ec
f6
24
06
e6
e4
fb
f9
e4
d5
00
f8
b7
ff
07
0b
d1
db
f2
e3
0c
be
d6
ec
03
fd
e3
d4
09
10
ff
23
1c
2f
00
e8
dc
f0
11
0d
21
fa
fc
f9
e2
f1
ea
f3
ea
f1
fc
e3
f8
16
1a
f4
16
13
08
fa
0f
fd
ff
f3
f2
fd
ee
e2
f5
07
16
ea
fb
0f
fa
22
15
24
0c
00
0a
0a
f1
e0
c3
e9
16
09
ee
f7
e5
f5
17
e3
f9
20
e2
f2
e6
15
21
e8
fe
e5
05
2b
99
eb
1d
f9
ed
24
04
fe
e6
f2
1b
17
04
e8
03
1d
ee
bb
f0
19
15
f3
df
e1
f8
14
f0
fd
1e
0b
0a
ff
02
fe
39
f8
10
02
fb
33
fe
f2
0e
e1
19
f6
f5
fa
ef
dc
fb
fb
ec
f8
2c
08
13
fd
dd
f0
05
0b
02
06
18
0a
e6
ad
08
1d
dd
e2
f0
f2
19
18
2c
45
27
39
10
10
f1
f7
fc
ed
fe
ec
26
ff
ff
07
09
09
26
26
16
14
1e
23
f3
d8
f3
ea
f3
0d
05
1e
ff
fa
05
05
20
fa
eb
e1
f0
21
e0
ec
f4
32
2e
fc
e0
02
2b
21
18
09
f8
f7
f9
0a
0b
09
fe
0c
09
ff
02
01
f6
06
fe
05
0c
f8
fb
14
0c
0c
ff
f5
0b
0f
1e
1a
1d
23
06
fd
e3
e1
05
0b
f8
b0
db
24
fc
f4
eb
07
37
e2
e4
f0
18
19
0c
13
21
e9
05
00
e6
0c
e7
00
00
de
ff
d8
f2
00
f9
fa
db
e7
02
1c
07
00
ec
15
00
1a
ec
c7
23
ef
14
f7
da
f0
24
d8
db
fd
16
12
ee
e4
02
d3
f4
ea
0c
0b
10
ef
fb
04
36
07
fa
11
23
53
02
fe
15
16
1d
1e
0d
07
e8
0d
1a
17
0a
e7
ea
c0
19
14
38
49
1c
1a
0e
11
15
51
1a
ec
12
e6
1e
fe
01
15
f7
ed
d7
02
11
0c
17
0b
1a
07
14
1b
15
fe
15
09
05
fe
fa
fc
f2
d6
08
1e
0c
ef
ec
21
16
12
d5
53
42
1d
17
e6
0f
51
21
09
ec
13
18
f3
07
f6
e4
17
f0
12
04
cc
e6
14
1f
fa
10
10
0c
fa
d6
fe
fa
e6
e0
e6
e1
c5
b8
cd
ff
ea
10
ea
f9
fd
c4
07
03
f1
19
f3
06
fd
0a
fa
fe
01
fd
00
f8
05
fc
0a
fc
ff
f4
fa
f3
ff
fc
f1
f4
ff
07
fc
03
f5
09
00
fe
ff
fe
00
07
fe
f8
f6
fa
03
fa
f4
fc
f4
f9
08
fd
06
09
01
fb
02
f7
05
04
07
fc
00
fb
f5
f9
fa
01
01
f7
f8
f5
08
f1
f9
fa
f8
08
ff
f5
fa
04
08
f6
07
0b
01
fa
04
f4
fe
0a
07
02
0c
f3
f7
01
fb
fb
01
f5
0b
f8
fb
f5
08
fc
f8
05
f3
f7
fe
08
02
f3
f5
f4
02
f3
fc
06
f9
ff
ff
00
06
fb
f7
f7
f9
00
05
06
f4
fd
fe
02
04
06
f5
08
f6
00
fd
f8
02
09
09
f8
03
07
fb
06
f4
07
f4
02
f2
ff
01
f4
02
f4
f5
08
f3
f1
00
f2
0a
fe
f2
01
fa
fd
f5
00
05
07
f5
0b
06
03
f6
f8
04
fa
fb
00
07
f5
0b
f7
f4
f6
06
02
fc
09
02
fd
f6
06
03
fa
fc
f9
0a
07
09
09
07
f4
f2
01
fc
04
f4
08
fe
f9
09
f5
fe
0a
09
f5
07
fb
08
08
f9
0a
04
07
fd
fd
f2
fa
fd
f5
08
03
fb
0c
01
f9
fc
fa
fd
fa
01
01
fc
06
00
f7
f8
fe
fa
f4
07
09
f8
f2
0b
fd
f2
fd
00
0a
f1
f8
fb
02
04
09
fd
f2
fe
06
fe
07
fa
03
f9
05
f1
08
03
05
fc
f4
00
f5
00
02
f4
ff
f7
f5
ff
f2
f2
0b
f9
09
f4
f1
03
02
f7
ff
f5
fe
00
06
fa
f1
04
f4
03
07
f5
0a
fa
f9
fa
f9
09
f3
f2
f8
fc
fd
f6
02
fc
fa
f9
04
06
05
fc
fa
f4
fa
f3
01
0b
f9
f8
f2
0a
f5
07
f4
f8
fd
03
f8
f2
02
f5
f3
f9
00
f4
f3
f1
fc
ff
07
f7
f4
09
fc
f7
09
fb
f7
fa
09
f9
08
07
08
01
fa
0a
06
f4
f4
fd
fa
00
fe
06
f6
f6
f1
04
03
fe
fe
0a
08
fb
0a
01
fb
15
09
38
07
ee
e5
1c
08
d2
e5
e0
e8
05
0d
e7
10
f9
18
05
0c
02
ed
f8
01
e1
d1
db
fd
f2
0c
ed
d3
ee
05
40
27
15
fe
ec
35
0f
e4
de
01
0b
fb
fd
dc
d3
fe
f7
f8
fc
15
22
01
f2
ff
fa
37
40
22
08
e8
32
40
22
f7
af
05
00
07
c1
b6
f3
fd
ed
be
0b
1e
0e
dd
ec
11
30
2b
17
fb
db
14
20
0d
15
b0
0d
14
18
0d
eb
0a
19
06
0e
ea
fe
fb
00
fd
e8
2b
17
ff
f8
de
18
14
0a
0b
e3
21
1c
12
0c
12
f1
f9
e5
eb
f0
ca
e7
cb
f2
f6
0f
fd
dd
18
05
23
20
ff
0f
07
f6
f5
26
19
f2
fb
fb
13
ea
b5
04
fa
04
f8
fc
f4
d6
ff
0e
31
ff
ed
fc
36
12
05
f7
04
04
fb
f3
fe
02
f7
05
0b
fe
01
f4
08
00
03
06
08
fc
09
0c
03
07
0b
05
fb
ec
d9
cd
13
f9
04
03
17
2a
16
1f
02
e9
22
22
16
09
bc
15
0b
04
ed
e1
e7
f3
e5
fc
b7
0f
f5
ed
de
df
30
28
12
13
05
0b
10
03
29
fc
ea
fc
fe
01
fa
1e
03
e6
f5
27
ff
f1
fa
02
f6
f8
fb
07
10
19
fe
f5
19
06
0e
fe
0e
0a
07
07
0a
02
10
ff
ee
0f
08
03
09
d0
f5
0f
25
fa
d6
db
da
f2
e5
d8
00
1f
fb
12
26
37
1f
f7
05
f7
f6
1f
04
05
24
d5
e6
e2
09
ff
2b
05
eb
02
f9
19
09
08
14
05
d5
dd
08
15
17
f3
f1
f7
21
f8
fe
f2
19
0c
f5
ff
f1
0e
ef
f9
ef
fa
0e
0a
1e
f4
f6
dd
f3
14
f3
e0
b5
18
16
ff
02
cc
18
0b
07
00
e5
10
03
d9
df
de
fc
0e
17
f7
fd
eb
0f
06
ea
f3
07
fe
35
1c
f9
fe
10
32
02
e6
e8
fc
04
05
f0
ed
00
eb
17
10
f0
e2
11
1b
0e
1c
f2
f8
fd
01
0d
11
f7
15
0a
0c
de
0b
15
ee
d1
d3
e7
fe
10
2a
1f
d5
f6
06
0e
fd
f2
d2
bb
f5
eb
05
ea
b0
ab
f3
fc
e8
cf
e9
f9
0c
d6
f6
29
09
c6
ef
f3
0f
27
ca
fe
fd
e9
de
f8
15
fe
c9
67
21
1e
df
e4
b6
cd
01
fa
f6
1f
d7
05
f3
1b
3a
fc
e4
f7
f7
e4
0a
09
09
dd
d8
10
0e
07
28
29
fb
f0
0d
1c
d5
cc
f4
09
17
10
d6
04
13
ef
df
f9
0f
f6
fc
d7
08
fa
f8
05
e6
02
0f
18
1d
13
f9
e1
df
02
16
c6
02
f1
f2
f2
ed
ff
d6
c6
cf
23
06
b4
b3
bd
fd
04
fa
09
cf
0f
08
07
eb
ed
ff
f9
f5
08
f3
f1
dd
0c
f7
1b
e6
f5
2a
f4
14
fb
01
04
f8
0e
02
06
f6
fe
0e
0b
fc
0a
0a
04
07
f6
f4
fb
f9
fb
02
00
00
fc
08
f3
04
fa
14
df
fb
05
01
12
f9
17
27
f8
d3
09
1c
0b
1d
f2
17
00
ec
f2
f9
e5
fc
ee
11
f1
07
0e
19
11
d2
ff
f8
1e
11
f4
f8
ed
13
36
3a
c7
e1
09
27
28
fe
f2
05
1b
09
ff
f3
3b
05
19
01
fa
f9
20
f9
22
d5
e1
f3
f3
f5
e3
bd
d6
04
f3
0e
1c
18
e6
05
04
03
00
a5
f4
fc
15
f3
06
ed
06
38
1e
1a
0e
35
2c
13
13
21
12
e8
f3
c8
d0
ec
03
31
f8
d4
0d
2b
1e
01
01
0b
01
38
25
15
1c
00
f0
d7
d8
ba
e0
cc
de
07
e7
f2
09
e1
00
09
16
0c
17
02
01
1d
1c
1b
08
04
0a
13
f5
d7
d1
fb
07
f8
08
d9
d9
0a
10
49
ee
da
05
f5
34
1e
d8
01
0e
08
f7
f7
ff
ff
d1
f8
23
0c
05
f6
05
2a
2d
14
04
fd
e7
f5
f1
18
fc
db
d0
f9
ec
ce
c3
af
e5
e7
f2
00
05
16
04
06
fd
e5
ec
f2
fc
00
f0
ea
25
26
13
1e
0b
1d
15
06
e9
e5
d7
f8
fc
f3
c8
07
02
f0
e1
d5
fc
fd
2d
10
19
fe
14
1a
27
34
f1
f3
ee
fb
0a
f9
19
09
04
ab
2d
16
25
fc
a6
4a
12
f3
fe
e7
04
00
17
06
fb
e8
fa
fb
ed
18
21
2e
30
01
a2
25
00
1f
1a
c5
fb
ff
13
13
f4
df
01
03
c9
0d
f1
0d
0f
f8
1e
00
fd
fd
f2
f6
13
18
0f
06
e7
32
24
f1
06
e3
e9
15
1b
fe
05
04
0e
20
19
17
d1
de
08
03
ff
08
00
f1
e9
e5
27
0d
18
fa
0c
2e
14
15
1d
0b
25
0c
05
ee
08
f6
da
01
22
31
d4
c4
f9
06
05
d5
da
17
06
cd
00
0b
fe
1d
ed
28
ed
f6
0b
0b
f8
f6
02
f8
00
03
fa
0c
08
06
f5
0a
f7
f9
f7
04
03
ff
06
11
fe
f4
f8
0a
0b
18
12
03
05
8f
43
21
13
fa
e6
2d
14
ed
e7
ee
f7
04
0b
e8
2d
05
02
0b
20
1a
f6
22
30
08
f2
f8
e9
e8
10
dc
d5
da
dc
c4
d2
f1
fa
1a
d5
f6
f8
07
07
05
20
e2
24
17
0c
07
fc
f1
fe
03
e5
e1
0f
08
f5
fd
e8
ee
13
03
01
00
f0
0a
1c
0b
f1
f4
0b
e9
03
ed
11
0f
fc
10
0c
19
22
00
e0
04
11
11
f8
16
0e
06
f9
f1
cc
03
02
0a
f1
e0
59
30
17
06
16
54
1a
e6
00
e4
ef
f4
07
fd
17
23
13
13
fa
15
ff
fe
fc
ff
0c
e8
fc
fd
02
0b
e9
dc
e9
fe
e8
e3
eb
05
fd
f1
16
fc
f2
00
d7
10
02
12
16
fe
c1
c8
18
e8
ff
c2
ce
03
02
18
fc
df
d1
fd
fc
2f
e5
e0
06
fa
ff
fa
12
17
ec
e7
d4
e7
f6
d6
da
de
11
ee
f2
f0
f9
17
4b
27
0f
f7
0e
0f
20
15
f5
07
09
04
17
fe
0d
14
09
ef
f4
03
f7
1b
f5
d6
ef
fd
04
d0
dd
d7
fb
df
09
31
2d
20
12
11
f5
ea
ef
04
08
11
0a
fb
f1
f8
f7
07
0a
ee
db
f2
fc
17
1e
0d
38
30
2b
30
f1
18
0c
e5
e8
19
07
0e
15
1c
d8
09
18
ff
0a
19
2b
28
1a
13
03
0a
30
19
0f
f9
ff
f3
f1
e7
1f
f9
1c
2a
36
0e
e7
f5
fd
2e
01
f7
00
ed
06
06
f2
fd
f7
fd
06
fd
f4
fc
28
16
1e
1c
18
38
0e
13
0e
0d
fd
10
09
03
00
f2
19
14
15
0a
0d
16
0d
20
07
14
e3
eb
fa
da
03
de
e2
06
ec
da
ce
c7
d1
e4
f1
03
06
ee
e3
ee
05
ff
f5
eb
15
e9
fa
f7
e2
ff
ee
ef
ff
ff
0d
d1
f9
12
04
04
ff
f8
f7
0d
f7
0b
01
00
f9
06
fa
02
09
fe
06
06
0b
02
02
0e
fb
f5
02
f5
01
21
04
f4
d7
0b
08
20
09
0a
29
08
0e
27
2e
26
10
07
1a
14
16
fc
f0
ec
e6
e4
1b
e8
be
e5
e5
12
ff
0f
07
2c
17
0f
fd
09
12
10
fc
08
0c
08
de
fb
fc
e5
04
f5
0b
f6
07
e9
01
fd
08
fe
de
02
f7
f4
13
09
ed
eb
04
ec
f6
dc
e1
0a
f7
f6
11
f9
e4
0f
1b
05
f9
03
f3
e3
ed
ff
ec
cb
23
f6
d8
f7
02
05
d8
ea
ee
e4
09
02
16
eb
da
ef
fa
01
e1
10
06
23
1d
13
25
1f
0c
fc
e2
19
fe
1b
02
f6
e5
d5
f0
cf
e0
ec
c7
08
f9
01
06
d2
fe
00
fd
f5
f7
fb
05
09
fc
13
ed
1b
02
e2
fe
07
ea
f9
e5
f5
03
f3
c2
01
fb
f6
cd
f4
15
f4
ee
f7
f6
05
da
f6
cd
ee
0d
e6
03
0c
08
e7
f2
18
0c
12
0f
08
dd
f8
f1
eb
00
fb
07
09
f8
f5
c1
d6
e1
e1
d3
e4
08
0a
06
0c
f1
0c
e0
f2
03
00
fd
07
f1
ce
03
15
08
fa
e8
08
07
02
10
04
df
e3
eb
f8
04
0f
0f
0d
ea
fc
34
33
22
18
ff
fc
ec
10
23
13
f3
e5
ec
df
d3
d2
08
da
f6
18
ca
0e
08
1c
0a
f7
03
20
16
29
fc
e3
db
e6
25
f0
f5
05
ee
ec
1e
de
dc
05
14
1c
28
fd
f7
23
11
08
ef
12
40
fe
e8
e1
fc
01
f6
db
fc
d9
c5
07
f6
fb
12
05
e8
f8
0d
15
21
1a
07
f6
ec
08
07
e4
f5
e0
e0
09
0a
f5
f1
07
db
e7
f2
f9
fa
05
fc
0c
e0
f6
26
20
2e
fc
e6
07
ff
15
f1
0f
d5
e5
f7
07
25
f5
06
c6
f4
e7
0d
09
df
01
ec
1c
f5
11
02
dc
1f
f0
00
f0
ef
f2
ec
ed
fa
e8
07
f6
06
f2
f7
fe
03
01
00
03
f5
07
f3
f8
0a
00
07
f6
08
f9
fd
f8
f5
09
fe
f8
ef
0f
18
43
c0
03
17
1c
43
0a
fc
ef
f0
0c
fd
e7
da
cc
c7
fc
13
0f
f7
f0
19
3f
0b
e4
05
10
f6
e1
13
13
03
df
f4
ff
1e
ff
df
0a
d7
e4
0d
ff
f7
01
f4
f3
0d
f7
06
17
f2
f4
f0
13
f8
fd
1e
04
fa
01
ee
40
fc
0c
f4
02
0a
13
20
fc
db
f8
fa
13
20
06
fb
e7
ea
17
0a
f4
f9
f1
c0
00
0e
00
d7
c4
12
f8
ea
e0
f9
f8
0e
27
fa
21
f3
dd
fe
ee
06
05
00
0f
ec
f8
0d
f6
f6
dd
f4
fa
f4
f9
05
f7
16
28
f2
03
0e
f6
02
e0
01
fb
0f
fc
ea
f8
e4
0c
01
f9
f1
d1
11
0b
03
0f
f5
f6
18
18
d8
fd
17
1a
0f
ea
f4
01
20
02
ff
f7
da
f9
fa
0d
09
dd
eb
f9
0f
14
ea
04
fa
fd
01
08
f8
d5
f2
ff
23
13
fe
03
ef
0d
0f
1c
23
0b
05
fa
04
14
11
01
0c
14
f8
f5
f6
08
07
f3
03
ed
f7
f6
f6
f0
f3
d8
03
03
f4
13
02
0a
06
1c
e8
ef
03
fd
f0
c9
d5
d2
fd
f5
08
d3
e6
f8
11
30
1c
01
1f
ec
ff
17
15
0a
00
08
0a
12
0e
e5
20
0b
fd
cc
e6
3f
f4
f6
d7
d7
26
00
fb
f0
1d
f3
0e
f3
04
fa
18
10
fe
f4
ec
0c
e6
ec
e5
04
12
08
f6
e5
d9
0e
22
eb
1b
0e
f4
05
0c
ee
d9
22
22
fb
f7
d4
18
23
13
0d
d8
f4
fa
fa
fd
df
0b
04
dd
ec
1a
00
04
08
f2
e6
fb
0c
19
14
06
f0
eb
ec
fd
e4
07
fd
d6
fb
00
16
fe
fd
0b
fa
0f
15
11
1d
26
e9
09
10
05
ed
d9
fa
0b
00
f7
e4
e5
fb
d0
11
f8
f3
14
f7
09
21
05
fb
02
fd
fe
f5
09
f5
fc
0e
0c
f9
05
f9
fa
03
02
0a
02
09
fe
0a
f8
0c
fb
0a
06
08
03
39
04
f6
ef
ec
27
0b
f1
e0
e7
10
17
03
e5
01
0c
ff
e2
01
f4
e8
f0
ed
f1
f4
09
01
16
ec
e5
fe
15
fa
08
f9
15
24
fc
10
f6
ec
f3
ff
f1
f0
f7
05
f9
f6
e6
07
20
0b
f3
f2
e5
07
f9
fe
e3
e8
d7
04
ef
10
d1
e7
0b
f7
11
ee
1c
13
28
f0
03
fa
0b
03
f1
fa
08
02
f9
e9
ff
0c
22
ff
0a
f3
e5
02
fa
15
fa
07
03
02
28
28
20
07
f7
13
4c
1f
fc
0f
16
26
e3
09
ef
e8
12
e1
d2
03
e6
0f
ea
df
eb
e9
ee
fd
0f
fe
01
dc
04
0c
ff
f4
f9
07
f1
f9
dc
ea
ec
0c
01
05
fb
fe
05
f8
1d
f9
04
0f
0b
f6
dd
9c
dd
0b
08
d2
c0
f4
fe
04
ec
de
f4
1c
e8
e5
f7
d8
16
fe
0f
02
06
02
ef
e4
d3
07
0a
04
eb
da
fd
f7
10
ea
f2
05
04
06
0e
04
1a
0e
01
ee
ef
00
f4
fb
ee
f3
fa
f4
f5
f4
fb
06
04
ef
fd
ed
01
ff
fe
0a
07
08
06
ed
f3
f7
00
01
f6
07
f7
f0
f0
f3
f1
00
0c
04
00
f8
02
00
0b
07
f6
02
f0
f0
fe
01
04
05
f7
07
ed
06
fa
01
f7
06
f1
02
02
f7
0b
f8
00
f4
f6
f6
01
ee
fc
ff
11
f8
04
09
f4
0b
05
ff
0f
0f
ff
f0
fc
ff
09
0e
f2
ef
02
fd
f2
07
f7
fc
00
0f
fe
03
f9
10
f3
01
ff
f9
0b
f4
f5
f3
f4
ff
fd
fb
fd
fc
f8
fc
f9
09
04
0d
ea
ef
f6
03
06
f1
fd
f4
f6
f7
fa
f4
fa
06
eb
ef
03
fb
03
f4
05
f3
07
fd
f5
ee
f5
fe
05
f3
01
f2
fb
fe
f9
fe
07
ec
e5
f2
f7
06
05
f3
fe
04
06
06
f9
00
01
ff
f5
05
fb
06
ff
fd
fd
08
09
ff
fb
f8
f8
0c
f5
01
03
f9
f7
fa
f7
0a
fd
f9
fb
09
0b
fe
0e
fb
0a
0b
fd
00
f1
f9
f8
fb
f1
ed
f2
ed
f3
ff
f7
00
09
0d
0d
02
07
ff
fe
0e
f5
fc
f4
f9
f5
01
f2
ff
08
05
f2
fc
ff
02
f3
f6
02
f4
f1
f4
f5
f4
f3
05
ff
f8
f2
f4
f2
f5
f3
f5
ee
fa
fb
ff
09
f0
00
f1
fa
fd
fe
04
f9
01
f5
fb
f8
fa
08
00
02
00
f6
04
06
04
f1
fc
08
02
08
00
06
14
05
f7
ef
00
04
06
06
03
f6
fe
fa
05
f4
f8
f9
03
f8
f7
03
02
ff
f6
f4
e5
f8
01
ff
f5
ed
fb
f7
05
f9
f6
fd
fb
f2
ec
ed
03
f9
ec
01
00
f8
fd
ef
f5
f6
04
f7
01
f1
00
f4
f1
f9
04
fc
fe
f7
f0
01
fb
06
0d
ff
fc
06
f6
f4
0c
f3
f7
fa
ff
ff
fb
f6
fb
ed
0c
f5
fd
ff
02
f4
03
fb
f8
ed
f9
e8
fd
fb
07
f3
f2
fd
fb
f3
f5
f7
04
1d
16
f4
e7
fe
f2
ec
24
0b
e9
08
23
0e
e4
30
12
02
02
dc
03
f5
e9
dd
06
bd
c8
ff
0c
0e
fb
0f
1a
ea
c0
f9
03
e9
07
f5
19
06
09
fa
ed
23
0d
e5
13
23
ca
e3
fb
36
18
03
1b
20
04
e4
25
1a
21
f1
ef
f4
ef
ed
03
f2
ea
16
28
0e
38
e0
e8
2b
28
e2
e5
1f
2a
05
bd
1c
19
08
d6
d1
ea
00
ed
e6
fb
f2
01
01
e3
e7
cf
27
42
51
2b
de
0d
1d
fc
dc
0a
05
0d
0c
ca
ea
15
15
e9
e4
f0
fc
09
fb
ce
fe
03
1c
10
f3
05
09
ea
13
02
0d
22
17
f3
c3
31
10
fb
f7
fd
0d
0e
ec
09
2c
ed
ef
f4
14
32
fe
f9
dd
e8
f0
e2
13
00
e1
e2
ea
29
fd
da
02
eb
1b
fa
f0
0f
06
fd
f8
0c
09
fa
04
0c
03
02
09
fc
04
0c
07
fe
02
fe
f7
ef
08
06
f7
05
fc
06
16
34
0e
b6
fb
ee
08
f6
df
02
fd
f7
1f
19
ca
01
07
e3
d9
15
10
20
fa
e9
d0
e2
1a
ef
f1
ef
11
04
09
cf
f7
07
e2
d0
f4
e8
09
ee
ff
e8
09
0e
12
f5
f8
e3
ee
00
0e
37
f8
eb
1f
20
16
11
19
00
0c
f7
12
fd
16
1c
0e
0a
d9
28
2f
05
14
28
39
0c
c0
08
f7
e9
08
e7
dd
f1
35
1d
04
1b
31
28
ea
cc
f8
f6
cb
d4
c4
10
21
19
20
d6
fd
fa
0a
00
15
44
f1
fe
00
1d
e4
f6
06
e2
d6
2b
fc
ee
ea
e4
f1
10
eb
d4
00
fa
ed
ec
0d
08
eb
f5
14
0d
f5
01
18
28
f1
ea
07
02
f1
f3
e9
d9
a3
d4
fa
f7
e1
e1
ba
d2
f2
28
f3
dd
f7
0b
33
ec
ce
36
0c
0d
19
e8
14
16
b4
d8
16
18
10
fd
ef
ec
ee
09
f7
09
f8
fa
dd
00
fc
1a
04
0b
2a
fa
f5
0c
fb
08
08
23
00
01
fa
15
04
f6
07
fb
0d
df
0d
03
00
05
f9
e6
1e
30
24
06
07
ff
f9
0c
1a
1a
09
be
e3
03
e3
ec
df
b5
d0
e0
02
ec
f0
d4
ef
12
fc
07
0b
0f
0e
f8
d8
f9
1b
f6
df
ff
0c
05
e1
e6
ca
c5
d3
da
2c
eb
e5
f0
cf
fb
ca
d2
d0
da
00
03
18
17
1c
da
d6
0f
f6
e5
08
ee
00
e2
05
1b
02
f0
e2
e0
f2
da
04
ee
d4
23
16
25
06
f9
dd
ec
1d
26
fd
fe
e0
d3
eb
c3
cd
c0
a8
ff
ed
bc
c3
e3
ef
ec
0b
0a
1a
26
0a
fc
01
0d
f5
01
08
c4
c0
bc
f4
fd
d2
ec
ef
fe
19
00
17
07
12
36
1d
16
16
eb
0c
15
fc
19
16
d7
00
e8
e0
03
df
f0
e3
0f
fb
09
1d
ea
09
0b
00
06
04
f8
01
00
f6
0a
0e
f9
04
fd
ff
fc
02
07
00
08
fa
09
ff
06
02
00
08
fa
07
29
e7
f0
e4
f4
f4
f6
e5
0e
02
cf
ea
dd
1f
f5
c1
d7
e0
b8
9a
c8
e7
f9
0c
f7
12
f2
16
f8
ed
13
fe
28
0e
00
15
fa
0f
f0
ea
f6
eb
f9
1b
0c
fa
fc
ee
08
1a
09
12
fa
09
1d
e8
13
05
e8
f6
f5
d6
ff
fa
fa
de
df
0a
e3
f6
e5
ed
fb
2b
ec
eb
df
1e
05
23
0a
d7
f8
20
35
00
09
f7
0c
f2
1c
08
0a
0d
0d
1a
e7
03
b6
f1
e3
cd
10
e7
16
11
f2
04
2f
fa
14
d9
10
17
f0
f6
f7
f0
f1
1b
f3
ee
03
0e
00
02
06
f8
18
45
fa
0b
0a
0b
20
ea
0e
eb
06
f2
0a
14
ef
fa
1c
15
06
0a
1b
14
12
1b
05
ef
e0
20
08
fe
1b
24
48
eb
14
0f
14
02
ee
05
02
0f
06
fb
1c
1a
28
2a
1c
0e
da
dd
10
07
16
f8
af
d1
dd
e4
ba
c0
cb
03
f9
fa
08
29
26
1a
f3
f6
f9
f1
05
06
f6
06
07
07
00
fd
f3
f7
f4
f7
fb
fe
fc
0a
09
fd
f8
04
fe
ff
f8
01
ec
04
f9
f9
0c
02
03
00
fb
ee
fc
f9
05
0b
fe
fa
01
f0
fb
00
0b
f6
00
f8
f8
fc
f4
ee
f6
01
01
ed
fc
02
fc
04
f6
ff
0b
06
fc
f3
f2
fd
04
02
f2
00
fd
04
0a
fc
0d
02
f5
ed
f8
07
ed
ef
f7
fb
ff
fa
f1
04
04
fb
03
01
fd
ff
fe
05
f5
03
fa
f3
f6
f9
fb
ef
01
ef
fd
01
05
f9
fe
fa
f3
05
f1
f3
fb
f4
06
04
04
fc
04
02
07
f8
07
07
f3
f5
fb
f4
f9
f4
fa
03
fc
f7
fa
f7
00
f8
f5
fa
f3
0b
f3
00
03
04
04
0b
0a
02
fe
08
f7
f5
f6
f5
02
fe
fd
f1
0b
fd
fe
01
04
f6
f9
03
f9
05
07
0a
f9
00
07
ff
f4
fb
00
fd
02
00
05
ff
fb
03
04
01
ff
08
f8
02
08
f9
0a
fe
ff
f0
f1
fa
08
f9
f8
fa
09
fe
f8
ff
02
fb
fe
f7
ee
fd
06
fc
07
08
fc
0b
03
fb
fa
fe
f5
f2
fc
fe
fa
f6
f4
fb
f3
f1
03
07
05
07
00
07
f9
fe
f9
01
f3
07
f9
ed
f4
08
f6
01
f1
f7
03
05
fb
05
f1
f7
f8
02
00
08
f9
00
f8
04
ff
f1
f8
f2
f4
f6
f7
f2
f9
fc
ef
fc
05
ed
ec
fd
f4
07
f8
f7
f4
f7
f9
f5
fe
01
04
f5
f4
09
0a
f3
00
f6
00
fc
f5
ff
05
fc
00
f7
07
fb
fc
09
08
02
0a
fe
08
f9
02
fa
fe
fa
08
f2
06
fc
fe
0a
04
ff
f5
f3
f4
fc
f6
ff
f3
06
f4
f3
f8
f9
f3
f6
f9
fa
fa
ee
04
00
f3
f4
ee
09
fe
05
00
f6
f4
f4
04
f4
fd
02
09
fd
09
f2
06
fa
fa
04
fa
fa
f7
02
fd
05
04
fe
f8
03
fd
01
02
00
00
fc
0e
0c
f1
ff
08
fb
f1
db
d6
00
05
07
f4
cf
eb
00
e8
e6
fd
19
eb
d5
02
1f
06
e8
fc
15
11
15
04
00
0c
05
fe
f2
1f
12
31
0e
f2
d5
1f
3c
17
02
04
02
f1
c2
be
fa
fe
10
01
e5
13
2c
2c
0d
ec
f8
fd
05
41
02
fa
d6
05
4c
f0
e3
fb
09
ea
00
9e
d9
0a
15
0b
06
01
05
01
00
ef
ff
16
4a
07
ee
fe
1a
00
f4
fa
f6
fe
a4
fa
04
14
1b
07
05
16
1f
14
2d
0e
15
e8
d9
03
ff
ef
f1
fc
04
ea
f5
f6
f5
01
01
0d
05
fc
08
10
fd
00
fa
ef
05
20
06
ef
fe
dd
dd
11
fc
1e
ee
f4
03
18
01
2a
ea
cb
d6
17
17
f6
d6
0d
01
0a
0f
ec
0e
f8
ed
07
04
f7
03
fa
f8
e9
de
20
06
07
08
0a
ff
07
0c
07
fe
07
f6
f8
fc
0c
08
07
fa
fb
fd
00
09
0b
fb
09
04
db
14
21
19
3e
d3
22
1b
19
2e
00
fc
ef
f8
07
f2
ea
00
f0
d1
ee
e9
ed
f5
f2
29
12
f0
12
1a
16
eb
05
23
10
10
ec
fe
29
1f
fd
11
f2
0c
07
01
08
f8
d0
f5
05
f5
ef
e3
fb
03
fa
f6
01
fa
16
14
ed
12
1f
0a
11
e8
1c
10
0c
02
15
14
f5
ff
fc
fa
09
19
07
f0
bc
e2
f4
07
df
c2
ef
01
0d
08
e2
fc
e8
f9
dd
f1
16
ea
d2
02
0f
f4
05
ba
fa
0c
fa
ee
ce
fa
03
ec
e0
00
05
0f
d0
c4
e7
d7
cf
cc
16
20
0e
05
e3
f9
10
1a
e4
d2
e3
1b
f9
e0
de
e9
14
22
d3
eb
d8
19
fe
da
13
ff
f7
0b
19
fc
04
fe
34
03
e9
e1
1b
2f
02
01
f1
f0
14
23
f7
f5
00
19
1b
d8
06
f8
0b
17
03
fe
13
07
fe
f9
0c
0f
04
fe
10
19
e3
08
2c
15
15
ff
13
12
1e
0a
f4
f9
01
f2
f4
fe
f7
02
f6
00
03
fb
00
00
05
07
f0
f7
f9
f5
00
04
01
f9
08
ef
07
f0
f5
f1
f0
fe
fc
fe
00
f3
fb
fa
fe
08
ff
04
ef
03
06
f1
f8
fc
f7
f4
f7
f9
f8
00
ff
ef
02
ee
01
f6
ef
ff
f5
07
fe
0c
08
00
fc
fb
07
f7
f4
f3
f8
03
f3
0f
04
fb
fe
06
07
f9
f4
fb
03
f7
fe
08
fb
fa
fd
03
f3
03
f8
f5
ee
f2
ef
06
fb
fb
f7
06
fb
f6
f4
00
ef
03
fb
07
fa
fc
f1
ff
ef
f6
07
fd
f9
f4
fe
04
f0
fe
08
00
fd
01
09
02
f3
f8
f6
03
04
08
fe
fb
f6
05
f2
0a
07
f4
01
04
f1
01
02
fa
fd
f2
fd
03
fa
fa
ef
04
f5
00
ee
05
f9
ff
f6
ee
f2
02
fc
02
08
fc
07
08
07
09
ff
0a
0c
03
0a
0b
fb
08
fa
02
fb
07
f9
02
00
0b
07
f8
f7
00
04
f9
f6
fb
08
fd
00
f2
05
fe
0a
f4
fc
fe
f9
00
fc
f8
08
fe
00
03
ef
06
f0
fc
fb
fe
fd
0c
05
ef
07
07
00
06
02
03
05
f0
f4
f5
fa
fd
fc
ee
f4
f3
f0
f6
ef
04
00
f9
f6
f6
02
ef
f6
fe
f0
fd
ff
ee
06
03
02
00
fc
ef
08
fc
04
f9
fb
f6
f0
f5
f5
f6
f5
f4
f6
f4
01
f0
ef
fd
f8
ef
fc
f7
f8
fd
f6
f0
ef
02
07
f7
f8
03
fc
0b
08
f7
f8
f8
f9
f2
f5
f3
f6
fb
f4
fd
fb
03
f6
fe
ff
f8
fa
02
f9
07
f5
f0
04
02
f7
fe
f6
ee
f2
f0
fb
02
01
02
fe
01
02
fa
07
f4
f4
ef
fb
f5
f6
01
fa
f3
f9
fb
08
fd
ef
f4
f5
f7
f9
f8
01
00
ee
07
f3
fa
0b
01
ff
f4
f8
f9
f8
07
f2
05
fc
ef
00
fd
f8
f7
04
fd
fa
f5
ff
f9
f7
03
00
fc
08
03
04
03
ff
f6
fb
fc
05
fa
f8
fd
01
fb
f3
fc
fc
f8
00
f5
fd
f8
f9
fa
fd
f2
f4
05
f3
f5
02
f5
fa
06
f7
fe
fe
01
fb
04
08
05
09
f9
f7
f7
f5
0a
03
f4
09
00
fe
f6
02
fe
02
05
f5
ff
f7
fb
f1
fd
04
02
01
f7
f4
f4
07
fd
09
07
09
f9
fc
f6
00
f2
0a
f6
01
06
fe
08
fb
fe
04
f3
08
f2
06
09
fb
f9
0a
f5
06
fe
f6
03
05
f5
07
03
fb
f1
fb
01
f3
07
09
f2
f5
f9
08
0b
0a
ff
00
f3
05
fa
05
fb
04
00
03
fd
f1
00
03
06
f6
07
07
f7
05
08
fa
f5
fe
0a
fc
f4
f7
0a
f7
ff
f4
06
fd
f3
f1
07
fa
fd
fc
f3
02
04
fd
06
f8
07
f2
09
f6
03
00
f6
f4
fc
ff
fb
04
f4
01
f8
fd
fc
05
fe
f4
07
f8
06
f7
08
f7
fc
09
0b
02
0c
f7
fb
f7
f7
f3
f7
06
06
f4
f4
04
03
05
f7
04
00
fd
07
02
fd
f4
f8
fd
f3
fa
04
04
fd
f2
07
f3
09
fb
f3
03
fd
f3
f7
f7
ff
f4
03
f3
f4
01
f7
fb
fd
f9
f8
00
0a
fc
f7
f6
f1
f3
f9
03
04
f5
03
07
f3
0a
f3
08
03
fe
f8
fc
fd
fc
f1
fd
03
08
03
03
07
f5
00
06
08
02
fe
f7
09
0a
05
f7
fb
04
08
fa
08
f9
0a
fe
f9
07
f2
02
fb
04
f5
fe
06
ff
f6
0a
f8
01
f8
04
ff
07
02
f7
f4
fd
f4
09
f6
03
f1
f9
f2
05
fa
fc
ff
00
f5
fe
00
f2
02
f5
0a
f5
fd
f2
ff
f4
f3
fa
0a
f8
0a
f8
f2
07
01
f8
f9
f8
fe
fb
01
f8
f6
f8
09
03
f4
ff
06
fc
f2
fe
01
f9
05
04
07
05
0a
fe
f5
fe
09
03
f6
05
02
ff
f3
fb
0c
0b
f9
ff
05
ff
fa
f4
0a
f6
03
fd
f1
f6
f7
fd
fd
fd
02
f7
fc
ee
ee
03
f7
00
fe
f2
f3
f9
f4
f5
f2
01
fa
f7
04
ee
f8
ed
f6
00
01
01
f4
f9
eb
f3
04
01
fa
fe
fa
04
f0
03
f2
fe
f2
fb
fb
f1
fd
04
01
fc
03
fa
fa
ee
f2
f0
f6
05
f2
0a
ff
f8
ec
04
05
fe
fc
f0
fb
ff
f0
f7
0c
f6
00
03
fa
ff
ed
f0
08
09
ef
ed
fa
f2
f2
04
fc
00
fa
f4
ef
fb
f0
05
0a
06
fd
fa
f2
fe
f4
05
f8
f0
fb
ff
ee
01
f2
04
04
02
ed
00
ef
f6
f4
06
f4
fc
fa
fe
fc
00
f8
fc
ff
f8
fc
f6
f4
fe
fe
fa
01
ec
f3
ff
fa
00
f2
03
00
00
eb
f0
f2
02
06
09
fc
ee
fe
f2
fe
f5
00
fd
f7
06
fd
fa
f2
01
02
fc
f3
fe
fa
f1
f0
02
f6
04
02
f5
fa
00
05
fa
0a
09
f8
07
fb
03
02
f5
fd
ff
02
04
03
02
09
fe
02
08
f7
fb
fb
06
f9
fe
fc
fe
f2
fa
04
fc
f3
ed
ed
fe
fb
05
fc
fa
f9
f2
fb
ed
fb
f8
00
02
f1
f4
f7
08
ef
01
ff
f2
fe
03
06
fd
ff
f7
08
f0
fe
fb
fa
04
ec
03
02
02
f4
07
f4
fb
fa
02
01
f6
fd
f3
00
09
f2
f9
ee
03
ff
f5
ff
f5
ed
03
f9
f4
f6
f5
f5
f0
fe
f6
fe
fd
f4
01
05
03
fc
f2
fd
02
ff
f8
00
f3
f0
f9
f4
f9
f0
07
01
04
fc
f7
fa
f7
07
f7
f9
fa
f9
ff
fd
fc
f0
02
fb
fe
fa
f8
02
fe
f4
f7
ec
f8
00
ec
ff
ed
01
fb
f9
fd
f4
f8
fd
f1
ef
fb
fa
fc
fd
f6
ec
ee
ef
f0
ff
f9
f4
07
07
00
f6
f6
fc
08
06
f9
f5
f8
07
fd
03
fa
03
02
0a
03
f5
01
09
f9
fa
ff
ee
f8
f7
03
01
f3
fb
ff
ec
01
0b
02
fa
f7
f2
f6
f3
fb
02
ef
04
f0
04
f2
eb
cc
e0
04
e8
e2
fb
ea
ee
ea
fa
29
0a
f1
f5
fc
03
06
10
f2
e7
f9
ed
01
fc
00
1e
02
f7
03
fa
28
2a
3c
ee
15
06
03
2b
1f
07
f4
0a
fb
f9
ff
f2
f8
d9
cc
09
20
26
19
18
28
36
22
22
14
db
17
f6
ff
fe
ed
bc
fd
11
cd
0a
12
1d
3d
f8
19
2a
27
16
21
0f
22
12
05
36
04
d6
04
04
1d
f5
c6
06
10
fd
36
31
23
3b
30
28
ef
e7
de
e7
fd
13
f3
f6
e9
20
0c
0d
0f
12
29
e4
06
0d
ed
12
18
0b
0a
ef
fb
ce
df
f8
fb
f6
16
12
1e
25
26
43
0d
21
1a
12
f7
ec
ec
f7
fd
a9
df
f5
b7
12
f4
d3
ec
ff
03
f3
eb
2d
fb
25
24
07
47
09
de
11
f9
fc
ec
f8
f5
cd
f1
de
fd
f7
fe
f6
03
f1
fb
fc
f5
02
0b
f5
04
f8
02
09
fe
0a
05
fc
f9
f3
fd
f8
0c
fe
0a
ee
fd
17
e5
1c
03
dc
12
05
f8
15
dd
db
12
f0
0e
0e
fe
26
1b
2b
20
1b
1e
18
2c
2a
0a
f0
ee
ef
f3
21
2a
d4
fa
0a
e5
25
1d
03
27
0d
2e
22
eb
1f
32
13
e7
00
f8
02
d6
09
ff
03
05
e4
ef
12
1b
fb
f0
e8
eb
2f
21
df
02
ff
ed
16
f4
e0
df
02
f2
d6
e0
d1
f7
c4
00
1f
10
fa
eb
0c
fe
12
13
e8
1b
e7
e4
03
f9
d0
f4
f3
fc
ee
f6
24
e4
d5
ef
d7
08
12
ea
fa
ed
d2
11
0a
19
24
39
33
20
00
f4
fd
f3
de
0a
bc
ee
df
fd
f6
ec
f8
e4
fe
09
ef
17
0d
0d
01
1e
0f
fe
f6
dd
f9
17
14
1e
fc
09
d7
e4
52
ee
00
dd
b1
17
22
03
e3
db
fd
10
04
2f
0f
be
e1
fc
0d
f4
0b
f6
ef
fc
1a
11
f6
03
e8
04
35
07
0d
09
0a
1b
37
01
f5
0b
f7
0f
26
e6
ed
0d
0e
f8
17
fe
1d
30
e6
1b
f7
fa
10
26
e8
1e
18
08
fc
dc
f9
03
12
f7
f6
d3
f2
d3
f6
cb
ee
2a
24
30
c4
d7
01
29
04
eb
fc
00
0b
05
ed
13
10
04
ea
ff
dc
ca
f4
09
af
9d
dc
02
1f
71
c9
e5
1a
19
aa
a4
f2
05
de
f6
e8
09
fc
db
c3
d9
a7
0f
4b
7f
ca
ea
28
09
a5
df
f4
3a
f8
f7
e9
23
1b
ac
1f
17
f8
d7
f0
e3
d5
ef
f4
f0
8a
b7
d5
f9
e6
b0
ea
01
0d
ea
ab
ce
fd
03
12
01
08
07
20
1c
c7
cf
de
e3
f4
ff
00
0c
1d
03
ee
f0
fd
0c
f9
e0
01
10
15
01
cb
05
01
0b
ea
ea
e6
ee
0a
01
01
ed
d3
39
2a
06
1e
c3
f0
11
07
09
f8
f7
e5
f4
0b
f8
0b
f6
fe
09
0b
05
0b
f5
0c
fc
0d
05
08
f3
fe
ff
0a
fd
02
03
03
0a
f5
fe
f9
f4
f6
05
f7
07
0e
0a
e3
ee
1a
14
f0
7d
d4
f1
07
d5
b5
c7
ee
12
05
09
02
17
21
23
ad
c0
c7
2d
2d
c4
cb
e1
1b
0f
ea
fa
14
15
02
14
21
0a
fa
07
09
0f
03
0d
f7
1a
02
0c
04
0c
19
ec
fc
f7
10
ef
ef
da
0c
19
19
fc
06
f3
18
1a
0e
09
01
09
06
ff
08
15
08
0e
2d
1b
4a
f7
04
0c
10
17
14
f7
1d
0f
18
06
e6
ea
fe
27
0b
04
2a
44
36
f9
f9
2f
16
0e
f8
ab
1c
fa
f4
f1
99
ef
ec
ff
02
0b
08
f6
06
13
33
05
28
f8
16
0d
02
19
f8
23
22
04
02
00
1d
0b
fa
ef
09
1c
e7
ec
0b
f3
f0
30
44
30
0d
f6
07
37
0b
10
f4
25
24
08
06
d0
49
47
14
f7
ed
41
30
0b
f6
01
a8
9c
d7
e9
ff
de
df
0a
14
28
d1
cb
03
12
28
20
08
03
05
05
13
0b
24
21
e0
f7
ec
f2
17
18
d6
da
fc
27
01
ea
f1
1a
e2
ef
10
ea
01
1c
02
ff
0a
09
ee
cf
08
0a
f3
dc
06
1a
f5
02
18
f3
31
ea
e4
0e
13
22
0e
05
f8
f2
e5
f1
f3
ec
e1
19
04
15
eb
ea
1c
24
ee
f5
11
31
16
ee
01
37
13
12
1c
1f
d7
14
c7
c8
e9
ac
24
0f
14
f6
13
21
10
c9
b0
16
0a
26
cd
0b
0c
f2
1b
f7
e9
c5
f7
f1
da
d3
f8
33
14
fd
06
ef
08
1d
20
19
db
0e
e9
01
16
f5
f7
f8
0c
f6
d5
04
13
1b
18
06
f5
fd
e1
f1
f3
f5
12
1a
21
d9
09
08
d5
14
04
1e
fd
ee
29
0d
04
16
fb
0e
d4
04
fc
1b
08
fc
f3
f0
1a
fa
f7
e1
f6
0f
f1
f5
f2
f7
05
0e
d9
0f
09
0a
fd
d4
03
02
0d
04
fa
fc
01
0b
04
05
00
07
09
f5
fc
0c
08
f8
06
04
06
f6
f7
fc
f7
10
f7
f7
0b
17
ef
fe
ec
dc
00
11
f7
f9
02
d2
fc
e8
e7
f0
d7
0d
1c
23
0e
11
0c
2f
d0
c0
db
0e
10
cc
cd
dd
ed
23
02
11
f6
e5
fb
cc
e2
ca
09
20
f9
04
05
0c
f1
e1
df
1b
ee
f1
f3
d4
0c
fc
f8
04
16
0e
22
d6
10
1f
f2
1b
00
d8
ec
f0
f1
f0
08
28
ff
f8
ee
07
58
45
f7
fe
14
ed
c2
18
0a
fc
f6
c3
f5
09
1e
07
dd
1b
0c
ee
41
40
03
e9
e5
e3
24
06
dc
08
18
c5
14
00
e4
ea
00
fb
fd
1b
2a
3b
f6
ea
17
18
3a
fa
e3
04
1b
11
f7
eb
11
fb
f4
f2
e4
04
ef
ec
e3
05
02
1c
d3
fe
35
ea
f6
f3
35
17
c1
08
fc
30
0f
ad
1d
fe
0a
23
e2
0b
09
e2
28
f6
f0
0f
17
16
cb
b9
00
05
fd
f7
07
25
05
dc
fb
ff
00
17
f1
df
dd
01
04
15
fc
fc
e5
de
e5
0c
0e
0d
eb
ee
12
1a
0d
cf
11
0e
fb
0d
0c
0a
ec
df
e4
2c
03
bb
a2
a7
f5
fa
01
f8
0c
11
3f
00
e6
20
21
01
d3
eb
e2
e4
9f
c4
fc
f5
c0
c6
34
f5
b0
05
d8
f0
03
0a
fc
31
10
f4
e7
28
1f
ee
da
e9
11
11
de
de
f1
e9
ea
e5
26
f6
eb
11
0a
fc
37
ee
21
f8
e4
3a
cc
d8
fb
09
1b
09
14
e1
f3
19
ec
11
e8
16
17
f4
ec
f9
f0
06
e8
fe
f9
0e
04
00
09
00
1f
0f
15
18
0f
0d
12
df
c3
01
0f
0f
f6
ee
f0
13
0f
cb
f2
fc
