1e
f6
05
01
08
0d
fe
05
08
ec
1a
ff
fd
ff
fa
06
f7
f4
ef
02
06
1b
fa
f7
03
04
10
04
ee
1d
00
05
ee
00
f6
04
e8
14
07
f7
13
ed
f1
18
04
ff
ff
fc
0b
01
f3
f9
08
17
dd
fe
09
29
12
ee
f7
fc
f1
00
21
f1
fa
0e
f4
eb
f7
fd
f0
0a
0a
ff
fe
f7
f9
f5
fb
19
00
0e
01
15
17
ef
10
f0
e6
21
02
12
0a
ff
0a
0d
03
fc
0a
ec
f9
1e
f8
f7
ef
0d
fb
1e
f2
01
fd
08
1d
00
f7
ff
04
f4