d3
0e
0a
0c
15
f7
16
25
02
0d
00
d2
f3
10
0f
11
0a
da
f7
09
e7
36
09
11
dc
f8
2b
0d
16
00
f3
f7
f7
14
10
0b
ff
0c
ff
20
16
ed
f2
ed
ee
0d
02
f6
1c
dd
f3
06
08
fd
10
0e
0d
1d
2e
17
0f
f9
03
1b
1c
14
ea
04
12
0c
01
0c
fb
db
2d
02
e2
0d
03
0d
38
ed
09
1a
ff
21
10
09
e1
f4
e8
f1
1b
eb
fc
f9
14
12
2a
0e
fe
eb
e5
15
fd
f7
ff
08
fa
2e
f3
f0
dc
19
16
ef
f3
12
0b
01
cb
01
03
15
20
1a
e6
2a
19
20
f2
17
ed
08
0c
ea
f7
ff
e4
03
e0
ce
13
0f
db
17
fd
04
0b
eb
25
f4
f1
0d
f7
00
14
e4
09
01
2c
43
eb
d2
10
f1
01
e7
e7
1e
fb
f4
f7
11
07
0c
f6
e1
da
01
e5
01
04
17
f1
0d
14
15
01
10
0d
10
f5
2d
d0
ee
dd
f6
08
fe
e3
0c
f7
da
07
1a
f9
04
dd
ff
15
0c
04
11
1c
fd
0d
fd
f6
fb
d4
e4
0c
fb
04
02
f6
e9
08
02
0a
01
11
f3
0f
e8
f8
f5
20
cc
b2
09
eb
e1
04
22
06
f2
07
22
02
11
06
1b
0a
ee
f5
1b
0e
f2
dc
1c
10
06
21
11
da
f4
01
07
1e
0b
17
0a
ec
1f
16
f8
1a
16
0c
24
f1
d4
f2
f6
2c
fd
08
ea
04
f6
d2
1b
04
13
f2
fa
f7
1c
21
08
23
12
08
ee
04
15
1e
31
fa
f9
fd
22
31
02
f2
f9
07
f7
07
fc
fe
0e
f5
02
ec
05
07
f7
1b
fe
eb
e9
1d
f9
08
f3
11
06
fe
15
fb
23
fb
f2
f0
fb
0d
ca
f9
06
2a
1c
f4
fe
d3
fb
f2
f5
24
09
f5
cd
04
24
d7
fe
1a
ed
f3
e5
0d
10
07
e3
fa
13
2c
14
13
ef
fd
f4
19
08
d3
05
16
21
02
fb
f9
fa
09
fb
04
06
31
2d
f6
e5
07
f5
06
04
0d
f8
d8
11
0b
0e
fd
16
1f
3e
0b
1e
12
ec
15
ef
fe
f0
f5
16
0d
0e
0c
f8
23
1f
f4
1b
e4
eb
23
0f
09
ed
2f
9e
11
a0
0f
ea
fe
ff
03
ec
23
e5
e9
ef
06
ea
e3
c9
ea
06
e8
0f
23
e2
06
e1
13
1a
01
cf
0b
f6
19
10
1f
f9
06
0a
21
20
f0
f9
0a
fa
cd
f3
15
d4
e2
02
f1
3f
11
0d
0f
fb
08
31
05
eb
0a
d1
f5
f2
f2
f2
0d
07
f3
21
16
06
e1
0d
ff
fa
08
d2
a9
b0
e4
21
10
0d
13
11
fa
16
d0
be
3c
06
ea
02
09
bf
cc
ee
1d
22
1e
07
21
0b
1b
f9
af
ad
e9
13
db
fb
08
d7
26
f2
db
f2
17
ed
0d
1d
17
0d
eb
fa
f0
ff
ee
10
f2
18
f7
f9
f3
ea
be
b6
02
02
fa
b5
f6
0d
ee
07
fb
03
f5
fe
03
0b
de
fc
db
09
c4
f8
d9
e9
09
fe
fd
ef
e8
eb
ea
ed
ff
f6
09
ca
f2
dd
1a
02
14
e5
e6
ec
02
12
00
f0
0d
f7
f7
0b
ee
39
f6
ef
fd
f1
f2
ff
ed
25
ff
e9
1c
fd
f9
08
ec
08
f8
04
08
0d
07
16
17
11
f0
e8
ef
16
09
07
fc
0b
2e
08
06
ea
03
db
10
f7
ea
0f
ff
f9
05
04
1a
e9
f6
09
f6
d7
fc
da
0c
2c
21
1a
1d
11
13
11
cd
e0
1d
00
e4
d8
f3
0f
d7
d5
e5
03
f0
06
15
1f
14
37
08
ec
00
08
fc
f2
ef
01
03
fc
40
24
fe
f7
f5
eb
f2
e6
f6
08
16
06
1a
fc
09
e5
e7
1c
01
16
2f
1e
11
09
e2
f3
00
f3
e8
1d
dc
ec
0c
f7
fb
d5
ff
14
02
08
f3
05
f1
45
0f
fb
dc
f6
f8
f7
ea
ef
39
24
f0
ea
ec
15
ce
f0
fc
0c
f7
e2
2e
fe
f0
fd
13
d3
ee
df
ef
fb
ef
0a
e7
01
fb
f3
f8
2d
2b
31
ec
0f
00
14
f7
08
f5
31
1d
14
e2
06
e1
12
f0
f2
f4
29
04
2a
1d
fe
07
2b
12
28
07
0a
e5
05
1e
eb
f0
12
ee
0f
34
f4
03
18
f6
22
ed
1e
1c
fe
1d
23
fa
0f
f0
ed
ff
0a
0d
fe
40
b7
ec
1a
ec
fc
07
ea
0e
eb
ed
f1
f6
f7
e8
e7
f3
ee
0f
fc
dc
13
f3
ed
10
0e
ff
ec
03
24
14
16
25
1f
0e
11
e2
f9
1a
d4
f1
12
fa
06
f8
fa
10
1b
c4
16
16
f5
f2
02
b9
fc
1e
ec
00
0e
0c
e0
0b
e3
f8
ec
23
fb
0a
18
0d
e8
10
30
17
12
1d
ef
07
fa
e2
fd
e9
ca
ed
16
12
f7
01
00
ef
f2
fd
00
1e
06
12
00
fb
13
11
f3
06
f8
08
fe
c8
1f
1a
15
16
de
0a
03
06
11
13
da
11
0c
e2
23
16
0d
06
f5
28
0b
f1
f0
0d
f1
0a
0f
03
21
0d
fd
0c
0d
da
f6
11
f8
04
f6
0c
05
08
2e
e7
0f
23
f2
e4
fe
b3
f8
06
3a
03
08
e7
e4
ff
03
35
2e
f8
26
d9
04
f1
0e
df
04
0c
f8
f7
f1
d7
01
f8
0b
f3
fc
d4
e7
05
12
0e
21
f5
0f
06
08
1c
48
f1
02
eb
ec
19
ef
12
ee
fe
0b
f5
31
17
02
10
14
26
fe
04
eb
da
e4
36
11
f7
11
05
23
ec
df
14
e4
1a
0a
09
24
f8
27
24
e9
ea
0e
10
21
ec
05
0e
09
b3
12
f3
0d
cf
04
fe
fe
e7
cb
07
10
0e
09
02
09
ee
1f
fa
07
15
0d
02
f2
08
0f
18
d3
f1
e6
e5
6a
13
ed
08
f2
f7
dc
e3
fd
df
1a
d0
0a
13
00
1e
b7
2a
f9
31
fa
0c
f8
13
21
22
1c
f8
f4
f0
f3
0e
16
f4
07
e3
06
0d
f9
f8
de
0b
ff
1c
ef
02
47
09
fd
07
d6
06
0f
0e
03
e8
f0
05
f6
1e
ea
0b
2b
eb
13
f5
f4
01
25
c2
04
0d
fe
f7
02
19
2c
16
d9
0d
23
ed
f8
0d
dc
0e
eb
00
10
fe
f5
f2
26
f4
fa
02
0e
14
fc
00
08
06
07
28
24
f5
f7
15
11
30
01
03
18
02
09
f1
06
0c
ef
ef
53
1c
dd
19
10
fb
0c
e7
01
ec
fd
e5
05
e7
03
0a
08
fd
17
0a
06
f4
f3
06
21
0f
ce
f0
d7
20
f8
25
04
1a
f2
c6
24
2c
18
ef
d9
02
f1
07
ac
08
07
f0
1e
f1
16
ef
01
06
11
07
f6
03
0c
f3
f8
f5
11
e6
ee
f1
ce
f8
23
ba
df
fe
0d
ff
0a
0a
23
14
00
fd
29
12
f5
fb
19
01
f7
30
0d
e0
0d
f9
1e
24
07
f9
10
10
ff
f8
0e
22
fa
15
f5
12
f3
03
06
11
03
f5
25
e8
ff
d8
03
0c
eb
c0
3d
1f
14
fc
fa
f1
1c
19
12
20
23
f3
f7
f2
17
f3
19
25
12
1d
0f
f3
07
f2
00
44
0f
13
d6
f5
18
16
0f
3a
ed
16
fe
20
08
f6
fe
eb
f1
13
01
f1
24
f8
0a
16
0d
0d
f2
12
f4
12
14
16
0f
03
01
0a
1b
31
f4
0a
f3
e1
f9
1b
e9
1e
de
f6
f5
fa
15
f9
18
f3
1c
0f
14
04
df
0d
12
30
06
9c
04
f2
c8
f8
25
f6
0a
0a
e1
f6
f7
0c
20
fc
ee
02
dc
0a
ff
ed
f5
04
22
0c
13
bc
ff
05
25
cc
07
f4
f0
18
0d
d8
f4
e6
14
12
0d
19
fb
16
11
fe
f3
fb
f8
f5
14
05
14
26
af
27
0b
11
d3
f7
f6
1b
17
2c
ee
1e
f0
ea
0d
cb
12
d3
15
f5
45
fc
13
11
02
fb
04
ed
f1
06
15
fd
fd
f5
07
f1
f0
fd
16
01
08
15
f6
0f
fa
24
ec
03
1e
16
d4
0f
07
f9
28
08
06
dd
fe
15
18
f4
13
19
02
0e
f4
06
f2
28
02
07
23
e7
06
fe
07
ff
f2
43
03
01
d0
09
f4
04
08
1d
d1
10
fb
f0
0a
0e
ec
f5
43
1e
fc
13
fe
eb
1e
15
15
f8
15
13
16
f3
22
17
12
38
f9
e8
fd
10
12
3c
e7
f6
64
12
05
0f
ee
1d
ed
ec
f6
1b
f1
fe
01
11
0f
1c
07
fe
f9
0a
45
09
fc
0c
0a
ec
02
f5
08
0e
1d
dd
06
dd
f8
ec
e8
d8
f7
13
0f
0c
2d
1d
f4
02
10
f5
0d
fa
0c
fc
fb
15
03
ed
05
fa
00
e4
f1
38
fc
0b
0f
fc
eb
1e
fd
ff
e7
06
00
02
c9
08
06
04
fc
fe
cf
0a
0f
0b
10
0e
14
04
15
db
e9
19
f1
ed
f2
1e
ed
f0
11
0f
f6
eb
f7
17
4c
c7
13
e7
1b
07
0c
24
f1
f6
12
00
f4
fc
f6
cb
28
f6
08
d1
04
e2
14
fd
ee
12
0a
0e
10
0c
1b
f7
0c
05
15
f4
27
e9
17
0c
f6
f6
c8
02
02
f6
f3
ed
19
ec
f6
02
0d
d7
16
f0
1c
eb
ee
1a
15
cf
fe
08
1f
11
fe
f3
fd
10
36
04
fe
fd
dd
02
f5
cc
f7
f5
f8
05
10
f5
0e
0f
1e
0d
35
0c
07
c0
ff
04
f3
1d
ed
05
04
f5
ff
0a
c5
1a
fd
e5
38
ff
f8
2e
be
28
04
1c
0c
21
08
2e
fb
fd
b9
26
ea
2d
0a
04
0f
2a
f4
fc
0b
15
f4
12
0b
b8
25
04
10
f7
08
05
13
ef
1b
f6
c6
fd
19
db
ef
e0
1a
18
ff
f8
e2
f0
f0
09
28
0d
d7
03
0f
15
13
07
05
f0
f7
cd
ee
18
05
0e
29
17
26
e7
38
17
04
ef
17
0a
08
01
28
03
ec
08
ff
0b
08
f5
02
f0
0a
31
00
0f
ef
f3
ed
0a
ff
f7
f8
f9
0d
20
21
f3
ed
fe
e7
fc
f0
0f
fe
39
20
1e
fc
10
18
09
13
f1
16
0e
0c
e7
fe
ff
f6
fe
fc
07
04
d9
23
19
fa
f2
f2
e7
f2
0f
fc
f5
f9
da
02
f1
d6
00
1c
f5
01
fa
f5
e6
f0
ff
2c
1c
11
36
25
1a
ea
18
dc
f4
d2
19
f9
f9
f3
fd
34
ee
0a
d7
06
04
fc
ff
f6
2f
06
df
0b
11
10
00
d5
0d
f7
ed
d5
0e
d1
f5
fc
f4
d7
08
bb
f0
eb
fb
da
fa
fc
f6
15
e2
ff
ea
0b
2a
ff
fb
f6
fc
ca
eb
22
09
e2
3b
ce
16
07
0f
16
c3
ea
f4
18
ed
01
e8
e7
00
f1
fa
32
07
f4
ff
0a
14
fd
02
14
ed
ee
35
cd
da
fc
eb
f3
fa
06
da
0e
ed
06
f0
04
11
16
13
18
0d
f6
06
e8
d7
00
c7
fa
fa
eb
ee
bd
e3
f6
fc
d6
17
1f
00
0f
fd
07
07
39
ed
f4
11
0d
14
fe
e5
0e
df
f7
28
17
fb
08
fa
fb
20
07
11
e2
1b
cf
e3
ed
ea
23
22
0a
e2
ff
10
f9
fe
fa
2e
fc
ba
fc
ef
08
e6
01
fd
0d
ff
fb
02
11
2a
11
cd
fb
10
0a
06
02
f6
07
11
e6
0c
f1
00
cf
26
12
f3
3d
07
d5
fc
1a
ea
ca
ef
f4
0d
24
f3
fa
16
0c
1e
e2
3d
f0
1a
f9
03
03
20
dc
e6
ed
09
32
c2
fa
0d
17
ee
bc
15
ef
ec
f9
db
ca
10
08
0d
23
0c
3e
17
fc
f3
dc
11
df
ff
07
0c
f3
e4
1c
06
0c
28
01
31
f8
f9
06
0c
1e
0b
47
fa
fd
05
20
fc
f4
e4
52
15
11
06
11
05
ee
12
16
e6
02
46
07
0d
f2
e1
0a
fd
02
02
0b
f8
e1
23
3e
de
e6
0b
f4
f7
06
15
f1
1e
13
f9
0d
15
2b
fd
05
d3
e5
0d
f8
f2
04
de
02
ff
06
f5
14
d5
10
fb
02
06
f3
e5
f3
15
ed
fd
13
03
be
e9
22
fc
dd
d4
f2
f9
f3
f9
d6
fd
f2
d8
ea
1a
35
1e
08
02
0e
e8
e3
f5
ee
fa
0d
f4
25
23
15
ef
f2
05
f6
1a
f0
25
1e
d1
29
f5
f7
13
0d
27
be
12
00
00
d7
11
12
f2
fc
f8
08
0a
14
d5
15
f8
16
fb
ed
08
f3
e0
e8
e9
ef
0b
f9
0f
e3
fc
c7
14
d1
0c
f8
f8
c3
f4
fb
0c
fe
01
fb
36
eb
de
dc
09
e3
25
06
1f
d3
0f
0a
06
02
0c
07
ed
00
17
f8
cd
f4
0f
e7
06
07
d2
03
12
fe
36
0e
ce
c8
ef
f1
0e
09
01
13
ef
f7
ff
01
02
f2
f4
ea
fe
f9
1e
0a
f9
f6
fd
eb
f3
f4
eb
eb
fe
05
ee
12
df
f0
06
eb
dd
fd
ff
10
06
e1
0a
ed
07
f1
f6
fb
f6
fe
f4
e5
ee
ea
f8
e3
f8
f1
fd
e5
ea
0e
05
eb
1b
06
fb
11
0a
0e
f0
02
ff
00
0d
e7
0a
f4
09
f3
0c
cc
16
0d
13
ec
05
d3
ec
06
f7
dd
e4
e6
e9
1b
e7
1b
dd
06
f6
f9
ee
f1
0c
ed
f7
d6
ec
f4
f7
fa
19
ea
e2
02
fa
04
d4
f0
19
fa
05
0c
e8
00
2c
f5
02
0c
f6
f0
d9
07
d2
24
e9
00
c5
f5
fc
0e
ff
01
00
e8
14
21
ed
e9
f0
0c
f5
01
f7
13
d3
d7
c5
fb
0b
26
f4
11
fd
d6
06
f8
e4
0a
f2
12
f7
de
f2
2d
08
f9
fc
d9
f5
eb
22
ee
ad
09
f6
08
1b
fc
09
01
f8
eb
f7
0a
05
d8
15
42
ef
fb
0c
fd
24
eb
e9
1a
3a
00
e3
f6
ff
2c
0e
1e
0f
0b
25
01
21
f1
d3
fe
05
fc
0d
19
f5
0a
fd
14
fe
f0
08
03
0c
ff
05
59
f0
bb
01
03
12
fd
02
f7
0a
f3
da
2f
06
17
01
d9
04
ea
2c
08
07
f1
02
f0
f7
03
f3
c4
e1
ee
12
f8
ed
eb
ea
ee
08
f8
ed
20
fd
05
0d
2a
00
e2
e8
20
18
08
fe
29
f8
1b
1e
17
17
06
f1
12
17
f3
07
f5
21
06
f9
ba
03
0f
fd
16
03
33
f0
da
c4
e5
dd
e3
f3
d9
fe
0c
0e
0f
0b
eb
40
0a
cb
13
e9
d7
e2
d4
fa
14
ee
f1
f7
c9
0c
06
d9
d8
f1
35
10
f1
08
d7
d8
e9
21
f0
0d
fb
16
c2
ea
2b
03
f7
e9
ed
fa
ec
da
16
07
e7
02
f3
fa
1d
f4
00
2f
f9
1f
f6
f8
e9
fd
dc
09
b5
eb
eb
d4
08
cd
f5
fd
02
20
df
42
f0
05
f7
f1
1b
f9
f6
f8
dd
1f
36
20
f6
ec
30
f1
14
f0
09
02
1c
ff
04
f6
f0
d3
1d
f6
01
b3
0d
fb
02
02
e4
0e
f8
10
1a
cf
f0
f4
48
12
13
ee
f5
ef
06
f8
ef
f5
fb
fb
eb
e3
fb
25
ee
fa
f5
d0
ff
fa
fb
e8
f3
08
15
17
ef
17
ad
1a
12
fa
17
f4
e9
fb
1b
1e
1c
09
fa
e9
04
f3
13
ee
0c
14
13
f3
fc
ec
eb
fc
07
20
f5
06
0c
0f
09
03
11
f0
e1
04
fe
f0
f6
08
fe
1a
13
d5
19
0e
16
17
0d
d4
fe
01
1a
dd
00
0d
07
09
ea
0c
e2
04
18
db
0b
1b
e6
f6
ef
e5
f3
dc
0a
ea
24
ed
fb
03
15
eb
26
e8
11
16
0b
f0
30
ff
f9
f8
14
05
f6
dc
f4
f2
11
0f
22
0a
f1
12
cb
0a
0c
19
f5
19
0c
20
02
d1
c8
18
fd
04
07
f4
15
e5
01
02
06
fd
06
22
20
eb
c0
15
cc
ff
f0
15
14
e5
e4
dc
1e
2e
04
e5
e6
16
fb
ec
d8
06
f8
e0
03
fd
1b
ee
d5
f2
03
20
0b
14
0c
37
16
f9
0d
d0
fc
01
0c
f8
f0
05
24
00
fb
0d
05
e6
fb
f8
f9
f0
1f
ee
ea
fd
ef
fa
f7
06
11
0a
f4
f5
0b
07
ef
00
0b
f5
fe
0a
fe
fa
17
16
26
fa
c0
16
06
0a
0f
de
f5
09
0b
15
18
1b
08
00
b7
0d
25
07
fb
22
2f
13
14
16
e7
1d
fa
01
18
03
50
03
0d
d2
11
10
0e
19
de
04
34
f8
07
fd
f1
f7
14
01
e4
ff
fc
ff
f7
db
e5
06
f9
cb
08
0a
22
f7
29
ed
29
04
19
ef
06
33
0a
15
f4
fa
02
f4
f2
fd
00
01
d9
ec
19
12
d0
1a
00
ef
f6
0a
20
01
e8
16
1a
0b
fb
14
dd
17
11
0f
08
e0
0c
fb
13
ff
0e
fd
06
06
eb
f1
e3
18
ef
23
25
0e
e7
08
fc
12
19
f3
f3
0d
fd
ec
16
04
15
e8
28
01
f1
2d
ff
1b
ff
02
0b
0e
08
07
17
15
f7
fa
fc
10
12
0b
f5
f4
f4
30
10
11
ed
0a
ce
1e
18
fe
f6
14
f4
e4
13
17
02
bb
ba
f4
f9
0c
05
0b
12
10
fb
f2
f5
f5
d6
f0
03
31
f2
df
f9
0f
01
f8
f2
e9
ed
ea
05
f1
f2
f2
0b
fb
f6
fb
04
ef
f8
ea
f1
0b
05
fa
ff
fc
ff
0a
f9
f3
fd
0e
f4
09
00
eb
f4
01
0b
ed
eb
fa
f2
12
f8
f1
e8
05
e9
14
0a
e7
09
fe
0e
f4
0c
f2
07
f4
fe
0f
05
f1
06
f6
f1
ef
ee
f6
01
ef
e7
f7
fc
f1
10
f2
11
f9
ef
e6
11
13
00
f7
00
f9
f6
01
f0
07
11
e9
e9
fb
ed
f8
0e
04
14
ff
f6
f7
06
eb
04
fc
16
10
ee
0f
02
f4
00
0f
f5
f1
09
e9
0c
fa
00
f3
06
c8
06
ec
1f
09
f2
22
29
e6
0f
c7
ba
f2
cf
f9
fa
f4
c5
c4
05
0c
1c
16
17
07
f8
f9
f8
0f
f4
09
12
00
f9
13
23
f5
e8
0d
fd
d2
1d
f8
0f
12
f5
b7
ff
1e
f1
0e
08
ee
eb
09
03
f1
11
e1
eb
da
08
eb
0e
32
02
e9
0b
19
df
03
fe
20
29
56
07
ec
00
f2
0c
b5
ff
ab
f8
fc
f6
dc
07
f6
ef
ef
c1
00
06
c4
0e
1f
21
28
ef
02
1b
fa
07
e7
f3
02
f0
01
da
f9
0b
04
17
c6
f0
27
14
20
ef
d0
0b
f1
1c
1d
13
01
08
f1
30
0f
07
f7
ff
f4
e7
01
04
0b
12
e8
03
02
eb
fa
12
13
01
f9
03
14
f6
ee
f5
0e
1b
f7
24
f3
16
06
14
f9
f8
ed
e6
05
ed
07
04
ed
ef
12
11
e1
fd
0d
bc
ed
48
f4
f8
29
23
20
f0
1d
20
1a
10
1b
0c
fe
3f
da
f6
e0
10
f8
01
d1
2b
1d
d2
ea
06
eb
e7
ea
02
02
33
0a
09
24
01
39
25
ed
f6
fa
f9
0a
ec
ed
02
0e
1e
12
fd
ed
0f
0b
ea
29
03
f0
ee
e4
ff
f1
10
f8
ed
05
01
ac
fa
12
0f
13
14
0e
1e
ee
f5
0e
1d
16
14
fd
2e
01
10
04
05
0b
f9
f6
23
17
20
13
18
f5
10
12
1a
24
f9
15
04
fd
e0
11
e3
2a
ed
df
f2
df
f5
0f
08
02
e9
bb
46
28
16
22
09
1e
1e
02
0d
fb
ef
fe
06
f9
f8
fb
08
1a
ee
01
05
0e
08
f2
1c
38
e7
0d
d1
0a
01
0f
f9
2b
f7
d0
fb
16
f8
f3
f0
24
10
eb
b9
00
02
02
06
16
1c
ed
11
ef
f6
01
f9
f2
0d
fa
0e
f7
27
4b
0d
f7
e5
e6
11
f9
29
21
06
0e
fa
1a
ef
f6
16
fe
fd
ef
fc
24
e7
12
f5
e7
f9
33
ed
ea
f6
12
02
f3
ea
fb
f7
f7
ea
1d
20
f5
e5
f0
e1
13
12
ec
fb
02
fe
2a
0f
11
28
09
18
f6
12
f9
d2
e1
08
ea
f9
fb
08
12
f3
df
17
20
f6
f1
17
ca
03
ea
e9
09
07
1e
c9
0a
fb
06
2e
09
18
11
0a
e5
0d
13
04
e5
fc
08
0a
ea
17
e5
16
f5
0f
02
22
09
0e
14
26
0b
f4
18
ef
0d
18
1d
f4
1b
fe
36
04
ea
0c
ff
e7
fb
c8
f9
e9
f7
bb
11
0b
12
13
0d
e8
1b
f6
19
fa
ec
fa
29
18
f9
f4
fc
eb
f7
1f
0e
07
15
1d
f9
ed
fd
f7
01
d6
15
e4
13
f1
03
0c
1d
f9
ef
14
de
00
0b
01
f2
3e
fb
d7
f3
0c
d8
0e
28
05
0e
09
15
d6
0c
fd
11
18
1c
04
14
ff
0b
03
dc
d6
0b
63
ee
04
f4
f9
1a
10
ee
e9
1d
c9
03
14
13
2c
04
06
f1
12
f7
34
ff
f4
16
0a
16
2e
f9
f6
f9
08
f8
00
04
05
0a
22
0f
f8
ee
eb
ca
07
f1
c3
f0
cd
0e
04
f2
0d
0c
f3
eb
08
16
fa
fd
b4
19
f4
de
03
bb
1f
09
11
00
1f
ec
fc
07
0e
0c
17
f6
bf
1c
fd
0b
0a
15
fd
f8
0a
ed
d8
ea
18
d4
11
f0
1a
36
05
2a
00
16
f5
fb
e8
08
ea
d7
c7
19
d2
12
e6
15
ea
e4
06
f1
12
09
06
f2
38
27
e9
14
db
ef
ff
0f
e9
dc
fe
09
2f
15
15
ce
fd
dc
03
04
e9
e8
14
fc
e2
03
0b
07
bf
0f
0b
f9
eb
f8
0a
21
ff
e9
09
e9
ff
0c
01
08
f2
27
13
10
0f
f7
10
0a
ed
0e
0e
f8
e4
18
ef
f1
fb
14
11
f2
02
0f
14
14
d6
0b
14
fe
04
fa
fe
f6
03
f5
20
f0
20
f3
ec
13
19
f5
15
fe
13
1b
f0
f7
0e
07
ec
15
b2
da
2d
0b
ea
fe
0c
e2
f0
07
3e
22
07
e4
22
01
1f
00
08
e1
e6
f3
f6
ff
f7
0a
4c
14
14
ce
03
01
05
1c
15
13
e7
e8
fb
21
1a
f0
0d
0b
0f
0f
09
eb
1a
f5
1c
f5
e4
fb
eb
fb
03
19
0c
e1
f0
e9
df
2e
1b
f3
19
e5
fd
11
0b
ed
fc
13
f9
12
ec
ef
02
f8
0e
e2
10
26
d0
17
ff
1e
fe
05
08
f6
0b
1f
fc
e5
ff
f6
f2
f3
0a
ff
fb
0b
16
f4
f4
f5
1a
e2
05
ff
0a
e6
02
0c
0a
f0
11
0a
ec
f1
eb
ed
08
d8
07
fe
fc
0f
17
e3
f2
f3
15
f7
19
f9
1f
ef
f8
ea
f5
e7
fe
f4
2c
ed
ff
0b
0f
17
ef
cf
f4
f8
1f
02
f2
06
ef
ef
16
df
10
f0
1e
21
fe
08
03
0f
25
12
06
12
f3
fb
18
1c
fe
ee
e4
d8
fe
f5
bd
e5
ec
f0
dd
0c
00
dd
ec
fc
0e
18
ea
12
ec
20
18
f1
22
12
09
0b
f4
ea
f9
0b
f9
f3
f2
ee
07
1a
06
f3
0e
24
06
ea
0b
f1
04
02
10
24
f4
00
0f
c9
fc
f5
10
f4
17
e7
1e
cb
2b
20
f3
16
f4
dd
ee
1e
f6
11
1c
1b
16
ec
06
22
f1
fe
00
13
fa
e3
cd
27
f2
18
fe
d7
02
fb
ff
2c
1a
0a
dd
0d
ec
ec
2c
e4
00
0f
12
01
fb
f6
ed
fc
fb
06
ca
16
fd
05
09
0d
14
e1
fa
d4
27
1e
f6
0a
f5
ed
f6
f5
05
e8
f9
f1
ea
05
f3
ef
fd
04
f6
ef
12
06
04
15
fc
f3
f3
f4
fc
ee
eb
fa
ed
fb
0e
0e
ed
0b
e7
f7
e7
f9
fe
16
f6
fe
f2
06
03
f5
ee
e4
04
13
e8
f9
01
08
ec
03
e5
04
01
f0
ee
14
13
f8
ee
09
ed
fd
e2
ee
ea
f7
0b
0b
fa
15
13
08
e9
ed
f5
11
ed
0d
e9
ec
f2
0c
e7
f1
06
e8
12
09
0f
e2
10
e6
e4
f8
05
01
01
0a
f2
14
e9
0a
f1
00
f9
da
f1
08
e9
e3
0d
0f
f1
09
e2
11
fd
14
21
d0
04
f6
15
f1
e0
04
06
ea
dc
e9
f4
f7
17
fb
ed
cb
01
10
f3
06
08
e1
00
ee
15
15
da
f3
e0
1c
f9
0e
c8
f3
f1
03
e9
d2
08
dd
cb
f2
0a
05
f8
04
f2
f5
e5
ec
f5
ef
0c
f0
e5
09
05
d2
eb
eb
08
f0
f3
f2
07
0f
f8
f8
fc
07
f1
02
f3
04
0f
f6
f5
e8
0f
f2
08
e9
e2
d4
fa
f7
f0
d3
c4
0e
10
ed
fa
04
f8
f2
12
06
fe
f3
0d
13
f8
05
09
f3
01
f3
f2
09
10
17
e6
f5
43
15
0d
f0
f0
16
17
02
19
f3
f9
10
2f
fa
eb
fc
05
0f
e0
15
0a
13
05
f1
f1
f4
ec
d2
10
0e
2c
fa
02
0e
e7
04
fa
e3
05
10
5b
03
07
de
02
29
0d
ec
f1
1c
fd
eb
1d
3c
08
08
eb
fd
0b
dd
ea
3d
10
00
0c
09
27
ea
d6
fe
d7
e9
15
0c
e5
f4
14
d7
48
e0
f1
f9
1a
11
0a
ca
0f
d5
04
15
08
ec
f2
09
07
02
ff
28
fd
f3
e6
ec
ee
ee
f6
ec
ef
17
0d
d8
e7
fe
0e
2c
13
29
0c
ce
15
16
41
f7
1a
2e
eb
0e
0f
f0
f0
fc
06
ed
fd
1d
06
db
0c
e6
d6
f5
ea
14
0e
d0
fd
10
33
1c
f9
e2
f2
f5
f1
04
09
d3
d3
1a
1b
05
29
fd
f2
02
f7
f3
d1
00
10
1d
fd
f9
1a
45
11
38
f5
1c
0d
0e
1d
f4
ea
e5
dd
1e
12
04
fd
fe
0e
2e
0a
04
ee
fa
0b
24
24
c1
c6
16
2d
14
ff
0f
08
eb
0c
e8
1c
24
eb
0b
85
01
ee
1e
f0
ea
f0
ee
16
12
f7
0e
d6
ef
f1
ef
0d
05
00
08
fb
1a
dc
0e
f0
0f
e5
1e
14
c9
f6
ed
17
03
e9
01
fd
e8
13
06
fd
0c
04
24
0a
fe
03
e6
02
20
1f
f6
15
04
e9
e5
e9
ed
11
07
05
1c
0a
de
11
eb
fc
f6
0d
19
0f
1a
ed
c6
0e
16
21
e5
e3
f2
fa
0e
06
f7
18
db
fe
00
10
0a
e2
eb
13
1b
f2
18
f2
2b
00
32
10
00
0d
dd
27
20
09
17
f7
fc
f6
21
f9
00
ef
0a
04
05
f3
0a
17
19
14
f8
de
df
ea
f3
0e
f1
08
f8
01
0f
13
da
fb
f7
e7
21
0a
0c
1f
19
17
ea
13
e5
ba
3f
03
08
00
11
25
10
b2
0b
15
fe
ed
bf
0a
ea
14
13
f4
07
f3
10
fa
11
13
fe
01
08
02
ed
d8
12
15
e7
18
fe
02
f0
0d
15
07
b1
02
1a
0a
fa
04
21
17
13
09
5d
db
ce
07
ff
05
f4
0a
12
f6
19
f5
07
fe
e5
13
0d
00
d5
15
c4
0d
ec
fc
26
ff
f2
23
f4
19
26
f6
16
f5
dd
23
21
09
cc
fa
18
fd
d4
f5
ae
24
00
35
19
0f
f7
1c
02
3a
eb
fc
07
08
30
0f
0b
11
10
bf
d8
09
02
da
0c
1d
e7
e0
06
1c
ee
06
02
24
13
18
1c
ee
35
15
ef
2d
f1
fb
25
f9
d9
f0
1d
0d
12
01
07
fb
06
24
11
0a
1e
0c
e2
f3
02
f2
0a
f0
1d
18
05
16
e2
ed
fa
16
11
23
cd
f9
ec
1d
0a
f9
e4
f1
03
01
2d
0e
34
23
07
1f
ff
f9
1c
10
07
f9
12
05
ea
d9
29
05
12
1d
de
10
fa
e8
32
f7
12
f7
0d
02
fb
3d
04
f4
09
35
fd
e6
0d
e8
00
11
0a
d0
fa
00
06
0b
09
ff
dd
fd
ea
20
ff
0c
f2
09
02
ee
2a
d4
02
f6
07
c7
00
f8
fc
d2
ee
eb
c5
0a
05
eb
0c
13
29
14
b2
02
ff
14
16
ef
08
19
f0
d5
00
11
fc
cf
21
f4
f1
12
0d
fd
dd
12
16
f7
df
09
fc
03
f8
03
1b
1f
10
e2
fa
fb
f0
01
ee
08
de
f6
08
e5
e9
1b
0e
e2
2d
ef
0d
fd
10
10
02
09
e4
0c
13
3a
01
f9
1b
fa
d9
12
0b
19
f7
05
e1
cc
1d
ef
0e
0e
fa
3d
16
f2
f6
ca
00
12
12
f3
f1
00
f6
0d
eb
f9
08
fe
23
1e
00
03
ee
cc
23
dd
ec
ee
26
28
f3
df
fd
11
20
16
fc
14
1a
0c
f1
f3
fb
ec
ff
07
01
15
e6
0f
05
0b
ee
c0
13
1d
f6
ed
11
04
00
33
01
12
e1
ed
0a
03
ff
f8
14
13
f3
f4
29
d8
f4
dc
04
0e
01
0f
0e
f8
05
e1
2b
f7
1e
cf
19
d9
11
00
d1
fa
05
04
34
17
29
47
fd
f1
32
18
03
fe
d6
2c
0c
08
fe
10
f7
fd
c3
16
f5
06
f3
ee
13
fb
03
28
15
18
1c
00
be
0c
1b
fb
e3
08
c8
1c
f1
fa
f9
ff
10
ea
fa
15
e8
0c
e0
c4
00
f9
12
17
ed
e4
d9
14
f9
1d
07
16
0c
18
f3
f2
07
2a
f9
03
f4
eb
f3
2a
07
24
0b
fa
ec
07
10
ef
f0
0c
df
fd
1b
f1
f1
fa
de
f5
00
26
e5
1c
e3
de
34
0a
de
ff
1b
f0
f2
de
0a
0b
09
11
0f
15
4b
f4
04
ef
0d
ec
db
bb
09
20
0e
10
c9
f5
0b
06
fc
cd
e0
db
e9
11
f9
1e
22
04
de
29
ea
15
04
f7
00
c5
eb
e0
10
f4
29
ed
d8
0f
1d
f4
23
e2
00
08
f2
00
0c
06
d2
0c
26
15
e1
1c
04
2f
05
df
ea
07
ff
0e
fb
e0
0b
fc
01
ec
f3
ec
f9
c8
0f
23
0c
e9
10
f5
0d
c9
0e
fb
0d
1a
04
ea
f7
10
11
ef
16
15
19
e8
14
ec
16
12
e8
0a
df
f9
e8
f8
fb
03
e8
ee
0b
48
df
ff
f5
f5
0a
09
d8
1a
f0
0b
f3
f4
ce
05
16
03
0e
d0
e0
04
c9
ea
11
0d
e8
1b
0e
10
24
2c
e9
0b
0c
33
04
0f
01
fd
0e
17
0a
ec
02
f0
2d
02
ef
06
e3
16
25
0e
18
04
0e
00
04
f3
fb
2a
f9
ed
05
f2
f0
09
02
0e
13
21
11
06
ee
d1
f3
f5
f3
f5
ef
01
12
13
05
12
f1
fd
f0
fc
fe
fb
1e
07
ef
07
06
11
f9
0e
03
f4
15
07
25
10
e7
fc
21
1b
fe
0f
25
db
fd
fb
14
05
e3
10
f0
e5
0b
13
22
02
00
fd
21
16
19
f2
f2
09
52
d1
df
cb
01
06
fb
ea
fa
fe
e8
d8
f9
f9
06
00
ec
c2
0f
05
f2
18
ee
ef
14
f7
ee
ed
f0
cb
0d
18
09
0f
e6
10
23
08
0e
0c
42
ee
f3
1e
0b
06
f9
0f
f4
0f
f1
3a
fa
fb
e8
21
fb
f2
16
12
f7
d9
14
15
10
02
2b
05
f7
a6
cd
f7
f8
15
10
cf
e9
fb
2b
2b
b0
d3
ff
35
11
e9
06
07
25
21
18
fd
28
de
d5
0a
f0
cd
d3
ef
d5
07
d5
c3
d3
f8
1b
37
cc
20
ef
f2
05
d4
c4
04
e8
11
e9
05
e0
d1
ed
30
17
0f
f4
fe
ce
11
ee
22
08
08
ef
0a
1f
26
e0
ef
23
62
08
fc
f8
08
fd
1b
17
33
f0
0f
00
0b
e2
f8
15
03
fb
f2
d7
0a
fa
1d
03
ed
0a
14
f5
f8
fb
cd
02
0a
ee
10
20
04
16
fa
ef
d6
13
ec
e0
0a
1b
f8
0a
0d
21
fa
f5
fe
fd
42
18
19
c0
0c
15
e4
f0
e9
08
05
0d
13
16
cb
eb
ea
cb
23
f5
f5
2d
bc
1d
ef
21
10
1a
26
28
10
d8
ee
20
ea
1a
13
15
10
2c
e9
fa
0e
f3
0d
1b
e5
a4
07
04
2b
03
ef
f0
ff
01
15
ef
c9
0b
0e
ff
21
ef
02
dc
ec
fe
e4
fa
f5
f6
ec
01
bf
f4
f6
13
02
0a
02
0e
11
c6
f2
28
f6
e5
02
21
f4
f1
16
22
f2
19
f6
01
12
0a
16
12
e2
28
0d
0a
eb
f6
f3
11
ec
05
00
05
fc
d6
0f
e9
f6
03
c1
ff
18
05
12
e3
de
01
4c
f7
04
e7
ec
21
03
25
01
f6
f4
08
14
f9
11
ff
df
1b
02
01
ca
e6
fa
22
e7
de
2a
0e
e3
01
a8
d4
f0
14
11
12
03
01
e3
14
e5
09
17
2e
0e
08
09
ee
1e
f0
08
0a
05
18
d1
07
ea
27
08
f0
e4
d9
ec
0c
e4
07
f7
09
f9
f1
07
fe
f3
23
fa
f9
23
ff
ec
e6
08
18
fc
c5
28
03
12
12
e8
f2
16
0b
e9
12
dd
cf
f9
18
cf
ea
ec
01
14
28
12
fa
17
28
ff
fb
01
14
ed
11
0c
11
fa
13
13
f7
c7
f9
03
17
0c
0e
10
f1
17
38
09
ef
ee
e7
33
31
05
e4
f2
14
f9
df
e8
0c
1f
d8
e8
e0
05
16
21
e6
07
28
07
02
fc
eb
24
11
11
f2
06
31
fd
ed
f9
fd
18
0a
35
2b
0a
16
07
15
10
e3
c7
0d
15
12
03
00
0c
17
4c
08
eb
fa
0f
0a
f9
0d
0b
23
0f
22
0a
04
27
21
e4
07
e1
e6
29
f7
ef
0f
fa
00
1b
ea
cb
f9
f2
03
39
0d
f8
dc
15
2c
f6
0a
03
0a
0b
0e
0d
ed
14
0d
0a
fe
ea
04
d5
f3
23
15
08
17
0b
35
f4
09
04
fb
0c
f5
03
1d
24
07
05
16
08
da
f7
23
15
0d
1c
04
27
e1
e7
21
e0
1f
f2
d1
16
03
0f
fb
05
ea
3c
08
35
2e
1b
e4
f2
c3
30
12
0c
d1
01
12
24
f7
13
20
f8
0d
2a
06
05
01
f7
f3
2e
07
07
f6
12
0b
18
ea
f7
f1
00
f4
ee
e4
ff
ff
f7
f8
e7
0b
fd
14
26
fa
f3
f0
0b
ed
dc
27
f5
d9
0c
f2
eb
e8
ee
11
02
04
32
ba
fa
fa
0a
ed
b4
0b
12
09
ff
f5
f0
fd
50
f3
09
e6
14
02
f0
e3
fd
fd
0e
00
0d
1b
eb
e6
01
29
09
25
c4
f0
0a
15
0c
0e
ef
05
03
11
b4
c6
0c
ce
09
11
f6
f9
2a
fe
fc
13
01
20
05
e6
13
e5
2d
f6
0a
ed
12
24
dd
f0
f1
1c
01
ee
cb
04
03
05
05
ea
0c
fa
f4
a8
10
1c
0c
f3
f0
df
04
ce
f6
09
d2
df
f6
03
db
1c
0a
08
e6
0f
fc
0d
cd
12
08
2f
03
cb
da
04
fc
10
18
b3
1c
f8
11
ef
0e
02
fb
05
e6
f4
f4
f8
15
32
f5
1a
f1
fb
fc
fe
01
e6
0e
f7
f8
e7
02
15
ff
f9
f1
d8
2b
23
0f
11
f6
dd
fe
08
09
0b
e2
fc
1e
fa
09
e5
fc
f6
16
f8
12
27
f1
23
21
02
f5
09
f7
21
16
1c
29
02
ee
fd
03
be
06
b7
07
06
2a
18
f5
f0
05
0b
2d
ef
d3
f1
0b
12
fb
18
f9
cc
ff
df
eb
15
26
fe
e4
cb
db
3d
bb
ec
ff
f7
c8
14
c0
f7
11
19
30
d7
15
1c
0d
ff
0e
2a
0f
ca
f7
08
1f
03
0f
f8
0a
fa
e8
f2
0c
cd
df
29
04
fc
0c
14
10
df
fd
ed
ea
e7
0d
13
fe
1a
d4
f8
fc
fa
f5
06
f3
f3
11
28
05
f6
05
f9
ce
d9
12
f8
e6
2d
16
e4
fe
ee
17
0d
fb
2a
19
ec
19
2c
15
21
f3
d6
21
2b
17
e5
09
d8
0c
f8
18
d8
0e
08
39
f8
08
f3
16
00
2b
f5
f8
fa
07
11
09
f8
06
d0
0d
2a
fc
09
bc
e0
02
c3
16
15
ef
24
e3
03
fb
04
0e
0a
13
04
0f
0c
db
08
05
16
f0
fb
03
f7
25
10
fd
1c
07
fa
f9
fa
12
1a
25
ff
fe
16
c1
05
17
08
fb
de
2e
fd
00
15
2c
19
08
c9
f2
01
dd
0c
f9
f0
15
06
0f
04
ec
00
03
19
f8
ea
2e
d2
f2
0d
ff
11
17
2b
b5
18
ce
fb
f5
2f
10
2a
00
19
f0
f3
de
0f
02
eb
ec
08
08
f1
01
14
f7
07
1d
ff
1e
ec
1b
11
fa
14
1a
20
01
0f
ff
f9
07
03
ef
01
f3
f5
ea
03
0c
e3
ea
1c
17
f5
e4
e6
1a
17
06
2f
f7
0c
2c
ed
0c
bb
02
27
fe
ed
0b
f1
e2
f9
04
03
10
fc
13
e8
ec
0d
d1
ff
38
f4
ff
23
ff
1e
04
d6
11
0f
2e
02
f0
23
d9
2b
14
0e
0e
f4
22
3a
07
ee
b8
0c
f4
0c
e8
f0
05
dc
03
25
11
ee
f1
1e
ec
12
fa
f3
fd
31
05
20
06
f9
26
ee
e2
11
f9
ec
ef
eb
fe
07
c6
f6
c6
f0
f9
f5
2d
15
24
12
11
c7
fe
32
05
fb
0e
de
13
f3
06
f5
dd
fe
f2
0c
10
ed
11
fd
e0
ec
04
fe
fb
14
25
eb
0f
0e
0d
f9
03
fc
e9
f8
05
12
35
14
f8
10
0e
07
16
00
19
28
14
19
26
1a
c0
f6
1d
0a
ec
da
08
15
0c
04
0b
19
fe
f8
eb
0c
0c
0a
fc
07
18
18
e9
00
ca
23
f6
02
13
fe
22
00
12
03
ff
0b
e7
3e
9a
1c
08
fa
10
1f
fe
08
15
18
f2
ee
d8
10
08
c7
e0
15
07
e5
1c
f6
ee
1b
f9
04
28
14
10
fd
14
25
02
fe
fc
01
06
f7
e7
de
fb
1a
ff
18
fb
fd
08
08
03
06
e1
ee
e6
ff
e2
f7
c8
f7
05
c2
ef
08
fa
ea
eb
27
ea
ff
26
d4
e9
fb
07
ea
f9
15
2c
14
14
f6
05
ff
14
f4
f7
f5
0c
0b
02
27
03
ed
e6
00
1f
f6
f7
1a
13
1f
fb
39
eb
f0
fb
05
b9
26
fa
02
08
02
eb
18
15
ff
f3
fc
0f
36
fa
ff
ce
01
2f
18
06
03
f6
df
04
de
fb
f2
03
11
cb
0b
f4
16
e5
ee
ca
ff
eb
08
03
01
08
fb
f0
04
01
01
01
0f
0b
13
e6
43
f0
e9
ff
ef
0d
0d
c1
13
ed
1e
15
11
0d
fe
f7
0d
1b
23
f9
0e
10
ec
f8
13
0e
bf
fc
07
f1
05
fd
f4
21
ef
dd
09
0d
ec
ef
f6
e8
ed
12
0f
10
e8
f6
e7
f2
db
eb
e1
ff
06
f7
f0
12
fd
df
0d
0e
d6
f9
1b
13
14
f3
26
f0
08
08
11
f5
0c
08
07
ff
01
11
e5
20
14
2d
f8
d5
22
ef
0d
fe
13
13
16
00
e4
19
e2
ed
e4
eb
18
19
f4
2f
1e
0d
ff
f8
07
cf
f5
0b
04
0d
f7
05
11
ee
d8
25
11
05
03
f2
0e
06
f2
0a
f5
f9
e9
f2
ef
fc
0b
10
e9
ea
f5
0d
e8
eb
f2
01
ee
e9
ef
04
0c
f1
08
00
f4
f4
13
ee
f7
ea
ff
e3
ef
10
13
ed
f0
fb
fc
fe
09
e3
fe
0b
0c
eb
e8
ee
eb
f0
f5
f7
ff
11
f7
f4
e5
15
f4
0a
f2
eb
e4
f7
08
00
0d
00
e7
fe
11
06
ee
f0
f4
11
ef
ec
10
0b
15
10
ee
f7
05
ea
e3
0b
07
f0
0f
08
e6
04
10
06
0d
fa
0e
04
fd
0d
15
f2
f0
15
f2
14
f8
f0
e4
12
e9
fa
05
00
f8
e9
f7
e8
f1
e8
04
03
00
e6
15
ed
0f
f4
0b
fb
0a
0b
e9
f6
03
fc
f5
f1
10
f1
0d
0b
10
16
09
ee
17
ff
eb
fa
0c
0b
ee
07
02
f3
ec
13
f6
e5
ef
08
e9
ee
f5
ec
ec
00
f4
e8
ef
07
ed
03
ea
0a
02
fd
00
17
ee
ea
fa
fc
12
f9
f9
15
07
0a
e9
eb
01
fa
08
ef
00
f5
fb
e9
0f
ef
ed
f0
f7
f1
01
0e
f4
ff
f2
f6
09
f0
ed
02
f6
e5
ed
11
f7
e9
0b
ea
f8
f1
07
01
00
0b
ee
15
fd
0f
04
f0
00
06
f3
f6
e1
eb
00
d4
fb
f3
e9
f5
e7
0f
fa
d8
0e
02
ec
0f
f5
03
fc
ff
00
17
f7
ff
10
09
06
f5
ec
fd
fe
f5
e9
e4
16
fc
06
01
05
03
00
03
0e
ea
dd
f3
e7
f8
00
e3
de
0a
fd
eb
0c
fd
f5
16
f0
02
fd
f8
f6
0e
eb
f4
e0
fc
02
0c
fa
05
01
f7
06
f1
f4
fc
04
f9
ea
d7
18
f0
f2
13
f1
f0
e0
00
f6
f2
06
f5
eb
0d
06
fb
07
20
ee
13
09
17
f2
08
d8
14
ed
03
07
12
ec
f9
e1
ff
f6
f8
de
f9
ee
e3
f8
f6
f2
f8
f0
f2
e4
15
e8
0a
f7
f6
e2
0a
df
07
08
f1
e8
f6
ee
12
03
fb
17
02
fd
f1
fd
06
0f
ff
fd
00
00
fe
06
da
02
0d
e8
e7
ea
e9
05
f2
f6
ff
e8
f8
03
e6
f6
14
fe
f9
06
ef
e8
f9
f3
e3
e9
f4
fb
15
0f
f3
ed
ff
04
e4
0c
e7
09
ee
03
09
0b
ea
01
f3
0b
f8
02
f5
03
ff
e1
ec
ec
f3
02
ff
eb
fc
17
0c
02
f0
0a
0a
f3
0c
e2
f0
e8
fc
49
f2
05
f4
07
21
d3
f1
df
ed
1e
fa
f0
04
08
05
ef
1a
ed
01
25
ad
14
18
f4
17
fb
f3
fa
e0
18
23
0b
ea
0e
05
ff
e2
ea
e3
fa
f1
f9
34
12
19
dc
f6
f6
0b
da
12
10
07
f5
fe
1f
0a
30
e5
e3
ff
d3
e7
1f
0e
ed
1a
e7
de
1f
f9
11
e6
f5
f4
2f
f8
0f
06
d9
3f
05
14
ff
f2
fa
f1
fa
0c
e2
1c
23
36
1e
00
f9
07
e3
09
1f
f9
10
1b
f0
ef
0c
13
01
d8
20
07
23
00
df
05
2d
13
ea
14
f0
f3
fa
2c
13
f6
25
12
ef
13
06
2e
f3
fb
15
1e
fb
f0
cf
0b
1b
31
ee
eb
20
05
09
1b
10
09
10
13
f1
10
ed
16
f8
05
e8
f0
e7
1a
f7
11
09
ef
f0
05
06
ed
fe
0d
24
fb
ff
d2
fd
fc
c8
1a
ef
ee
f5
01
38
0f
1b
22
0d
ea
fa
0a
fb
01
32
ed
c8
02
f3
ff
fb
32
fc
55
06
24
f3
0e
ef
f1
e7
32
42
e2
d3
ef
18
16
10
ff
08
04
e8
27
00
f8
ec
0d
0f
29
0c
00
e6
fd
01
11
d8
02
ea
e7
ea
0f
ed
ff
e9
f1
fe
05
e3
ea
e8
fc
e9
f7
15
f3
07
fc
f4
fc
f3
fc
ea
13
03
09
e5
12
0f
ed
ea
0d
f1
f9
14
06
ff
07
f5
fb
0b
ec
f6
00
e9
f6
00
06
f4
f8
f8
0b
f4
e8
e5
fd
fd
f4
06
0b
f6
fe
e4
ec
00
0c
04
f9
f7
e6
0e
0c
04
f2
e8
f4
fb
0a
f5
0d
01
e7
eb
ec
ed
f7
e1
12
03
08
e4
e5
e1
e7
01
fe
11
05
e2
14
09
01
f8
04
ee
ff
00
ed
01
06
0c
ef
f5
0e
e5
f2
f3
f7
f7
08
1c
f6
10
05
e3
15
e7
04
ea
d9
0e
e5
fe
20
04
0f
18
19
18
0d
10
fc
0a
fc
01
e9
0d
04
17
fc
15
f9
10
22
ec
f6
06
ff
26
ee
f2
f9
f2
10
f9
1f
26
ed
fb
09
0d
f8
e0
10
12
00
f9
3d
42
03
17
11
01
ed
15
1a
dc
e7
eb
2c
25
07
fa
fb
2b
ef
1d
fe
f5
fe
1b
0b
f7
23
ec
dc
05
f3
04
15
10
ed
e8
12
04
f5
d4
cf
17
0c
1b
0e
06
ed
f5
e3
f7
f8
04
d8
14
14
25
f9
ec
07
15
ff
07
17
10
0b
1b
21
fa
02
3c
ea
07
e3
0b
df
ff
0c
18
d7
19
15
e1
18
01
e3
f5
00
f9
09
bc
fa
05
0d
03
05
e3
13
f6
e0
17
09
d8
e3
11
ee
f0
34
f9
0f
05
fc
0e
96
0a
fd
0d
16
19
07
47
fa
32
e3
02
f7
f4
17
19
ef
ed
f2
2d
02
00
01
1d
ec
20
03
13
0c
02
ec
0f
15
b8
e2
fc
17
15
e6
0d
01
d6
17
e3
11
03
f0
ee
ac
0c
fd
fe
f8
11
39
f9
0e
fd
f2
f0
f0
00
eb
ed
0c
fd
16
0d
01
f8
e7
cc
ea
ff
ea
0f
1c
ff
22
02
fe
f3
d3
06
02
10
e0
f1
00
f7
0b
d8
ed
17
0b
e0
01
1c
ed
10
16
22
00
1a
ee
f7
19
fb
1b
0a
22
03
12
04
d9
11
fd
21
fb
ff
eb
1b
03
13
e9
24
08
e9
21
0c
06
1b
0d
4b
30
f1
0c
ef
bd
10
0e
13
02
e7
33
1c
00
0f
0d
f0
fc
3c
c2
eb
d1
e8
fc
22
02
f5
e7
11
db
c5
00
12
0e
de
dd
32
f1
0c
c4
ed
d4
09
f5
fe
08
fa
15
fa
f1
3a
ed
fa
f8
0a
f5
1d
0d
d3
00
07
0c
f5
0c
03
11
ef
ec
2f
17
fa
03
f1
3a
22
11
f6
11
e7
40
0d
f6
fb
11
cf
09
ff
d6
cc
fe
00
04
fa
db
fe
0a
e8
fa
d8
e4
08
1a
ff
13
f3
01
0c
ff
03
ff
ec
f0
14
fa
ff
0a
ef
00
17
0b
f7
d2
a7
ea
dc
ff
cc
1f
0f
d7
0d
d4
1f
14
39
f0
10
04
14
b5
04
e6
0c
1d
f9
f0
0c
10
ea
ed
eb
f5
01
f7
3c
17
1a
03
0f
fb
1f
2a
fc
0e
eb
1a
02
e4
f7
07
d9
0e
0e
11
23
04
1e
09
13
e7
f6
35
14
01
1f
3a
f5
21
06
15
13
02
0f
29
13
db
03
ec
03
23
fb
f0
e1
fc
28
fc
f4
dc
15
10
f2
08
f6
1a
ee
da
df
20
e7
ff
ec
19
11
1c
fa
14
13
0b
0e
17
0f
fc
03
0c
32
ca
0f
2f
de
07
e6
f5
23
00
ed
19
f9
07
fe
f9
fb
03
04
17
cd
f5
0c
fa
0c
f8
d6
1f
11
25
c4
fe
d6
0a
d6
fc
1d
fa
e6
01
31
0b
0a
f7
fa
10
ee
1b
ea
fa
f0
e3
0a
0f
fb
eb
0d
07
f2
00
1f
f5
0e
d4
31
f4
02
15
01
0a
24
04
09
15
05
0d
e9
0e
f9
0b
11
06
0e
fe
f7
bf
10
f2
18
06
f1
00
fd
c6
08
e0
0b
f7
07
c0
ea
e3
fe
f4
ea
04
10
e6
13
01
19
03
21
eb
3c
fb
03
e9
fa
15
06
0f
1b
ea
ed
16
06
cd
b4
0f
10
2a
d3
25
fd
f4
f2
05
09
fb
0b
f9
f5
12
28
f7
fb
2d
14
ec
11
19
c7
ed
f6
ec
f2
f5
ef
f9
f3
f9
f5
12
0e
42
fe
02
0f
0c
eb
d8
08
fd
f5
ee
1a
1b
f8
ff
01
0d
1d
f1
dd
fc
f5
19
1b
03
37
3e
12
1c
05
1d
f1
01
05
04
08
d2
fe
fb
e9
d2
ee
fd
e4
00
2b
12
ed
f9
0d
fa
01
06
05
fe
f4
1c
f4
ee
14
04
06
17
06
07
fc
fd
ec
0e
1b
fa
35
fa
09
21
5f
f7
fd
1f
f7
ed
2a
00
dc
13
e2
f5
f1
fb
0a
e0
17
19
f6
ed
fe
03
f2
f4
06
3c
c9
d7
e9
2a
2e
f5
d1
12
d7
ff
05
23
04
e9
3b
e9
24
0c
1e
ec
fe
ed
f1
f5
05
e3
ec
3c
fc
fa
ed
e3
ec
03
17
f7
13
f6
e4
12
16
f7
f4
e6
04
bf
eb
0f
e0
15
05
fd
12
f7
fa
f3
ec
ee
e6
fb
ef
f9
e9
05
fd
f8
fc
d9
f1
ea
02
f0
f3
0d
f9
16
cb
ef
1f
ca
f5
26
10
ed
fa
01
ff
ce
f4
f1
db
02
d7
eb
03
ea
0e
19
10
09
0e
d7
e8
ed
0a
cd
d3
e3
d3
01
fe
ef
e9
f2
d0
fa
04
0a
ef
13
ed
fe
01
11
f7
05
17
fa
e3
08
eb
05
fc
08
f7
fb
c4
0f
f5
fe
fc
1e
e0
13
f3
fc
05
ee
fe
11
09
0c
08
f5
08
fc
e8
db
e3
04
0f
07
eb
f6
fb
f4
16
17
f0
2d
f5
03
fc
1e
f8
2b
07
ff
07
1b
f7
fe
3f
f1
ed
08
f8
d5
22
04
1d
01
f3
17
fd
d1
ed
0e
00
05
14
d1
09
0c
21
ef
06
06
0b
10
db
11
0c
f0
d4
c8
dc
fd
f1
0b
d1
e4
04
11
0d
47
0c
1d
f9
28
04
05
12
f3
fb
f9
ed
f1
f5
d9
02
49
f4
ff
d0
15
f5
00
05
0e
45
e3
f3
fa
16
33
f6
16
f3
4b
00
46
fa
fe
0c
f3
fe
f2
0d
e9
16
fb
10
f0
e7
12
1a
00
e3
e1
ed
e1
0b
f4
1e
e3
08
14
f6
1a
08
04
00
13
0d
f9
fa
08
ee
02
ec
0e
f8
ff
13
01
e9
f9
ed
f1
ef
09
05
e4
f3
03
11
e9
10
eb
02
0a
0c
ef
ce
15
02
dd
18
ea
e4
e8
fb
0b
0c
fb
ef
f8
f9
f9
f1
de
fc
10
06
f1
06
04
d9
f0
10
f1
02
0e
e6
f0
01
15
00
e8
19
f6
ff
ee
e4
ea
11
ed
ca
e4
fa
ed
d1
fb
e7
e6
f6
14
ef
15
08
e8
f8
f2
08
d7
11
ee
04
0d
1b
14
fa
ea
f1
eb
d9
d0
df
05
17
e2
01
da
c7
01
e9
ee
11
22
0c
d5
f5
19
f5
f9
26
00
c7
1d
f6
17
f0
03
11
03
03
30
fa
f2
ee
f3
f3
ad
00
08
12
1f
d8
d1
0f
43
ea
f6
05
01
15
10
15
f9
12
fc
d0
08
f5
e9
fc
02
03
03
17
fb
d9
fe
08
e8
04
fb
ee
dc
ef
c6
ce
03
dc
0d
ec
02
34
b7
f8
2e
05
2d
14
f0
ea
fb
eb
32
0a
db
c6
f2
ee
eb
c0
05
e5
f9
1b
dc
0a
f2
02
0b
f5
17
1c
14
b6
ee
05
f6
dc
ef
c9
f7
1e
0a
14
ff
23
e9
ab
f0
d6
0d
09
d5
17
d2
f4
f1
08
ec
0c
05
04
25
f6
0d
db
06
23
0a
0a
24
f4
e8
f1
fc
12
18
18
20
0b
14
0e
f3
12
23
f1
01
01
06
1b
f6
03
ef
2b
1a
df
05
db
0c
1a
06
06
eb
f6
fa
09
f0
04
d1
e6
10
09
dc
fc
f4
f9
04
06
ef
0a
07
dc
ef
14
fb
fa
fa
02
00
0b
f3
01
01
e4
ea
18
fd
11
12
21
0f
c3
be
ea
d7
18
09
f3
0d
01
2b
14
14
fe
f1
0a
ef
15
fe
f0
ed
41
f0
fd
08
16
f5
cb
0b
08
fa
1f
23
1d
04
ea
fa
0b
08
06
15
1f
c7
f5
f9
19
03
e5
1b
df
f2
fa
0a
05
fb
0a
e9
05
24
19
ff
e4
28
eb
2c
12
00
14
ee
0d
42
fd
fc
43
1c
e4
ff
d6
ec
fa
f8
1b
10
ee
fc
ed
0b
2c
10
d8
f4
0e
e0
0e
21
cd
f6
fb
02
eb
18
e8
04
16
ec
fb
ed
f7
f4
2c
fd
36
14
19
22
14
00
fc
f1
e9
01
06
11
f2
e0
fa
0c
f5
ff
fe
16
07
0d
05
ec
23
09
25
ec
f4
1e
0a
fd
07
ea
17
05
d9
e1
e7
04
0c
f6
06
fc
04
15
01
12
2c
0e
f3
10
f6
f6
ec
ee
00
e9
09
e7
1d
05
13
f1
0e
2b
0f
f5
f6
f8
d0
d6
07
0f
02
0b
fe
0a
23
02
01
fa
fc
19
06
04
fb
14
20
2f
de
fb
06
fe
f2
eb
ea
d2
09
0d
2b
e5
03
f9
e7
fe
11
0e
f5
04
4b
d3
f5
1f
f8
32
d0
e8
db
f6
ce
1e
0e
de
f0
ee
f0
ef
c0
ed
2f
0c
03
c3
21
05
fd
dd
f7
ef
1b
18
d7
f6
0d
ff
fc
03
d0
f9