fd
fb
08
fc
f7
19
ca
ff
dc
37
22
12
ca
11
15
cb
0e
35
24
c9
12
e6
36
2d
e3
df
c8
29
00
cf
e2
1b
c1
e5
f7
d2
dd
dc
0f
02
ff
36
f1
fd
c3
35
e7
f2
f8
15
c5
ca
23
22
11
0c
ac
08
96
ae
d7
27
ed
17
de
ff
04
e9
df
02
1a
2c
20
ef
bb
2b
29
ed
b3
df
e3
e8
e2
eb
f4
ec
dc
f2
c7
0e
2e
e5
04
1b
fc
0b
3b
24
04
e0
bd
fc
05
d9
24
16
e7
3f
d9
dc
19
07
e9
87
f3
e3
17
38
cd
13
1d
e5
eb
e5
c5
ee
f7
30
fa
27
20
ee
c8
de
d5
ee
c7
0e
26
db
10
43
11
f6
0a
c3
0c
17
e1
f4
f5
f4
2d
f7
e0
14
b4
da
ea
ce
e0
c3
24
f6
d5
14
ff
dd
00
02
09
18
29
0c
ed
f0
b0
b2
f1
e9
d2
06
10
2b
d2
ec
28
00
fc
e9
01
00
c7
29
30
11
fe
28
07
f4
12
e3
08
0f
01
e1
ef
15
b2
21
bd
15
eb
fc
09
2a
f2
1e
11
36
dc
c4
d5
f3
f5
1b
fc
1e
1b
13
c9
15
fb
f0
f5
af
02
06
0d
21
15
d1
25
23
07
f7
ff
ef
1e
d5
cb
0b
e1
22
27
28
d1
03
d3
f7
12
ee
f9
2a
0d
e9
03
e9
d9
dc
da
d6
df
ea
20
cb
dd
f9
12
1f
f8
e9
25
04
e6
d8
f2
1f
e9
31
f7
f3
c7
e2
e6
b1
31
e9
be
f6
21
fe
eb
fe
f8
e4
ad
1f
27
8d
12
e2
0c
0b
05
15
ea
f2
db
b0
e4
f9
f9
ce
07
ea
de
fa
e3
09
1e
e8
0a
ca
0d
0f
0e
e0
b0
bf
d0
07
17
ff
19
e8
ce
ac
cf
ab
c0
e0
14
e3
a1
22
f3
f1
e3
cf
0b
ef
d9
b5
ff
0a
12
da
f8
f3
e1
14
e5
ff
da
15
21
0e
0a
25
01
15
0b
ff
d7
f7
36
24
27
ec
26
2d
bb
f5
e9
23
dc
28
e0
1c
09
e4
e2
df
13
f9
c1
25
f2
fd
17
06
28
23
db
cb
0c
22
0a
fe
e9
cf
f8
2e
d0
db
04
19
06
21
fb
17
35
f9
0d
0f
04
fe
30
13
ef
ea
f6
f6
1e
f5
bd
1e
ea
ae
bc
f4
0f
1b
fd
ff
f8
04
f7
ea
01
cd
03
ae
03
fe
f0
0b
17
21
17
23
27
df
fe
f7
e2
ed
0f
fe
e6
00
16
08
04
0a
da
05
ad
f0
1c
ff
f1
0b
d1
22
b7
f5
0e
e9
da
f2
10
0f
ae
c0
ef
01
30
eb
23
0a
cc
29
1a
0f
d7
c6
de
19
f6
a4
02
d4
cf
e9
1b
e1
16
2e
d3
26
f0
cd
0d
17
cc
fa
28
0c
fd
e0
01
e7
1c
02
12
d9
ba
f9
1b
05
e6
06
b1
f5
ff
ff
cf
09
10
ff
df
2a
de
e0
1c
14
14
0d
ea
2a
14
02
17
21
e5
f1
ef
e6
fb
e9
98
c5
cb
0a
18
d0
15
f2
18
c1
dd
e2
be
cb
15
33
d9
18
cd
27
13
1a
0f
d7
f7
11
f8
0c
bf
21
32
ce
0e
d2
0c
25
1a
0f
de
35
04
17
f2
17
fb
fd
10
de
13
e9
18
e5
e3
19
11
de
d7
35
cb
ec
1a
d4
f8
f9
da
1c
f6
f5
e5
02
f5
e6
ed
ee
26
f1
03
f0
f2
4a
1e
e3
f2
11
22
d4
f5
fe
b2
2e
04
02
eb
28
cd
24
ff
1f
19
f8
17
24
d7
00
de
c4
20
19
ca
11
02
12
e1
91
f7
16
0c
0b
0c
15
07
2e
1d
14
b3
d5
06
f7
e6
de
f1
db
1d
d5
fa
ce
e1
14
f2
17
ab
d0
0c
2c
d8
e4
d5
d8
33
2b
14
19
dc
f7
e6
0e
f2
e8
c9
f1
09
ca
26
b8
f1
ef
08
ec
d1
d1
ce
26
15
d1
fa
21
e2
f7
dc
eb
e2
22
1f
c5
e2
ec
02
ef
13
d5
2d
07
d9
1e
fe
03
0f
02
df
ee
06
e1
19
d9
21
c5
0e
de
03
23
09
f1
05
e8
15
1f
fe
27
f2
01
bf
a7
2b
f5
22
cd
fb
19
01
cf
00
e4
f1
b4
cb
e9
be
0e
fd
16
fc
21
1c
ef
e3
0d
d4
01
29
22
1b
df
1b
a9
aa
eb
15
cc