08
f4
13
f8
0a
08
09
06
0d
f5
02
f8
f9
20
f3
0f
ef
fe
fb
fc
07
f8
ff
fd
fa
ea
fc
f0
04
10
f7
f5
0a
f0
12
fe
fb
ff
0b
f0
f1
f2
fb
f1
f7
04
0d
fc
07
fa
17
fc
06
fb
e0
fa
05
f1
23
f6
08
fe
f4
00
0b
0f
11
0d
02
f4
08
00
fc
f1
fe
f9
fc
0b
ff
fb
04
f5
03
ff
0c
08
00
f8
09
09
f2
0f
01
fb
f5
08
03
f8
fc
0e
07
fe
fc
09
10
f2
fa
f6
f0
f7
f2
00
f5
fd
01
e6
01
09
ed
03