0b
f5
f1
fb
01
ef
f0
de
2b
fc
0c
fd
01
ef
19
05
ff
ec
d2
d7
0c
fd
e3
eb
bd
2e
45
21
d0
c4
07
14
17
1d
cf
00
ff
05
fc
1c
f2
eb
f3
f8
09
da
e0
ee
ff
f7
dc
bf
f9
3e
5a
e9
08
08
1d
2f
f8
00
1b
48
d1
01
04
07
2a
0f
09
03
30
f8
19
f2
20
14
1b
0b
f6
00
05
18
0c
18
1a
18
de
f8
32
15
f3
f7
24
05
18
0d
01
1f
07
02
f4
d0
eb
fe
2b
35
0a
ee
12
04
1b
06
11
09
fa
e4
0e
0c
f0
c4
d7
fc
f7
06
05
30
04
27
06
2b
24
27
00
17
14
10
23
0b
06
0a
0e
eb
02
0b
06
06
13
c9
36
04
d6
de
e2
03
fb
04
17
14
18
f3
05
29
2b
0a
f6
09
09
1b
dd
ea
06
06
f2
3d
05
fb
ec
f7
17
f8
f5
18
41
03
12
f9
03
10
07
fb
f8
f8
c9
ee
dd
e8
d1
cd
eb
d3
b3
ea
09
1c
fb
02
d6
01
2d
04
d9
08
00
17
fe
03
11
0c
fe
f3
e6
f4
ed
1b
27
13
17
0b
04
1a
19
09
03
0b
f5
ff
fe
20
ea
07
05
00
1a
e7
14
0b
0d
f9
28
44
46
0b
f9
fa
fd
f8
1d
06
e6
10
04
fa
20
f8
18
f7
e1
05
b9
e6
f9
16
ee
22
17
00
06
d7
0a
19
2e
19
0c
f3
fb
f3
f2
13
e1
ef
d4
d9
f2
a4
ea
e6
ee
f7
f0
d9
e4
d3
e5
21
0b
ee
0d
2e
22
fe
fe
18
18
1e
f7
f9
04
11
e5
d3
dd
c0
c7
20
1f
04
0f
e3
42
15
05
22
23
ea
e0
0c
2d
08
14
c2
22
fb
e6
eb
b1
f2
e5
f0
f6
05
01
be
b7
0c
fc
1e
29
02
04
fa
03
08
36
dc
1b
10
08
16
f0
ef
d4
e8
f9
03
e7
e1
03
2d
de
f7
04
3a
21
eb
ff
08
fe
eb
02
0f
dd
f5
1a
09
19
08
ee
d9
ef
e9
00
fb
fa
f8
04
01
03
f9
fc
fc
fb
eb
f8
08
ec
f6
eb
f6
f9
e7
eb
fd
05
fc
fe
16
07
04
fb
0f
fd
f0
f4
02
f5
e5
ec
04
f9
f6
f7
ef
fa
f8
f8
f7
09
fa
fe
0b
f6
e5
12
ee
00
fb
fe
0c
fa
13
10
17
13
fc
f4
0d
f7
00
00
f0
f8
f9
ef
f4
08
f4
00
fe
f7
0a
ee
10
f3
f6
0d
fc
0e
ff
f8
f6
f9
0d
f5
fd
ff
ee
fa
f1
f1
fc
07
ec
eb
fd
08
07
fc
ef
fc
fd
f7
01
04
03
ff
f7
fa
f3
0b
03
f7
fa
04
f9
f5
08
05
0c
f2
fd
fa
f5
f0
ff
07
f4
fa
ff
f9
f7
07
f8
eb
fe
02
f9
ee
f6
f2
f8
fd
ea
ee
f2
fb
f2
02
e9
0a
09
ec
eb
02
fd
ec
e3
f5
02
fb
f3
f4
fb
fc
ef
e8
ed
eb
eb
0a
f8
e6
fb
f2
f0
f8
ef
01
fd
fd
07
f9
fc
06
e3
fb
f0
f3
fc
f4
f7
ed
e2
f7
fa
f0
09
fe
f9
0a
f2
f2
06
01
f7
f4
e9
0a
00
f1
f6
ff
fa
f4
fb
f1
ff
07
06
07
f8
04
f2
05
f2
fa
02
eb
f2
fc
fc
f2
ee
f6
f0
ee
ff
eb
ff
0e
fc
09
11
00
ff
fe
f0
03
fb
ec
e9
ef
f3
e8
f3
fa
f4
f7
e7
ef
07
e8
f5
fa
f4
02
ee
f5
01
00
13
f0
fe
05
0a
f2
e7
eb
10
f7
f0
03
05
0c
f9
f3
fb
fb
01
f5
fd
ec
e3
e3
f1
f2
eb
ff
fc
f3
eb
f5
f4
09
09
f0
f9
0c
fc
0c
ff
00
02
f7
15
fc
ff
fe
ef
f9
fc
02
fe
0d
fb
07
00
0d
05
03
f2
ff
0b
04
ef
f7
ff
f5
02
ff
fd
fd
ec
f1
05
fc
f2
e6
01
0f
fa
fb
fc
00
f4
ef
f7
fd
0b
04
04
05
00
fc
04
ee
00
fa
e9
f9
f0
eb
f2
f4
f6
f7
03
ea
ff
f7
f8
0b
fe
00
f0
e3
ed
f1
0e
eb
0a
0d
ee
fc
04
04
2c
23
10
f5
1e
2c
20
ff
0a
fa
19
2d
1c
c4
d6
41
53
3d
e9
fe
0c
24
31
f1
0f
fe
01
f7
05
16
08
0b
2a
03
0d
22
22
03
17
1a
35
f1
d2
02
20
14
f6
13
fd
02
0e
fe
14
f9
13
fa
dc
0f
f9
d6
e8
c7
e0
d9
d9
f6
e3
1a
04
fd
0d
fb
09
19
1e
10
ef
f1
07
f7
f8
04
ff
fb
df
03
0e
f5
ed
d4
d9
06
fd
fa
f5
fa
07
0c
ea
e4
fb
21
0f
f6
c5
e0
eb
f9
d8
e2
f4
e0
f6
0d
19
11
f2
fd
f7
00
e1
16
0e
fa
01
e2
00
22
03
ff
d7
dd
28
10
fc
e3
ca
22
fd
e2
d0
15
4b
ed
f1
e8
e3
f1
fb
f2
04
fd
e4
04
0b
e7
fa
35
f8
e4
ef
fe
1f
1e
20
f8
d0
e3
f9
f8
ec
f9
f2
ec
fb
0e
18
12
1f
0e
1c
2b
13
02
fd
0e
e1
13
e6
eb
ee
09
08
10
01
04
08
f5
13
e9
23
30
f1
0e
de
17
10
15
db
f3
fe
12
ea
e8
11
fd
fa
fc
ef
f2
f5
f4
fb
fa
05
f4
ff
f3
fa
24
08
ed
f3
f6
ea
fa
e7
d4
ff
d1
dc
f2
08
e8
eb
eb
2d
03
f7
f1
00
ee
e9
03
1f
fe
d3
f8
ef
10
33
e2
e1
45
25
17
da
bf
fc
f7
15
10
0f
03
ec
ec
ff
ec
ec
f1
ea
ff
fc
de
eb
f8
12
f3
41
04
29
2d
f5
06
19
15
10
03
00
11
21
07
08
e9
f4
0e
fb
f4
15
08
00
e8
d0
f1
0d
0d
eb
e4
ea
08
0a
ef
fe
bb
ec
1a
ef
e5
ff
00
0d
ce
eb
00
05
24
f5
0b
32
0d
21
1a
15
fe
fd
fe
0e
0f
09
0b
f8
14
18
f7
f1
ee
14
00
f8
f9
fc
f8
dc
ff
07
0f
f6
c2
07
10
1b
e3
c3
09
ef
f7
09
20
18
12
26
22
ea
06
05
f1
c2
f5
e6
f0
fa
0a
2f
fc
fa
00
ed
f9
0a
ea
01
fb
ee
02
ff
ea
fb
eb
01
fe
01
fb
03
fd
05
f1
fe
fb
e9
f8
ee
ed
f4
fb
00
06
f8
f4
ea
03
ff
f4
03
f6
f3
f0
fc
01
0a
02
f0
00
02
f0
f2
ff
00
f7
f1
fc
f3
02
f8
f9
f3
01
fd
fa
fa
01
ff
06
f6
e8
f1
fa
02
f8
01
07
f9
07
fe
07
f6
03
ec
fd
f4
ff
fd
f4
f4
f8
02
eb
02
f8
fd
fa
01
02
f7
fe
f1
01
f5
ff
05
f6
fb
f7
00
fc
f4
ef
05
f1
04
fc
ec
f6
f6
07
fe
03
fe
f9
02
f2
06
f5
02
ff
08
f5
02
f8
ec
f7
f7
f7
fa
02
03
fb
f4
03
fa
fe
0a
ef
0a
ef
00
ed
f7
fd
fe
f2
f2
fb
fd
ed
09
f7
ef
ff
ff
fa
f5
f0
00
fe
f1
ee
fb
f8
fe
ff
ea
f9
f4
08
f1
02
03
02
02
f7
f8
f7
00
f5
fe
03
f1
f7
f6
f3
f0
f2
fd
09
07
fd
f1
fc
f6
fd
ff
ed
f5
02
f6
f4
f7
09
04
00
f4
f1
0a
ef
fd
f7
f8
fd
f3
fe
05
07
fb
fd
f7
f2
01
f6
07
f2
f4
04
0a
06
ea
f9
fc
fb
0a
02
f0
f8
ee
00
fe
08
fc
f7
fe
02
00
fc
07
f7
f7
ff
fd
f0
00
ea
f1
f3
f4
f6
f5
02
fd
ee
05
f3
f6
01
00
f8
04
f3
f6
05
04
ff
f6
f9
f0
f3
01
fb
fe
f1
06
fa
fc
f2
01
f9
f0
fa
01
f6
f4
f3
09
fe
fd
f2
02
fd
00
f5
fa
fd
04
08
f3
fb
eb
f9
fe
ff
fe
f2
f7
eb
07
f6
01
ef
fa
ff
09
f4
fc
02
fc
f5
ee
fe
00
fe
f2
07
f6
f6
f6
fd
ee
03
f8
00
fb
08
0a
fc
fd
f5
f2
fc
f4
fe
fc
fd
f6
07
f4
f2
f2
ef
f8
ff
04
f6
f7
08
f5
f3
f4
f2
f4
05
fb
05
f2
00
f6
f5
fa
f7
04
08
f9
01
f6
f3
f0
e1
f2
d6
c4
b5
f7
ed
f5
f3
d4
ce
e3
1a
0f
0f
29
0a
fa
05
ef
13
31
01
05
06
0f
02
ee
ff
fb
0f
02
f6
e9
f2
10
ed
02
03
f1
f9
f7
04
05
05
ee
02
07
1a
01
de
0a
3e
49
44
0f
35
27
0c
05
f2
2b
15
ff
a3
f7
e0
10
0e
c2
fd
0d
1d
eb
f7
1e
3e
23
15
1c
f2
ec
0c
e0
d5
f2
1d
24
c9
95
fa
08
0e
df
e8
34
3e
1f
ff
fe
03
28
2b
1f
27
d1
e9
05
06
19
27
26
00
ef
ec
ed
04
1f
fc
10
13
0c
06
06
10
34
1d
07
de
b2
1d
13
f4
cc
c7
0b
18
19
e6
e5
0a
29
0a
02
ec
ff
0b
30
37
0b
00
ef
ef
09
20
dc
f6
0a
15
33
fe
e7
f0
0f
28
04
f1
ee
f9
ea
03
18
1b
14
05
e3
ed
e0
fa
fb
e8
0b
20
17
09
e3
ee
0b
12
16
21
1a
0e
04
07
04
0b
fe
f7
1e
6c
fa
26
1d
06
d4
0d
0e
ec
ec
f1
0e
19
00
f3
05
01
01
04
09
25
10
09
f9
f8
07
35
fa
ca
e3
17
1f
ff
c2
9e
df
fc
fd
d7
e8
ec
f5
fa
f9
e5
e5
0d
1e
01
ed
20
3f
2b
d6
d2
11
02
06
d1
bd
0e
09
23
01
00
f1
0b
25
13
0a
f3
fb
f3
11
de
d9
09
09
1a
06
09
1a
10
f5
fb
fd
fc
f4
f8
d2
06
ff
f1
1b
0b
ec
f3
04
12
09
e0
f4
0c
17
21
e7
f5
00
1e
16
00
fc
fd
e3
e8
05
09
01
0e
15
0d
03
0b
f2
05
f2
14
07
f3
ea
12
1e
2a
ff
d7
b5
ee
0e
19
21
0c
fd
07
1a
0b
ee
04
e1
02
16
ca
f9
16
f6
13
eb
f1
fd
04
23
21
11
f1
08
fb
e6
f7
13
00
fa
09
15
10
09
0e
d4
e5
03
f5
16
c3
e7
0a
05
16
af
d6
d1
c6
15
fd
09
05
fb
0a
f6
1f
0a
fb
1a
04
13
1b
ed
0c
db
e3
0d
fd
03
0f
31
1b
00
09
37
19
0d
02
e0
e2
d9
c9
00
10
ad
f4
08
15
f9
e7
1a
ef
f4
eb
01
0f
fa
ee
f5
f7
e6
18
fd
fe
ff
f2
0c
2e
25
23
20
ec
bb
e0
e9
0d
2d
21
ee
1b
1f
2c
09
2d
1f
f8
ef
0a
03
0e
fc
fb
cc
bf
17
f4
e6
03
08
eb
09
18
1d
ec
03
f1
f1
24
09
1b
fe
21
1b
ff
13
1f
f5
e6
e3
f5
f8
fe
2a
13
e4
ea
d9
f8
07
d7
fa
0c
0f
16
f7
f1
d1
d0
e5
13
18
f7
ec
00
04
ea
f8
2a
20
03
06
fd
ee
0d
f8
d4
ec
11
fc
0b
fc
08
f0
e3
16
1a
24
ef
ec
f4
00
f5
1a
14
ee
e7
eb
f3
db
05
06
f1
f2
f9
e4
02
fe
f8
11
fe
0b
02
fa
ff
be
dc
0b
05
f7
cf
d0
f0
ff
11
19
2b
07
02
f2
16
ff
ea
0e
11
cc
d4
05
1d
48
3b
0b
23
30
f1
fc
fb
1a
ee
e1
f4
ca
f5
1b
17
f5
15
03
ff
ec
fd
09
02
df
f5
ed
01
ff
fa
e4
09
fb
01
14
06
0a
fb
07
0d
fd
0b
0a
0a
f2
ec
1a
0b
10
ef
d6
c7
f1
e7
e6
eb
f5
0e
14
04
03
0a
ef
f4
f4
ec
f4
dc
eb
f1
f8
22
0c
0a
27
19
9e
d8
ee
f5
f7
e9
fd
0f
06
dd
1a
0e
ef
de
f1
e7
ee
0c
0c
f5
e3
0b
16
21
38
ef
10
21
08
f2
dd
ef
cc
ec
ef
c3
f0
f0
e7
f0
0e
08
ec
e6
f2
0a
07
f0
f9
22
f6
f6
fa
f2
d6
e5
dd
f7
03
f1
08
16
f0
f2
da
01
1c
05
dc
e5
da
0f
e9
fb
f5
dc
f2
fc
29
39
e5
e5
e5
ba
da
ea
fa
ff
df
ed
01
ff
0d
e6
d0
18
06
ea
ee
01
15
21
1c
c3
a5
ed
e0
e6
ff
f3
07
20
23
f9
ea
12
14
08
f9
0a
e4
d2
bf
be
12
f9
09
00
fb
f2
f8
08
fc
09
f2
fb
f6
f5
0b
fd
f8
00
f4
fd
03
04
fa
fd
f5
06
f8
08
fc
0b
f4
f9
02
03
07
09
fb
f9
0b
f4
f7
ff
f8
09
f9
ff
ff
06
07
f2
ff
fd
f7
f6
fd
01
f5
ef
ee
03
f2
fa
fe
f7
02
05
ff
01
fd
f6
ff
00
04
f9
fb
fc
05
02
fe
05
04
ff
ef
fc
05
f3
05
fe
09
fe
ff
08
f2
fe
01
fd
f0
01
f7
08
f7
f8
03
06
08
0b
f6
07
01
07
fe
00
0b
fd
f9
fc
f5
f7
01
01
fb
f3
f3
f7
07
00
f7
fd
f3
f5
f6
0a
f4
02
ff
f2
fc
f9
fe
03
f3
f6
f9
05
f7
07
04
07
f2
02
f4
f6
09
07
06
04
fe
07
05
f2
fc
fe
04
02
03
f3
f8
f8
f6
08
fb
fe
02
09
ff
fe
0a
f1
f1
07
00
f6
03
f6
03
fb
fc
f8
f4
fd
f7
fb
fb
fa
06
f7
f6
f4
ef
fc
03
f3
f6
f5
f4
fe
05
f2
03
f6
fa
02
fd
06
07
04
fe
fe
08
04
05
fe
0a
fa
03
f4
f2
05
fa
fd
01
f2
fa
02
00
00
06
f8
f5
07
f2
fa
ff
fc
05
0a
f1
f2
f3
00
05
f4
f4
f9
f6
09
04
f2
08
f5
f3
04
fe
f7
fc
0a
0b
f3
04
f3
fb
ff
05
03
f4
fd
fb
f7
00
f7
05
04
08
07
f9
f5
f5
fc
04
fc
03
08
0a
f7
fe
fe
f5
f2
f3
03
04
0a
ff
f6
fe
0b
ff
0b
f8
01
f4
ff
03
06
04
05
08
08
f4
f9
03
f8
f8
00
ff
00
06
f7
02
02
04
f4
f9
f9
06
08
08
01
fe
f7
f6
01
f8
f4
04
00
f9
03
fd
fb
09
07
f8
fd
f3
09
fc
fa
fb
02
f7
fa
02
f4
f6
02
f8
f2
00
ff
fb
0b
fe
f2
09
f9
ff
f4
fd
00
05
f8
00
03
fe
02
05
04
03
f4
f3
f3
02
fa
0a
08
09
03
01
ff
f7
fb
0d
00
ea
f4
f9
30
12
fd
fb
16
15
e6
ff
00
fc
15
0f
08
0b
c3
e8
09
16
1f
06
d0
03
15
1c
04
10
10
09
06
fb
0f
02
18
05
e1
ef
ed
01
02
fe
fc
ed
e2
e9
0a
23
03
0a
e0
0a
e3
b6
d7
e2
15
ea
ef
17
0e
2c
dd
17
e7
db
e4
d0
fe
f2
1a
1e
18
09
f2
e3
ea
e5
de
fb
e2
f0
d5
0a
f9
d9
f1
15
29
d8
ec
de
d9
fc
00
20
cb
eb
26
21
14
db
05
0f
05
fe
f9
fd
09
f7
eb
f9
ea
e6
ea
ca
0e
14
01
00
0e
24
f4
e7
e5
f1
23
f7
b9
ee
f1
0f
f9
ee
ec
c3
21
ef
f0
fb
03
00
fe
e6
0f
2b
d4
d9
08
f7
3a
02
04
17
f3
19
f8
fb
fe
07
11
e7
f5
05
08
ed
e9
e5
ef
ef
f7
f9
1b
00
fd
23
e6
ff
02
e3
e8
dc
e0
fb
ff
f8
cd
d8
13
04
ec
e0
fd
09
0f
ee
ba
f6
0e
f7
f9
d9
cb
10
15
fe
f4
f9
0f
e9
f5
d6
fe
04
fb
d8
e4
14
11
08
15
21
06
fa
f5
f7
29
20
f4
e1
eb
2a
23
fb
f1
e9
22
0e
e8
06
fc
15
13
d0
0d
ed
01
e3
09
e8
ec
1d
01
df
fa
e6
f2
02
e6
07
04
f8
05
0c
df
fd
12
26
01
e4
fa
ef
1f
11
f4
10
05
08
ff
f3
e3
f1
df
14
25
e4
ec
f5
02
f6
f3
13
17
ff
de
e7
e9
14
14
0f
11
e7
fa
04
eb
09
06
f6
e5
e8
f1
e6
d2
f9
ff
12
0a
08
16
11
02
ee
19
fa
fa
05
13
2b
0b
ca
db
ea
1d
fb
e4
f8
d6
de
1f
f1
1b
f2
ee
18
0e
0c
f4
0d
fd
14
23
f6
fb
e1
f9
06
0b
0d
f4
fe
07
e8
d6
ce
0a
ec
27
14
fa
fb
04
11
0e
02
15
ff
f4
06
fd
e2
f9
23
1c
f3
fd
20
1f
fc
f1
25
04
ee
ca
ee
fd
f5
ef
f5
04
1d
13
0b
0f
13
03
0a
0b
f7
00
f0
f2
f8
04
0e
e4
bd
fb
dc
dc
08
e6
2d
de
02
d1
d4
09
e3
e7
e8
df
1b
03
f3
c7
04
08
14
0c
06
00
fd
f9
14
0f
20
d9
f1
1d
3f
1d
16
16
1c
24
20
1d
fd
fa
02
e5
19
ee
ed
fe
12
0a
01
19
f7
ff
fc
22
23
26
19
0f
10
06
0a
1f
21
06
0f
03
0c
ff
15
ec
fa
04
09
1d
09
09
ff
fb
df
d5
db
f4
df
c1
ed
e6
e8
ff
f2
fe
11
0d
ff
13
0c
f3
0d
21
fd
01
f7
e7
03
22
41
06
f7
15
2a
27
12
e9
15
11
14
fe
f8
26
04
11
e7
0d
10
f7
fc
e9
e7
15
d0
b4
cf
f5
fc
c3
c1
c1
ff
0d
04
fb
f1
f2
03
17
13
ea
0a
01
15
09
eb
0a
26
fb
ea
e6
fa
10
f1
e4
fa
ee
b7
e6
ed
01
07
d8
e4
e8
08
06
f6
f1
da
de
f5
c4
d5
bf
ef
1f
e7
d2
cb
f9
26
ce
03
08
eb
13
03
02
08
f5
0c
1f
1e
ff
0b
f7
1b
1e
19
1d
2a
01
11
0b
0f
f9
0c
19
05
12
f3
23
2b
02
fb
e8
0b
24
03
f2
ce
1b
13
20
0a
25
32
18
14
f6
16
0f
03
ff
ef
15
f2
15
09
f9
f6
e7
f0
e6
18
f8
f6
aa
9d
f5
cc
d9
f7
09
ec
fb
e4
23
12
03
16
1e
11
0d
f7
0e
c1
02
f4
07
02
96
9b
99
c0
17
be
ba
c2
db
ef
13
06
06
14
09
09
08
1a
01
09
f5
f1
f7
e1
f3
ca
de
f7
ee
05
fa
1e
22
1e
1b
ed
1c
31
0e
22
f0
02
18
08
0a
c2
a7
bb
e6
fd
08
dc
b4
b5
bd
e2
c3
d0
cb
d5
11
1b
09
ff
f0
05
0d
f7
10
08
0e
0d
05
f4
fa
dc
cf
dd
1a
29
eb
f8
12
00
e5
09
ef
fa
1f
ca
0a
ea
e7
c7
af
06
fc
f5
ca
e0
fe
fa
f4
fa
e7
03
04
fc
f2
e8
00
f9
fb
ff
00
f3
f5
f3
fe
ff
f3
fc
04
ff
f9
01
f5
06
fd
ed
fa
f6
f0
08
03
f7
00
05
fb
07
f0
f2
f8
0b
f5
f3
ee
05
15
ff
ee
f3
f9
e6
f6
ff
02
02
dd
04
0a
00
01
eb
f7
f6
03
09
ff
f6
07
fb
fc
ff
04
04
10
ec
f9
0c
fc
02
eb
00
0a
fa
01
07
fc
f8
f9
f4
06
ef
f9
07
fd
fe
06
04
f7
f6
08
f0
f4
02
fc
fe
ed
04
f4
f9
f6
ec
04
fd
03
ff
f3
ff
fb
ec
fd
eb
f3
fc
fc
fc
f0
ec
ef
f8
f9
f7
fd
ef
ea
04
04
f1
f1
f0
f4
f2
fe
ef
f2
fb
f1
f4
03
fe
ff
f2
f0
fa
08
fd
05
f5
f6
ed
ed
fa
fa
e9
fb
08
06
0b
ec
e8
fc
f0
ed
07
00
03
f9
fe
00
00
fd
fc
fb
0b
04
ff
fe
fb
f8
ef
fa
fe
f8
04
00
fd
fb
fb
fa
fa
f0
fa
f3
09
f5
fb
01
ff
f9
ee
f2
f9
00
08
03
f8
fe
eb
04
f1
ed
eb
eb
0b
f3
05
06
ed
f3
04
f5
fe
ff
01
f9
f0
04
f3
f3
f3
f5
f9
01
03
ef
05
03
f8
0b
02
fb
12
e8
0a
f0
08
09
f3
02
07
ee
fa
06
00
ee
ef
f5
f3
fb
f8
00
11
04
0c
0c
fe
03
fc
f5
ef
ee
fe
01
f7
fa
eb
02
fb
ed
ff
ee
f4
ea
0f
fd
06
0a
08
fc
f3
f6
06
f3
f5
f4
ef
f9
f9
ee
f7
f3
fc
07
fb
f0
fc
f2
ef
f5
f1
03
f6
fd
fc
03
f7
f6
f5
00
fb
fc
05
f3
ec
fb
ef
f1
fa
02
fb
f5
fd
01
f1
09
07
ff
fe
0a
03
04
f7
ee
fc
ee
ef
ee
ec
f6
05
fc
f5
ee
fb
fa
f4
f4
e9
f8
05
06
01
04
f0
ef
fe
f0
e4
f2
f0
f9
f2
fe
f2
f7
02
e7
f2
fd
f2
09
fa
f1
fa
f3
f0
00
fe
ed
f3
f2
e4
f3
f8
fc
07
1b
e6
16
14
28
0e
22
00
0a
f2
31
3a
e2
fa
28
11
16
0d
1e
e0
e7
09
26
16
01
07
f5
09
fd
09
15
11
e9
eb
ef
05
10
15
12
e8
de
c1
eb
f8
fe
11
30
ec
e6
fd
07
14
0d
09
0d
d6
e7
18
fc
08
eb
e2
e5
f2
f2
09
18
fb
eb
e6
f2
21
e8
d0
f4
ec
f9
11
fd
1d
ec
eb
1b
15
20
eb
00
fa
ea
fa
01
1a
ed
f7
20
1f
21
f8
07
06
f3
ff
21
fc
05
0e
eb
e7
e9
fa
08
07
fa
0e
08
06
18
0c
fb
e4
e7
f7
02
1c
fb
09
0e
03
ff
f4
db
0b
18
06
06
0e
1f
f2
d1
09
19
2b
f0
da
e2
03
1f
f9
ed
0f
0b
17
f3
ff
ff
fd
16
f0
ed
04
18
fe
07
01
0f
02
e7
0e
13
ed
f4
04
1f
2c
09
24
17
21
04
fe
f0
1f
13
e6
e2
d5
e4
d4
06
16
08
db
bb
d3
0a
04
08
ea
e0
07
fd
fa
1d
03
18
09
04
00
f1
05
26
19
0f
f3
f4
02
1b
fa
03
f7
fc
fa
f9
0c
05
f2
fa
13
20
08
fb
f2
2c
f8
ef
f7
0d
ea
ff
ed
fd
2e
19
1b
ee
d4
e9
0c
f8
0e
c3
bf
0a
02
1f
04
03
0c
21
ff
d5
f6
22
33
c7
d5
cc
0a
2a
21
e6
e8
0a
1c
03
f2
eb
c1
cb
f2
17
14
df
d0
e4
e5
e5
12
08
f4
fa
e2
e2
e7
0b
14
1f
09
03
16
1e
0c
05
f4
03
05
f1
03
f5
0f
18
f5
13
07
0a
eb
f7
f0
37
0a
d4
fd
0b
1b
f8
d2
e7
f7
fb
06
fe
fb
ee
0e
ff
e8
09
1b
fb
01
e8
f9
ee
00
fc
f7
0c
11
0f
06
1c
0e
03
f9
ea
23
16
d5
f1
01
0b
25
0c
0a
06
ea
d5
f9
0b
14
0d
14
d8
ef
00
1a
24
05
2f
22
ff
fe
04
fd
ff
02
0a
ff
e1
f1
1c
2d
d7
e7
fa
eb
ef
07
fd
1a
0f
d8
0a
f7
d6
e1
18
f9
06
03
fd
e5
1f
fd
d1
ec
eb
ea
f5
03
e9
b8
d3
05
fb
de
ce
df
e5
fc
cf
0a
f5
df
10
ed
fe
f4
fc
1a
33
0b
e3
00
2d
41
08
0b
33
24
1d
14
08
1a
de
10
f9
07
1f
d3
17
03
11
08
3d
ec
f9
ef
0b
1c
1d
10
1e
f9
06
0b
02
1f
0f
ec
0c
06
0f
02
e7
02
00
12
26
14
f9
e9
f4
f0
da
fe
05
eb
ff
ef
f7
eb
19
f5
ff
f3
fd
3b
34
29
12
15
10
08
21
22
14
f3
05
10
ec
da
f7
fb
13
fb
ec
06
17
01
fa
09
17
07
0e
14
11
13
fb
eb
f3
e9
0d
fe
d7
c6
ee
f9
f5
e9
c8
d2
ee
05
d8
e2
c8
fe
10
13
00
05
01
01
16
28
2c
e4
f7
fa
f0
ce
02
05
f0
11
f4
c9
ca
e7
16
15
e4
d6
db
37
2d
0d
08
0b
ee
14
e4
e9
da
12
0c
fb
0e
db
07
fd
10
22
f3
ea
f3
07
f4
21
f6
0f
fc
11
1a
20
09
fd
14
05
0e
15
05
f5
11
16
d7
02
1b
17
0c
e7
11
0f
11
e9
e9
05
1a
ea
e3
e2
e5
13
2e
00
f2
f5
03
e8
f8
ca
ea
eb
fd
ea
de
0b
fd
21
07
0c
02
dc
f3
20
f8
16
f3
d1
e7
ce
ef
e1
1b
14
08
02
07
25
0e
f8
35
0c
16
0e
0f
fb
04
fe
19
1c
e8
cd
ce
da
e0
1b
e9
e2
d1
c8
fe
06
e4
ec
05
ec
e9
02
24
0e
fd
fa
f7
03
14
1e
e4
fa
f2
25
0c
e0
1d
13
f3
08
ed
0e
0a
04
fd
e3
25
1f
03
d1
fd
e8
08
08
d6
fc
e3
b7
bb
04
fe
0d
e2
ca
f2
21
03
db
f5
12
1c
fa
09
12
0c
03
08
0b
15
de
f7
fd
17
23
e7
1e
0c
e4
fa
f7
fe
f6
f4
11
e7
fc
0c
f4
04
08
0e
05
ea
14
0d
f3
0c
fe
10
05
e3
cd
fe
db
17
09
fd
d0
cb
04
01
12
09
06
f9
ef
be
ee
e5
22
fe
ee
01
f3
26
1e
dd
e5
e4
04
24
07
e2
f2
e2
f8
13
25
0b
aa
eb
fa
fe
da
01
09
e9
e4
33
f8
c9
de
00
2c
cc
f3
1a
07
ef
da
d1
fa
b6
d1
ff
f7
d7
d9
17
03
db
07
1e
27
c6
f1
dd
34
2b
ce
14
e3
05
01
e6
f8
e0
e6
f1
ee
bf
e6
ef
2c
04
13
08
fa
ed
26
20
18
09
33
16
04
d5
e3
e7
ef
e1
da
00
17
c8
99
be
e2
fb
fd
de
23
1b
24
e6
e8
2f
12
de
d1
f9
0c
ec
c0
03
16
f2
c1
1a
17
2a
f1
f1
47
03
0c
1a
0b
f2
0a
13
fc
fa
24
0a
05
e2
05
e8
0f
05
ff
e9
ff
e4
16
19
f4
e5
18
03
0e
fb
03
11
02
e6
da
e0
25
23
24
1e
e7
fb
12
21
13
19
c9
a7
bc
cf
cb
3c
2c
01
d8
0e
17
01
0f
e5
27
1a
dd
d4
d6
f4
29
d9
d0
f3
19
00
d5
b6
ec
fa
13
09
fb
fb
14
ee
ea
09
2b
2c
fa
cb
fc
1e
18
f5
04
19
04
e9
14
1b
18
08
0a
20
f9
ed
0d
23
ec
04
ea
15
07
e6
0f
11
11
09
ea
e0
04
01
de
d2
2b
07
f4
d3
29
16
f5
df
0c
28
0d
f9
f0
f8
04
fa
13
14
16
16
1a
fd
30
18
a4
e5
ce
d8
f4
1d
03
0f
05
30
1c
0e
f2
08
40
1a
ed
ed
f7
0e
07
0c
0c
20
20
cb
db
fc
05
db
0f
14
e2
05
fc
2b
e0
d6
ff
0b
e5
e7
0e
22
ea
f3
f2
04
2c
12
e0
e0
fb
fb
e5
1b
18
0e
fa
f2
0f
16
ff
15
f8
17
04
05
02
1e
e3
13
20
29
2c
c8
d5
ea
10
e3
06
13
01
0c
1c
03
08
e4
08
0a
09
12
02
f2
bd
2a
f7
cb
b4
d6
f9
03
dc
b2
94
00
f9
0c
ef
f9
02
17
1d
07
f0
f4
2e
03
fc
27
fc
ee
fc
05
2f
ff
0e
15
1b
1e
0a
ed
0e
ed
fb
0d
13
0a
e2
fe
fe
05
13
22
1f
e7
d4
00
13
02
ed
ec
ec
f1
e6
16
1e
1f
21
33
06
ec
f1
e4
08
f3
15
e1
e0
ec
fe
11
18
d7
cc
05
13
1a
ef
18
00
09
32
57
1c
db
04
f5
f3
fc
d9
05
0c
0c
fa
ef
23
17
f9
db
fb
f1
eb
fe
14
e8
f8
19
14
1e
f9
f8
e4
ee
22
03
de
e9
f7
db
07
03
1d
06
c4
1f
04
09
13
07
11
07
07
0c
04
11
05
e6
f2
01
eb
3d
d9
fd
f2
ea
2a
eb
0a
13
09
ec
d5
32
4f
ec
0a
dd
e5
fa
f7
04
0e
ec
09
03
0b
e6
0c
12
f9
0d
ff
05
e8
fe
08
fe
fc
ef
cb
03
10
f1
fc
c3
02
f3
08
04
d7
ef
00
0d
06
f1
e6
05
03
10
0c
02
fb
e9
00
c4
f2
00
1b
08
0d
1a
fe
fb
07
08
ee
12
fd
d6
1b
1c
dc
ed
c1
ed
00
23
2d
06
f3
f1
f9
08
06
0c
fb
1c
14
e8
0b
fd
18
fb
e5
01
f9
11
d7
09
eb
df
e6
ec
24
06
0b
25
fe
d9
f2
f4
1f
dc
c5
11
ef
15
de
d7
e8
df
3f
e7
02
09
03
14
ed
18
02
02
ee
1a
ff
fd
f1
ee
1b
e3
0a
f9
ea
33
0e
fc
e4
ea
13
fd
3c
13
ef
fe
fa
07
0c
07
0d
f1
fc
f1
f7
f2
14
22
20
ef
c6
cc
12
05
ec
f3
e3
0d
1a
0f
1b
0b
e5
f7
0c
14
fa
e3
fa
fa
04
c3
f5
ef
ee
14
d6
db
c8
e6
1a
08
00
f7
06
12
1b
e7
0f
0c
02
f7
f6
06
f5
ef
ff
0a
f6
e0
04
f0
05
08
03
00
f6
20
07
07
12
f4
11
19
fa
e0
df
f0
04
13
fd
ff
f2
ed
f3
e0
0a
ef
0e
fa
fa
fc
2b
18
08
11
21
fb
02
f6
fd
07
f9
fa
f2
fe
f6
f5
00
01
ff
05
f2
f8
07
fa
03
09
0a
fc
fe
05
f3
01
08
f6
fd
f3
fd
f4
0a
09
0a
fd
07
fa
0a
f7
f9
04
f7
02
f9
08
0a
f5
09
ff
f4
fc
fc
00
f2
00
f8
04
f7
f6
f6
04
f3
f6
fe
05
f9
ff
03
f8
fd
f6
0a
f6
fe
04
fc
07
03
fe
f5
02
0a
03
f9
01
02
f3
02
f8
f8
fe
fc
06
00
fc
03
fa
fc
f9
01
01
07
09
f6
f8
f9
04
f1
03
f1
05
fb
07
f7
02
fa
ff
f3
f9
00
02
04
07
f1
07
fd
fd
fd
f8
f7
01
fb
f5
01
f9
fa
fc
01
05
07
08
fd
fd
fa
fb
fe
f6
06
f4
fe
ff
f4
f7
f1
ff
f5
04
fe
f1
f9
02
05
fe
fe
05
07
f9
fd
f1
f8
ff
09
06
fa
06
fa
fe
f1
fc
f4
fd
fc
f6
f8
fd
0a
08
fd
f6
f5
06
fa
fe
fb
f3
f6
02
f8
f3
fb
fe
fe
07
ff
05
06
06
00
06
fb
03
f3
f6
fa
fc
09
04
f4
fc
f9
01
fb
f7
f7
03
09
f7
02
04
f5
fa
05
00
fa
ff
0a
0a
fd
0a
f9
fe
f2
ff
02
03
fd
f7
0a
01
06
f9
04
08
fc
f9
ff
f5
08
0a
00
f9
04
04
03
05
01
f5
f6
0b
fc
fe
09
02
07
09
03
fe
04
fb
fe
06
05
fb
f5
fc
03
f4
f2
fa
01
04
03
09
fe
01
fe
f3
00
fb
fb
fd
fa
f6
02
04
06
fc
01
02
f7
fd
09
fe
08
fe
f7
f2
0a
ff
07
fc
f6
fb
f4
02
09
f5
fd
09
03
f5
fd
f3
01
fc
07
f7
03
ff
00
00
06
fd
fb
04
fc
f3
fe
05
f2
fd
05
02
f7
f7
f4
ff
0b
fe
fc
f6
07
05
05
fb
04
04
fa
f2
f7
fa
f4
08
01
f2
fe
06
04
02
04
07
03
08
fc
f7
f2
ff
fd
07
07
ff
f8
f2
05
fe
f9
fa
fb
02
16
e4
f4
fd
2e
13
e0
fe
e2
60
40
1d
e9
fd
e8
0d
2d
f8
10
cb
b9
c4
1d
07
11
37
ff
fc
eb
09
0f
e3
ce
cf
f1
20
11
04
1e
f9
0b
1a
06
47
09
fb
ea
f2
1f
0c
00
dd
e2
45
30
d6
f0
06
29
26
f5
f2
07
27
28
06
e2
c2
cf
f5
ff
d7
fd
0a
06
ea
e8
e8
19
cf
d4
f4
dd
0a
01
d2
da
ff
08
43
09
06
08
e9
0c
e2
e0
0d
fc
e3
03
f9
f6
e5
f4
f1
ef
f8
f7
1f
0e
09
09
19
0a
f1
ea
0e
0c
05
ec
fe
fd
20
06
f0
20
15
21
04
f9
12
1c
f2
ee
f1
14
14
c5
01
27
e6
d5
fe
0d
fc
ef
2d
0d
2c
f7
f6
fd
05
f7
d5
dc
ef
0a
0e
11
09
14
32
ff
07
f4
13
4a
fb
04
ed
f4
20
f1
06
f3
ee
f7
10
32
04
e9
e9
2a
3f
20
11
0c
cd
dc
f4
00
29
99
d0
f1
fe
0f
31
25
10
fd
0a
d5
e1
0a
f9
09
2a
fc
e0
16
31
1f
f2
f0
f4
f7
fa
ed
0c
fd
f2
f5
f5
e4
ff
f6
f3
f9
e2
0a
14
19
fa
18
0c
e5
41
10
0e
f6
f3
3c
f0
eb
ef
e2
fe
10
16
43
34
0a
19
26
40
16
ec
f5
08
fc
04
24
04
05
e2
f5
3f
30
03
f0
ef
e9
d0
db
d4
f4
09
24
f8
c6
e8
0c
1b
1d
f3
2d
e0
0a
0b
24
22
23
07
db
cc
f4
da
f4
f5
ed
16
0d
09
ec
fd
4a
38
18
16
18
46
fc
0e
fa
1f
44
db
fd
fc
f7
05
ea
16
e7
e4
02
66
23
01
17
1b
0a
19
2e
fb
ed
b2
f7
fe
13
ff
f4
07
f0
02
09
d6
e7
04
0d
f9
01
f0
c3
e4
0a
4b
2c
fd
0f
2e
12
0a
fd
1b
18
ee
f6
01
0b
13
fd
f3
e9
d4
ee
36
0e
ea
f7
02
38
31
fa
eb
e0
29
fb
ff
f7
f1
dd
cd
e0
e2
11
fd
03
02
f6
f0
fa
fb
04
03
f9
04
f8
04
f5
0a
f9
f1
f0
fc
0a
f8
01
00
06
03
ff
02
05
05
f8
02
fc
f6
0a
f4
fd
f9
ff
f8
00
07
f7
05
fc
0a
f8
02
fe
f4
01
f2
f9
05
f9
06
05
fc
0c
04
0a
00
0b
f0
05
ff
f5
f7
04
03
f9
0a
0b
fa
ff
fe
fa
ed
fb
fb
f1
fd
fa
ee
fc
03
02
f3
fa
04
f1
ee
f4
fa
f2
ff
fb
ff
fa
00
ff
fb
09
f4
fa
f6
ff
0a
f4
09
fd
ff
fd
f6
f7
02
07
fc
06
01
f7
f6
04
f3
f2
05
fa
f4
f9
f4
05
fb
f2
02
f0
f9
f1
f4
f3
f3
ff
06
f2
f6
f8
ef
05
03
0a
00
fa
f2
06
0d
fb
01
fd
0c
fa
03
fa
f1
f8
f1
ff
f9
ef
fc
f9
f8
f6
f7
f7
f6
f8
f6
f8
ef
f9
f0
f2
ed
f5
f8
0c
fa
0c
f7
fd
fe
f2
f7
08
fb
f5
00
f5
f3
f3
04
05
03
ff
f5
ee
03
05
0c
f7
fb
05
ff
f6
0c
f3
03
00
fd
08
01
ef
f5
03
03
04
f3
fa
01
fa
ed
f8
fb
ef
f6
f8
ff
f7
05
f4
f5
01
f7
fc
f3
fa
00
f1
fa
fc
02
03
09
01
ff
00
f9
03
f9
fc
f7
03
fb
f7
04
f6
f5
f2
f2
00
ed
fd
fb
f4
fe
f1
07
01
00
0b
fd
f1
f5
fd
0b
f4
f4
0a
f7
0c
05
f5
08
0c
00
0a
00
01
fb
fb
fa
05
f3
fd
04
f1
f4
f8
0c
06
fc
01
fc
f7
08
05
fc
02
fe
f1
f4
f2
f1
f8
f4
f2
f3
06
fb
ff
f5
ff
ff
fa
f2
03
02
f6
f5
f7
f0
f8
f2
fc
fd
01
fb
f3
f6
f8
fb
09
f5
06
f4
f3
fa
00
03
f9
f7
03
f9
fe
00
fe
fe
f9
f6
09
08
f4
00
ed
fc
f1
f7
f4
03
f3
01
f4
f9
f0
f3
f3
06
ff
f5
f9
ff
ff
fa
f7
03
f3
07
f0
f6
fc
f5
06
05
f3
eb
eb
f7
f1
fa
fa
03
ec
fa
ff
03
05
01
fe
f5
f7
f4
02
ed
f8
fa
02
04
f6
f0
05
fb
ff
06
01
fa
02
f1
f1
04
f6
0a
02
05
08
fb
ef
f5
f9
ee
f6
fd
fb
e9
f6
fc
08
ed
fb
02
f5
00
02
f3
fb
03
0c
f0
f6
f5
15
f3
f9
f8
f7
02
ff
06
f2
f7
ff
f8
f1
03
f9
f4
f1
f9
fa
f2
fa
fe
ef
f1
f5
00
e9
f1
f1
fb
f1
ea
07
fe
08
fb
ee
fd
00
07
0b
f4
00
ef
f6
ed
ef
f5
05
04
00
04
f2
f0
fa
f6
f5
ff
fe
f3
04
00
eb
ec
ec
f2
f4
fa
f4
f0
fb
f0
f7
ef
fe
ef
00
f7
03
ee
03
f5
ec
fc
f2
f9
f4
05
01
08
eb
fa
f1
00
02
fc
fb
f4
fa
fc
ff
0a
ee
f7
f6
fc
04
f1
01
f6
f4
04
fa
f9
f8
f3
fb
05
02
f8
f2
f0
f0
f6
fb
00
0c
f5
fd
00
f7
fc
05
0b
f7
fd
f8
f8
f7
f0
f5
02
03
ea
f5
ff
ef
00
f8
f3
05
f2
04
0c
07
f5
fb
02
fa
00
00
f6
03
f2
f8
f7
eb
ec
03
0a
fb
f2
01
f5
f0
ea
ed
02
f4
02
ec
f0
fb
05
f4
ed
ff
f6
ff
fc
01
f3
ff
ec
fc
fd
06
0e
06
f2
03
fe
f4
ff
f6
f4
ff
00
fb
06
04
f5
f1
f0
fa
fb
fe
04
02
ee
06
0d
03
ea
00
fc
f6
f0
fa
06
eb
ef
01
f5
01
00
f2
ff
ef
fe
fc
fd
04
f1
fa
f4
08
02
fe
f8
f9
fe
10
05
e8
ec
06
00
02
07
ed
f0
02
ed
fd
02
03
fc
fb
fa
fc
00
0b
ff
fe
f5
f8
05
f3
fb
eb
fa
01
02
ef
f7
f3
f8
06
04
f4
f6
0d
f8
ea
ef
f3
01
f3
f5
03
fe
f5
ec
0a
03
fc
f9
f3
f9
02
fc
fc
f7
0b
f2
f6
05
f5
f1
f4
f0
fd
00
ee
ea
fa
05
f1
f3
11
f6
fe
15
18
0a
09
0e
0b
ff
15
13
0e
03
df
f3
02
09
ec
ff
e2
02
ff
d1
08
fb
e1
de
c8
c0
ea
07
0f
ef
f2
0a
dc
11
11
f7
f0
fa
fb
1c
11
e8
00
0c
f7
0b
fb
d1
f1
18
07
17
34
43
0b
f6
fc
1f
13
03
f6
03
f8
eb
f7
f4
f6
ea
f9
f4
ef
d0
18
1a
13
30
34
18
f5
f8
22
f7
fc
f5
f1
1a
00
fd
ed
db
ff
ec
e9
0b
e9
d5
e3
01
fd
da
f1
f0
05
0c
e9
f3
01
f1
cc
ea
ef
11
13
13
ef
e1
f7
11
08
fa
ef
01
ef
fa
1e
03
08
27
f4
02
ee
0a
29
0b
0d
13
0c
e6
f4
14
10
fd
f2
f4
09
fe
e6
f4
14
da
cf
d4
ff
33
d2
03
de
ea
06
f0
f4
f5
07
01
0d
e9
f4
08
04
14
11
04
ea
e3
fb
ee
e7
e2
f6
f3
ec
0c
08
15
c1
fc
03
07
07
aa
e5
ec
fd
ec
d0
ee
01
0a
dd
d0
de
e5
e6
ec
d3
f9
ff
01
ea
c6
03
ff
f7
ff
f0
d6
05
10
0e
03
dc
e1
0d
03
36
12
f9
e1
11
3b
fb
f9
fc
eb
31
11
08
fd
14
1d
f9
ef
e4
eb
0c
12
0d
e4
e9
11
07
e4
c6
2f
1f
09
05
d3
eb
1f
07
05
00
e6
16
0b
07
ef
18
01
10
ea
d9
14
d4
e2
fb
e3
fa
da
ec
17
f3
cf
0d
ff
fc
16
f8
2a
09
f8
e5
e2
e8
01
f5
e6
f4
df
f7
ed
e7
07
f5
f2
00
01
01
08
ed
fc
25
08
16
f1
fe
fa
e7
ee
ff
0e
00
09
fc
fa
ec
d4
ec
ed
18
15
e3
e8
d8
1c
01
0b
db
d8
f3
f9
02
11
f9
f7
fb
f6
f7
ea
f0
eb
fb
fa
e8
eb
e8
fd
fd
0b
e5
f5
14
22
11
ee
01
f1
f7
f8
02
14
0c
ef
01
00
e7
07
25
1d
00
fe
0f
10
03
fa
1e
1f
07
f7
f3
fb
02
f6
f0
de
dd
12
cf
ef
e1
d2
bf
db
f8
03
f8
d0
ad
ca
fc
11
03
05
ed
2c
3d
22
23
08
24
22
31
29
18
13
f0
f6
fa
03
f6
f7
08
e4
18
1c
f9
04
32
fe
fe
1e
06
0d
e3
f5
f6
17
f8
d2
ed
ef
57
50
16
fc
0f
18
11
00
19
f2
ec
fb
e0
fa
f4
d9
b2
09
1a
06
08
f8
05
e5
03
11
15
ea
ed
12
de
f3
ec
01
13
ba
a6
fd
d2
fe
b8
86
09
2b
34
e9
fa
0f
23
35
18
0f
e2
fc
07
00
0a
28
07
04
09
20
fc
ea
0e
09
ef
1f
f2
f3
e5
fa
16
cc
dd
f8
07
09
df
f1
cd
bd
ef
f3
f6
d9
db
e5
f6
fc
07
e9
e1
f7
f8
2b
06
16
f7
15
fc
ff
f2
fd
22
17
26
01
07
0f
19
45
fe
0d
f5
fe
f7
f6
02
07
fb
09
f9
ea
e6
e9
eb
e9
f9
f9
ff
0f
f9
ff
09
06
1a
26
1a
2c
10
22
fe
29
29
1a
21
cd
26
31
09
fb
e1
e2
23
02
f8
22
0f
fa
ed
11
1b
08
e8
de
d4
28
f4
ee
f4
fe
fd
0a
e8
bc
db
19
0f
c2
ba
99
ff
f8
bd
b3
ab
bb
d3
f5
d0
e0
e6
ed
02
fa
fd
1a
3a
12
13
ce
1b
04
fa
e2
e0
25
2b
17
fe
0e
df
f8
02
fa
09
c2
e3
c2
1d
db
da
1b
29
f9
ef
f2
10
04
03
28
ff
39
14
03
fd
e5
05
1d
16
e9
e1
00
0b
d1
d3
ed
0f
17
05
07
f2
17
0d
0b
34
0b
18
fd
f0
fa
0a
10
19
0a
1e
1a
fe
f7
09
f8
fb
32
eb
e7
f3
12
0f
0d
ec
da
cb
26
12
03
17
f3
f8
0b
0d
0c
05
fc
d9
f7
fd
da
fd
0b
0a
01
f0
ee
05
01
16
15
10
eb
02
04
05
17
14
0a
1c
06
01
04
01
0a
d6
e9
fb
f0
0b
e4
02
f2
e6
f0
cd
00
e1
e2
02
ef
f1
de
00
04
08
48
15
13
1c
db
fa
ee
ea
d5
e1
ed
04
01
eb
0b
0c
00
fa
04
04
e2
35
2e
ef
fa
10
1c
05
07
0b
52
0f
13
df
fd
37
f8
04
e9
e8
f7
ef
eb
da
ea
d0
f1
fa
0d
05
06
dc
fc
3d
e8
fc
dc
ac
df
e4
06
1e
0e
16
1d
0f
0b
11
44
16
09
02
22
04
eb
4d
ff
d6
df
09
d0
d0
ce
05
e8
d3
f9
ee
02
f8
d6
fe
07
f5
01
eb
fa
ed
f1
29
28
f0
f8
09
18
10
1f
fd
16
0f
00
0e
06
f8
0f
29
f9
dc
d0
08
fb
20
0e
07
0c
11
0a
fa
1d
12
f0
d2
df
14
03
fa
f2
f3
1d
fc
e4
19
14
df
0c
e5
03
34
0d
10
0c
1c
09
14
1e
15
1b
17
ff
2a
01
fc
f2
ed
0b
14
1a
e0
e1
cd
ec
ef
e9
14
09
f6
f7
09
2a
ea
0b
08
de
bd
e7
03
f4
f9
e0
31
17
1e
0f
11
47
44
0a
02
16
0b
14
12
08
4b
fa
01
07
12
08
f1
ef
0d
20
f5
27
38
31
f9
b9
0f
13
08
fc
08
0e
08
04
06
fb
fd
12
e6
eb
e5
d9
fe
04
e9
e2
a9
e3
1a
0d
f9
e4
06
f9
09
18
04
c5
fc
12
d5
eb
53
ed
e9
de
fe
27
01
05
19
c0
e9
06
05
32
ed
fc
e1
12
03
15
06
cc
21
fb
f7
03
32
0a
e4
f7
29
fe
13
ed
c4
05
0f
f8
fe
d8
ec
10
ef
fb
01
1d
09
fd
25
fa
0a
f2
f3
0a
08
23
fc
f8
b0
14
1b
07
e4
10
0e
04
f7
03
21
03
16
12
f5
fe
df
06
14
e0
e0
00
fb
ff
dc
c8
1a
ea
ff
d6
09
0e
15
f3
01
0e
04
1e
00
0c
08
f9
12
15
f1
f8
14
19
1a
f9
e0
f6
15
fb
f3
c9
e5
f9
10
0d
15
f3
11
07
f2
11
f6
f8
f0
e0
c2
e9
de
d2
e3
d8
12
20
fe
e2
18
18
0a
08
01
03
f6
2d
45
09
26
e6
01
f7
e9
f8
fa
0b
ef
17
12
09
0d
d5
dc
e9
12
f8
d3
db
15
0e
15
f1
01
20
c1
e9
34
23
1a
03
ca
e7
35
fe
e4
bf
c2
cf
fd
e3
dc
cf
bf
fb
03
15
14
e0
1b
05
10
20
e1
e2
ed
2c
32
e4
08
0c
26
38
23
20
13
08
f9
2d
01
11
10
0b
e2
f3
00
22
28
02
19
fe
2f
2b
17
0d
05
09
21
15
03
fb
0c
3b
09
00
21
37
08
fc
ff
0f
1c
29
24
26
eb
f6
fb
05
f9
24
fb
16
00
02
e5
f1
f5
f5
e2
c9
e5
ff
14
07
e4
1d
3a
11
f3
ea
1f
26
0d
ea
01
03
24
1a
dc
09
f7
2f
16
fd
16
18
f0
00
d2
e8
04
19
08
15
e8
e8
f4
17
ee
19
d0
d3
f6
f7
dc
e1
cc
cb
fb
e2
dd
01
f4
09
ff
f0
ee
ee
07
03
ee
d8
bf
d5
f5
14
f5
8f
d1
0f
20
07
f1
fe
ef
e5
24
27
15
01
f2
17
0f
32
02
05
0c
fe
fa
21
27
0c
0c
11
ff
15
1f
17
f3
d8
c6
fa
1f
fd
fe
05
19
16
02
11
06
1d
0d
05
06
f7
00
0d
fb
e4
24
16
f9
ff
1a
0f
09
fb
dc
d5
b4
3e
31
ff
e1
e3
df
32
41
fc
eb
eb
0d
29
e0
ee
fa
05
fb
04
f6
11
e0
e0
dd
f0
01
12
0b
14
ed
a9
e3
17
fa
e8
b7
f0
e7
c0
d8
08
ff
f3
c4
0e
34
23
f3
eb
f4
04
fe
e9
04
f7
d6
ce
10
17
ec
c2
c3
15
ff
e5
cb
f8
08
f6
f9
0d
13
08
f6
f6
06
0c
20
ea
ff
dc
17
1c
f2
e3
de
08
06
04
d8
21
08
ff
dc
e1
2b
01
04
0f
f3
13
11
00
e0
d6
f4
f0
d6
f3
f0
ee
d5
01
e9
f3
ca
c4
ec
f5
ef
ef
03
0d
f3
08
12
f9
fb
e2
10
01
fb
fc
fd
29
fe
12
08
0b
05
d4
27
25
01
fa
f2
2c
4e
1f
07
16
06
03
04
19
27
13
f3
c7
f0
e4
05
f5
da
d5
15
00
e0
20
07
12
e8
fc
00
09
10
07
f4
14
d7
f8
22
08
00
01
ef
14
f5
0d
1a
00
02
1d
d9
c7
ee
0b
3e
00
eb
f2
cf
c6
05
12
09
05
09
f2
04
0b
ff
11
e3
f1
07
fc
dc
f4
1b
0b
09
08
f6
c8
eb
f4
df
21
01
f6
0a
f9
45
f9
12
06
02
d9
e1
fb
fb
08
26
37
0b
19
1a
28
1c
14
03
08
e8
e5
ea
12
0b
e6
13
16
0b
25
09
08
f7
dc
c6
10
f1
e2
e7
d9
df
f0
06
f2
e3
fb
f0
01
e7
03
1f
ea
ec
18
0b
f4
d4
04
15
25
d8
09
ff
fb
ff
19
1a
0d
22
14
e8
04
f4
06
08
08
f9
d8
0b
03
1e
09
fa
0c
f3
08
01
09
f1
03
0a
fe
f4
fb
fe
01
12
2a
fe
0d
e1
f6
13
fb
05
08
f4
07
2a
fc
4b
0e
fb
d8
b8
2d
1e
1e
0f
00
1a
1d
fe
07
0f
f0
0a
23
13
f6
eb
2c
fe
eb
e1
36
1e
14
f6
e8
ef
f8
03
f5
ef
e6
fa
f8
08
0b
ef
19
d9
f3
0c
da
cf
e0
00
ed
f8
07
2a
13
fa
dc
ed
06
f1
f5
04
01
03
11
02
0c
14
05
fd
10
fb
03
c0
03
20
cc
a7
f4
fe
4b
d2
05
2b
1d
fc
1e
f6
f8
fd
12
fc
00
fc
f4
01
09
12
12
de
fc
07
d7
cf
b6
e3
13
12
ff
02
0b
05
01
f9
fa
f1
f1
07
19
fd
e4
2f
1e
1d
fd
da
f0
f0
dd
d3
b1
16
2c
0b
fa
f6
fb
02
14
ff
20
f1
1b
21
16
19
16
f4
fe
d6
ff
3e
e4
d1
e0
0a
f7
0c
22
20
0f
db
04
fb
0d
fe
e7
05
1c
f4
e1
0c
2d
2d
fb
eb
f4
f5
e3
f3
cd
07
ff
f5
fa
f6
01
15
0f
15
f7
d6
ec
f7
03
17
d5
cd
fb
1e
08
fc
47
41
0b
cc
d9
f2
f7
fa
f8
03
06
fa
0e
f4
09
0f
f7
eb
eb
f3
0e
f5
ff
13
f5
ef
eb
12
fc
fb
00
06
07
fe
fb
ee
f9
03
ea
00
ff
ee
f9
fc
e5
f6
1b
11
f2
fd
fe
02
1c
fd
f4
fe
04
08
02
ff
00
fe
f5
f1
0f
00
f6
e1
f3
fd
f6
01
fb
08
ef
eb
ed
13
03
e2
f5
19
0a
ed
f4
19
f9
f6
ff
03
f4
fb
fb
11
f3
dd
f8
0e
f9
eb
07
00
f1
fa
f9
02
e6
f1
e6
03
ed
d3
ed
08
e3
ee
f0
f8
ff
f8
07
f3
f3
f6
06
f0
f8
03
eb
f7
02
01
e5
f0
f3
fe
f2
f7
0b
f3
f2
f1
fd
f8
04
ed
f4
12
e6
0b
fb
ea
09
00
fa
03
07
fa
e6
02
ff
fa
f5
ed
ef
f6
e9
00
02
eb
fa
e7
e9
e6
fe
eb
f7
f5
07
fb
f7
e8
e8
fb
06
05
ff
ef
fe
ff
0f
f8
00
f9
f1
e4
f1
07
fa
00
fa
f1
f6
f7
01
fe
f6
ee
f7
0d
04
f3
fe
f3
eb
f1
ec
f4
ff
ef
f6
f6
e7
f7
fe
0f
f9
f1
e9
fd
fb
f0
fc
09
e5
e0
fe
02
f5
ed
f5
fb
f6
ef
ef
f7
02
e7
f4
06
03
ee
16
fd
f6
ff
0c
0e
e6
f3
08
f3
06
ee
e6
fa
e6
07
f1
f3
04
0d
11
05
05
06
f0
11
f4
fa
f7
fa
fd
01
f1
ed
02
0b
14
f3
eb
f2
f7
e5
f3
f7
12
08
fc
0f
0e
0e
07
0d
01
e5
db
de
ea
fb
e1
f7
fc
fd
e9
df
ec
ef
ea
ee
f5
f3
f8
f4
ea
f9
f2
06
0a
ec
dd
fb
fa
12
f1
00
fa
09
01
10
fd
fa
db
e3
00
e9
f7
0b
f9
fb
d6
02
f4
e7
0d
f6
f0
f8
e3
f6
04
1b
fa
16
f8
f3
f8
ed
ef
ef
ff
05
01
ff
fa
03
0d
03
08
e2
f5
ee
01
0f
fc
ef
f9
fa
f2
f6
06
1f
03
fb
ee
e7
e8
fd
e7
e9
fe
01
e8
f2
fe
0d
08
fa
ef
26
04
ed
da
da
2b
ee
0b
09
1b
d6
10
18
03
fe
f4
fc
fb
ec
d1
16
12
f0
f0
10
03
c7
d4
05
f8
00
02
27
fc
0f
fb
f2
13
f1
21
26
10
eb
02
1b
fa
05
eb
03
01
29
0e
0d
19
30
1b
06
ec
36
e6
15
dd
02
f2
fa
f4
03
11
0d
06
05
19
0f
0d
18
35
0c
04
18
fb
03
04
04
d7
ee
22
1a
d7
ea
04
10
04
02
1e
1b
f1
1a
f9
df
ef
f5
eb
15
f6
dd
0f
f5
04
0a
f0
02
1a
04
e6
13
e6
f0
08
09
06
f4
0b
30
fe
08
f9
08
17
1b
e7
f3
f5
fb
1f
fb
f8
f0
09
30
15
fb
eb
ee
0f
ff
0b
da
ca
de
ea
ee
d9
f4
ef
f3
02
03
01
09
f7
03
07
27
01
28
ef
f5
02
f1
e9
02
e5
d6
dc
ef
f5
d8
ef
d5
dd
e9
15
18
29
24
c8
1c
09
0e
f8
f8
f4
f5
d0
e0
19
f9
db
ea
f0
ee
06
01
fb
f4
f1
f1
d4
f6
ed
1a
e3
fa
f4
fc
0c
ed
f6
06
05
0b
0e
fb
11
19
fe
0a
fa
08
0a
0f
1b
e4
fc
fa
43
05
ec
03
21
36
ff
09
11
05
1d
0f
07
34
3b
00
e9
f5
04
25
fc
08
ec
0b
15
22
f0
09
01
24
27
23
00
08
13
d9
b1
d7
ac
e4
e1
f7
00
fd
ff
ff
24
2f
f2
03
f4
05
10
d7
eb
f1
ec
f4
da
01
b3
bf
d3
d9
f9
e5
f6
ec
cf
f2
2b
19
17
27
18
fc
ea
09
15
23
fb
f9
0c
f3
ff
e9
ec
da
ec
11
31
f8
ff
0c
07
2e
0a
09
0b
20
15
04
16
fb
0b
ed
0b
ee
fa
f4
f3
e0
d2
c4
d1
ec
c6
e8
e9
d5
18
0a
12
20
23
fe
04
fc
11
03
f8
ed
06
05
01
e5
f0
02
0a
e4
2d
23
00
01
e0
28
ee
03
f5
f5
05
e4
f8
fa
ff
18
f6
01
da
e1
01
f4
eb
f4
ef
ff
f6
fe
02
fe
fe
03
08
fe
f8
08
04
ef
ee
06
f6
02
f6
f5
fe
0b
f0
ed
fa
03
f3
fc
f7
f8
fa
fb
f5
ff
e8
f5
f0
03
ec
f0
f1
f5
f8
f4
fb
f2
f0
ee
fe
fd
01
e0
05
01
f6
f2
03
05
00
14
f9
f9
03
ef
00
06
f9
fd
fa
fd
06
f0
04
fa
f5
e7
f6
fe
f3
fb
00
ee
02
f1
fc
02
f5
f3
07
04
f8
f6
ff
fa
eb
f0
fd
f4
ef
ea
f2
f5
fb
01
ee
e9
f6
f9
ec
e3
ec
f3
f6
f8
f7
f9
0e
f1
f4
f3
f5
fa
e4
02
f8
fb
eb
fa
ff
01
ee
fa
ff
f4
fa
f6
f5
00
f5
ec
f9
f1
f7
00
f4
fb
fb
fa
fa
05
01
f4
f5
06
ff
f4
ec
fa
f4
e6
fa
fd
e7
01
f4
04
fa
f7
f3
02
02
01
f9
ee
f5
f4
fa
ea
fc
fb
00
fe
e9
f3
f5
ff
f0
fa
f1
ea
e7
ec
fd
f9
f5
e9
fc
f9
f5
f3
ff
eb
ff
fe
f7
00
f2
ea
ec
f8
fa
fd
ff
fc
fa
ec
09
0b
ff
fb
ea
01
f8
f9
fb
f9
02
fa
fd
00
03
f7
fa
f4
05
f8
ff
f2
04
ee
f1
f3
f4
f3
f0
f5
02
f3
f3
06
02
f5
f8
eb
f4
f1
ef
f7
ff
01
f7
e6
08
f7
fe
fb
ee
f3
e8
f9
fc
fd
fa
09
f9
07
04
f2
fc
e9
ef
ed
ff
eb
ff
fe
f1
ec
ed
f7
02
ed
f6
04
00
ee
f9
03
f2
f1
f4
ed
ee
f7
ef
eb
e0
fb
f4
fa
ff
0a
05
f8
f5
01
f4
e9
fa
f3
fc
07
ed
f2
f0
e9
fd
ef
f3
f2
ed
df
f2
08
fa
03
ff
fc
f7
f1
06
f7
ec
ef
f8
06
fd
f9
fe
fb
fc
ff
ea
f0
f2
06
07
f8
ea
ef
f2
ef
f4
05
02
f2
fd
fe
f2
f3
e9
eb
e7
e8
06
08
ec
e8
05
f9
10
fc
ff
fe
f2
f5
f2
02
fb
ef
ee
03
f7
f0
f3
f2
05
f1
e5
ee
20
e6
ec
ee
df
e0
bf
d3
f5
23
18
03
f8
23
0d
1c
12
1d
24
f0
06
20
22
dc
ef
ef
f5
f2
e3
f8
e6
13
08
27
09
0f
fa
f2
f9
0a
09
f5
fe
d7
c6
e4
d6
cc
c9
ee
16
dd
09
f8
09
08
dd
ef
e3
d9
cf
cf
da
0f
ed
fe
d5
10
17
24
1e
d2
9e
e8
26
2f
17
ee
08
ec
05
11
15
f6
c6
fc
c6
da
c5
fa
e8
e8
fd
11
fd
17
1c
22
1c
fa
0e
0e
da
f1
16
31
17
f0
02
07
f7
04
08
1b
00
e3
17
12
02
08
fd
eb
10
f7
ff
16
fb
10
05
dc
de
f7
ed
07
03
ef
f1
fd
02
14
27
e7
b8
e2
04
27
27
10
00
0c
ea
04
e0
ec
01
18
f9
f8
0b
16
28
eb
ea
05
0a
f7
13
fb
ed
0a
ef
0e
0c
fd
f1
f8
f9
e7
09
04
e0
12
f7
eb
16
21
57
2b
18
0e
07
25
1e
11
06
f9
08
23
10
15
04
33
30
fd
fd
22
2a
e7
ef
1d
19
3b
0d
f2
00
c2
15
10
f2
eb
0b
cf
f8
f8
f8
1a
e9
0d
f8
07
f6
9f
eb
ee
dd
e0
b3
e0
f1
12
10
ec
cc
0c
11
27
ff
10
f9
07
c2
11
ff
04
dc
cc
0b
18
3b
05
02
d4
fa
fb
0a
08
fb
fa
be
f5
c2
fb
05
d0
ec
02
e7
da
fd
2c
1b
e4
ed
fb
11
17
21
f8
e0
fd
f7
09
ff
f5
e7
fc
1a
0a
f3
0b
14
1d
fe
e5
04
30
14
1b
16
f8
e9
24
fd
03
f7
fe
34
14
13
00
0c
00
0c
fc
1f
45
bc
f0
03
13
ff
e4
d3
01
e9
07
61
1d
eb
1b
19
20
14
ef
ff
1b
10
18
21
11
f2
fc
ff
f7
00
13
e2
0d
06
18
ff
e8
06
05
07
fc
10
fc
f4
f7
f0
eb
08
06
eb
f6
ed
02
18
26
f5
da
e8
da
d5
0d
04
18
09
f1
1a
25
34
18
08
44
f4
fc
12
20
f2
31
f1
f9
06
eb
fe
e0
da
f1
f5
e0
fe
e6
eb
fc
21
fb
f5
04
03
dc
e9
e5
ea
08
1c
c0
e1
06
1b
1e
ff
e6
00
12
02
0e
01
eb
04
06
0a
01
f5
05
0c
17
26
16
1c
12
21
15
d0
07
03
e5
05
ea
fb
f1
d3
04
e8
02
07
ea
22
e3
fa
07
16
26
e6
00
15
11
f9
d4
15
02
dc
da
04
13
e5
fe
df
f2
fc
f9
21
08
f5
e8
06
e6
f0
de
e7
ec
dd
f8
f8
07
de
0a
1d
f3
fe
fc
fa
f8
09
08
e7
e7
f8
e6
e8
da
f3
20
18
fe
e9
fd
10
f6
21
f5
fb
10
ee
0b
f5
f1
0b
dc
f4
f0
fc
10
05
ee
db
e0
e5
f9
e7
c1
f7
f7
f0
fb
f2
e0
f5
0e
f4
f9
f9
02
27
25
f4
e7
f4
2c
1c
fc
f3
e7
0c
11
29
32
09
dc
ee
19
08
f5
eb
ed
e0
ec
ea
dc
e2
fa
08
00
1c
13
f2
e4
de
e1
e2
f4
e5
f6
f4
1a
bc
dd
f9
f8
0c
19
11
07
14
18
05
10
f6
f4
e3
da
d4
db
10
1e
05
e1
ec
1e
fb
fa
ea
f3
ff
f9
e9
f9
f2
f6
fa
01
16
fb
f6
f3
ec
db
da
fe
fe
07
e4
f8
1e
eb
0e
0b
e8
0e
ec
0c
17
e7
02
e0
fd
10
19
00
de
da
e5
fe
09
0b
07
df
df
ec
0a
12
15
fb
1c
03
f1
fe
fa
18
19
f8
fa
e0
e8
f7
e1
cc
f5
14
09
f6
05
f1
f7
04
25
fe
f3
ff
2f
de
f7
e8
13
12
0b
03
eb
fc
db
fc
f0
f9
2f
fb
e9
00
f4
08
fe
f6
1c
fd
00
ed
fe
fe
df
fc
fe
0a
ef
05
fe
0a
dd
e5
d9
e8
07
e4
ed
f2
0d
07
09
18
ff
f7
10
05
03
f2
d7
08
f3
06
01
f4
e5
fd
ff
04
2d
13
22
15
08
eb
ec
14
eb
da
d7
e6
f5
03
fc
05
fd
1e
f5
ee
04
35
fe
fc
fc
02
0c
f3
0e
08
23
f4
08
2e
10
25
fa
06
f0
08
1e
15
d3
ed
28
09
16
d5
0a
21
1c
fe
e8
05
0f
e3
b1
ee
e6
fd
06
f1
ee
ec
1a
35
13
02
08
f4
e5
fb
01
05
cb
c9
10
e6
08
ee
1c
2b
f8
16
01
ef
17
04
13
f9
c5
d2
f2
f4
00
fb
03
fc
e5
cd
fd
34
e8
ff
fa
1c
1a
16
03
ee
08
e8
22
f1
00
e4
f0
ef
d7
d8
f4
1a
41
0a
03
08
1b
38
f9
00
0b
29
38
dd
d8
f0
f8
ff
ee
05
15
ff
f7
f4
07
09
07
e5
ff
ec
db
20
f0
01
ec
f8
11
f1
f9
f3
fb
e3
03
f9
e9
09
2f
18
e5
0f
f2
2b
0a
3a
1a
12
ed
09
07
f4
ec
fb
23
f0
da
e1
e8
df
f6
f8
01
0c
ea
08
14
29
0d
e8
f5
e2
f0
d9
0e
f4
1b
28
18
3a
2c
2e
2a
2e
2e
0d
22
29
41
eb
e1
f2
1f
0d
3e
22
03
f4
f9
37
05
01
ff
ea
52
fa
e9
0f
fa
1b
fc
f3
04
ff
f0
01
07
fe
12
fb
e6
1b
10
ec
ed
f9
0a
0e
04
eb
e7
1d
e5
f8
f2
f0
f8
f5
e6
01
da
f6
f0
1b
be
e1
f6
08
e8
f0
fd
0f
fc
de
e9
ee
01
12
e9
ff
04
f6
f3
08
15
2e
e9
dd
d7
e2
1d
1d
e6
cf
3d
05
e2
fe
cf
ea
d6
ed
0b
17
e6
da
ff
23
22
fd
e1
03
f9
ec
07
1a
0f
0b
02
14
1b
03
1b
f4
14
10
17
fe
fa
04
08
0f
09
0d
fc
08
0c
f3
10
d8
02
fd
f6
d8
f3
ea
08
ee
08
e0
ed
fb
f6
fd
e1
ed
01
0e
f9
f6
f3
14
09
fb
0e
01
0c
0b
fc
22
05
f5
09
f1
fe
fc
05
0f
e7
dc
fa
17
1a
14
f1
e2
09
05
f7
1b
12
03
c3
bb
04
fc
11
13
fc
03
2e
28
ff
02
28
2e
1b
fb
f2
e4
27
19
f7
e7
05
04
0f
f7
fd
fa
23
39
fe
f6
ce
df
ef
f8
02
d5
ee
03
de
01
eb
1c
27
21
3e
ec
03
f7
fa
d9
05
01
fb
da
c7
07
fe
fc
0e
ff
00
fe
11
17
f9
e9
e4
de
f8
1b
0a
fb
f2
cd
c1
0a
31
0a
19
f4
f8
f7
e3
fc
1d
ca
06
e8
1e
18
e0
27
47
27
04
02
e8
ea
de
e8
18
09
f1
f4
01
f5
ef
f2
2a
16
dc
ed
fa
11
f5
1f
23
0e
00
dc
fb
03
e8
0c
fa
fb
e1
cb
e9
00
ec
02
fa
fe
f9
0f
1b
38
1f
f5
2a
1d
1e
0b
06
f1
ea
f9
e7
f0
fc
ea
fc
ff
21
f2
0d
ef
3b
25
e2
fd
fd
2b
0e
eb
f9
13
f9
f3
f6
0e
f9
ed
e5
f6
f2
e7
db
ce
0a
ff
fd
f4
f1
04
09
11
03
ed
21
16
fb
1f
26
e6
0b
12
12
ea
df
08
1a
0a
fc
02
df
e5
09
1a
10
e0
de
fd
1c
27
20
15
14
19
e8
16
16
2a
e8
f5
f6
ed
08
e9
f2
f7
1b
f6
f1
ea
25
03
fb
f2
3b
25
19
06
12
0a
d5
d9
ee
fe
16
f0
12
fc
f0
ea
f1
08
fe
ef
e2
ca
fb
fc
e6
d2
f0
0a
0e
01
f5
07
df
d8
e0
18
10
1d
c7
cb
1e
f4
0b
ee
da
05
ed
fe
1b
1a
d1
d4
e7
16
10
fa
ff
fc
eb
e1
f8
fc
f3
f9
02
fd
0f
f0
0e
f8
09
eb
0b
0e
1b
15
c9
02
eb
f7
f1
13
f9
fb
d2
e8
06
08
ef
d0
e1
1b
17
ee
f5
09
1a
1a
f4
02
f2
d6
db
ed
fc
0f
05
fc
f1
05
d0
ff
18
fc
e4
f6
07
f5
f1
e7
0f
f8
ce
ea
05
22
0e
07
1c
31
f3
f0
11
0b
fc
f4
fc
02
f4
d8
e3
f6
03
e6
b0
10
ff
00
01
03
03
fc
e3
eb
f4
11
0c
01
04
d7
ec
fd
11
fa
f8
fc
f2
07
df
1d
ef
fb
06
cf
1b
fa
40
32
26
5d
f5
f9
f6
f0
fe
f4
06
f4
fc
fb
f8
00
07
f8
fa
fa
00
fb
ed
f0
05
f4
ef
f7
07
eb
f3
00
fa
fd
fa
fc
eb
f1
eb
0f
09
f7
fa
07
ed
f8
f8
f6
fb
fd
f0
f2
fb
f4
eb
fa
0e
f0
e5
0e
18
f5
f4
f7
0d
ed
f2
e7
05
fb
fc
03
09
f9
0b
03
02
0c
f4
fc
05
f7
fd
fc
03
fe
fa
ff
fc
f1
ee
fa
fe
05
f7
ff
11
f4
05
02
09
f7
ff
fc
ff
f2
ec
ff
ee
f1
f5
ec
f2
ec
01
f7
f4
01
05
f8
0a
0a
0b
07
01
f9
f7
00
f9
f7
06
ed
f3
02
f0
02
fd
ef
02
f8
e9
0c
f8
f8
06
03
ef
f1
01
fb
fc
f5
fc
f4
f1
0f
fa
01
01
ed
fc
f8
f0
f8
07
f5
fe
fe
f9
01
0d
04
06
03
f6
07
f4
eb
f0
f3
e5
f4
ee
f0
ff
fb
01
00
05
ed
ef
ea
e6
f0
ed
fa
f4
db
e2
f3
f2
ef
fc
fd
f3
06
f4
07
08
f4
e3
ef
f3
f8
f8
01
05
f6
f9
08
0b
f9
00
fc
fa
f1
ec
f5
fc
fa
eb
12
01
fe
f1
f2
ff
ee
f9
f1
f7
f0
fe
f7
f2
ff
f7
f8
f0
f3
04
fc
f3
f3
ec
fe
fb
03
f5
06
fb
0b
00
f9
ff
0c
f5
f4
f6
00
00
02
f5
01
f3
04
fd
f9
02
ea
e4
e3
f8
fb
07
f9
00
00
04
f0
11
f7
01
f2
02
fa
00
f5
fc
ee
07
fc
ef
03
ed
f0
f4
ef
05
f4
f7
ea
fe
f9
04
06
0c
fe
09
fb
02
f4
ec
f0
01
f3
fb
fc
f1
f4
f3
01
03
06
f9
f4
fc
0f
fb
04
01
f7
e4
f2
f8
f3
e5
f7
f9
06
08
f2
05
f2
f8
e3
e9
fa
02
ee
ee
ef
fc
f9
00
f8
f6
ff
02
f4
f6
0e
f5
fa
f4
00
e8
ff
ec
fc
f5
07
f7
f5
f3
f1
07
fe
fd
01
f7
05
f3
f1
ee
f3
f4
01
f6
08
ed
00
fa
11
fd
f5
f1
fc
f7
f4
04
ef
f0
f9
ff
06
f6
f9
00
07
f6
fb
03
fe
ff
fb
fe
f8
06
09
0b
f8
fc
0a
f5
01
f3
09
02
07
06
fc
f7
fc
02
f4
07
fe
07
f7
ff
f8
f9
ff
f5
fa
f5
f6
fc
04
f3
f8
f8
f9
f8
f2
ff
f6
ff
f5
0a
00
06
04
f2
f3
08
01
fa
fd
0d
05
fa
f1
f9
f7
02
01
08
fa
f4
fe
ec
f1
fd
f4
fe
fd
fe
07
fd
00
03
f3
0c
0d
0c
0b
fe
f3
f9
0f
00
0c
03
fe
ff
fc
f4
05
04
09
f0
f9
fd
f2
f7
00
f3
ff
03
ed
03
f5
f5
fd
f4
fc
f3
f4
fb
ff
09
f3
03
00
f8
02
f5
02
00
f2
08
05
0f
f7
00
fc
05
05
00
08
0a
fa
fb
ff
f2
f2
07
f2
fe
f2
f8
ed
ee
f6
06
05
fe
f9
02
09
fa
02
fa
05
fc
f1
f9
f7
03
f8
01
fb
0b
0a
fd
f8
0a
0f
0d
0c
06
08
f6
09
02
f6
02
10
0c
f4
f7
f2
f1
f8
f1
f5
eb
fd
f7
fa
f4
fa
00
fb
f4
fd
02
ff
01
fc
03
00
ed
fa
fe
f6
ef
fa
fe
f3
f3
fe
f9
f2
fa
07
f4
04
f0
f1
f3
f3
f5
06
f2
04
00
05
fa
fc
f7
f5
fa
07
fd
f9
04
04
ee
04
f4
05
fc
ee
fe
03
ff
00
0c
f9
04
f3
06
09
02
05
ef
03
02
fe
fd
f6
f8
00
fe
00
02
04
07
f3
02
f6
06
fa
09
0b
10
f4
f8
06
f1
f2
f2
f8
ff
f0
00
f5
fe
09
f3
f5
ff
08
f3
fd
fe
02
f5
fc
f2
f9
fe
f9
f9
ed
05
0b
0a
06
ff
f7
03
01
f1
07
f4
08
07
05
f4
0c
02
05
fa
f9
02
01
fb
01
0c
ff
f3
08
f8
0a
e5
00
07
fb
fc
f9
f4
02
f6
02
04
01
fe
f1
ff
05
ff
02
ef
03
f9
fd
f8
fe
03
0a
04
fd
fd
f8
08
f8
f7
0b
fc
09
2b
00
05
f3
f7
02
00
2b
15
fe
dc
dc
fd
06
0b
0f
1a
02
f0
03
00
f2
04
cb
0c
de
bf
fb
fc
06
fd
fa
e3
db
e7
38
1a
fe
09
f6
32
24
e4
fe
0f
01
fc
f0
f1
15
0c
10
1f
2c
30
17
1f
f9
06
e8
0f
d4
cd
cc
fb
ef
f2
e8
f1
ee
e8
f2
ec
0d
04
27
1f
27
2d
0c
20
1b
d6
e0
f1
e5
eb
0d
1a
ff
d6
dc
16
0a
f0
ff
fa
fa
17
04
e1
f9
12
ec
14
e9
f8
e1
f4
f9
0b
07
ea
07
02
12
13
04
f9
d1
17
0f
07
07
f0
23
11
09
10
cf
04
0b
12
0d
ca
f4
15
19
fc
02
f2
0b
fa
fd
f5
f3
fb
fa
f2
14
d3
dc
e3
ed
23
d2
fc
ea
e7
f3
03
fc
f3
ed
fe
2e
1b
05
f8
d6
07
06
f9
f8
fd
fb
05
f6
e3
e9
e3
fd
1a
06
f4
cd
f1
05
06
0b
21
1c
11
04
0e
1a
1a
fb
1b
07
b6
f8
0a
e3
27
eb
03
ec
ec
09
e4
14
13
e8
02
0e
05
f7
ec
e5
0d
fd
ff
11
01
2f
ee
f2
0d
15
20
f6
05
f7
f8
db
00
fb
14
ff
e0
f8
ff
03
0a
ea
1e
14
09
fc
e8
f7
01
04
28
26
2c
0a
f5
1e
29
15
ef
f6
07
ef
ec
f5
19
13
da
fe
fa
f8
18
d7
e7
f8
f9
0a
fb
ec
f3
09
f2
46
16
ef
0d
f9
11
06
01
ff
0b
09
0f
04
fa
fe
f1
ee
fa
ec
27
ec
f3
fe
ec
00
11
1b
1f
e8
eb
01
12
05
fb
ef
19
01
0c
12
11
f0
fe
ed
dc
0f
ca
f1
29
17
00
05
1f
0e
05
20
33
05
fb
11
10
0b
f2
e9
ed
0a
ed
ed
e2
df
03
f6
fa
ff
f7
1e
1f
01
f9
14
e1
28
16
13
fa
cf
0f
0f
09
10
fb
19
00
f7
0b
fc
18
eb
f6
e5
df
e2
c6
f2
fe
f9
f0
f0
01
f8
e4
09
0f
08
f3
ed
f8
f7
14
24
10
ef
12
0e
e5
f7
d1
cc
d1
16
0a
03
e8
0c
eb
d6
14
03
f8
f7
0b
ec
f7
11
05
1d
fb
c9
0d
2f
19
11
02
0d
0f
17
16
26
00
ec
e6
f6
f3
fd
fd
ed
fa
dd
e3
bf
a6
e8
0d
e6
e9
fc
d6
d0
e0
f9
02
d8
eb
0a
10
ec
f2
27
0e
15
0e
ce
d9
bd
eb
e5
ff
07
bb
07
0f
fb
d0
fd
0b
f6
d2
e8
ed
fc
11
18
22
14
1f
04
28
19
f0
fa
f3
05
d7
d8
1a
32
f2
01
ff
16
18
0f
f3
03
ef
ff
f5
f9
09
03
ff
d5
04
f4
de
11
d4
ff
db
ea
14
f9
f8
e5
00
13
db
e3
e6
e2
14
e1
00
0e
ef
ec
04
0b
03
0c
d1
fa
ed
e2
15
18
fb
f1
f0
0e
07
0b
f5
02
f5
fb
ed
f3
0e
10
f3
fe
fc
0c
16
11
07
03
f8
fc
f9
23
f7
09
f3
08
35
11
08
0f
e6
3a
f9
db
ff
b9
1b
3b
08
05
0c
30
17
f8
0c
15
f6
03
05
0b
fe
0f
04
e7
0c
fc
f2
0d
fc
05
ff
e1
d8
f0
09
f6
f8
cb
16
15
05
dc
f1
ec
f6
e5
b9
d5
fe
06
fd
f3
0c
16
0e
0e
ee
d9
f8
fd
be
11
ee
06
fd
db
11
10
15
0f
00
fa
08
e2
02
fd
d6
d7
f9
00
f3
f4
06
01
0d
25
05
e3
f0
1b
1d
fd
fa
e5
fe
11
fc
fb
26
f3
ec
0b
da
ef
f8
cc
03
fc
fc
f5
0c
f8
0c
11
10
03
eb
14
02
11
fd
17
fc
0a
0a
f0
f9
f6
eb
e8
e1
06
04
fd
18
fc
c1
f1
fa
17
fe
ef
f2
ef
17
14
3c
14
f3
06
f7
2a
eb
d7
ea
08
f9
f6
14
0b
03
f5
fa
17
00
ff
fc
04
20
f5
f1
0a
08
13
f5
fc
fb
ea
f7
0c
ee
ef
f0
11
14
e8
fd
22
1b
1f
e8
e6
f7
fd
e6
11
f4
fb
0a
17
05
19
32
01
f3
fb
00
11
0d
0c
15
06
05
1b
08
3b
05
1a
10
f6
0a
1e
0c
e2
f3
07
d6
cb
d6
10
fd
d3
d3
e7
eb
0a
f7
fe
03
c7
29
ff
1a
19
06
08
01
04
f6
fc
fc
fb
ff
08
fa
e9
13
29
1f
18
16
08
f8
f4
01
02
1c
f4
bd
e7
10
23
fe
dc
fb
fe
17
f9
ce
fa
09
23
29
22
10
e9
fd
05
ef
0a
08
ea
ef
fe
38
20
f1
0b
f9
1d
f2
ee
c7
eb
04
d5
ed
dd
d5
f8
0e
fb
d8
e9
dd
f5
ec
f7
f6
f5
13
fc
e4
17
25
13
e9
f4
f7
e9
e8
18
0c
fd
0f
0e
1c
fa
f0
e8
12
0f
22
dc
d4
07
0a
15
07
df
ee
0f
0c
0e
f5
f3
ec
eb
b6
dd
1b
f4
e8
e4
e4
f6
22
10
0d
0b
05
09
11
09
03
fc
ed
03
e8
00
03
e6
03
0a
00
0e
df
f5
0a
fc
fd
cd
de
fe
08
ed
c9
c2
da
ed
05
e4
e0
ef
06
0c
fb
02
e9
fb
01
cc
c9
e9
fb
06
d2
f3
fb
f8
17
f7
04
0f
1e
1a
d1
e3
0f
18
ee
1b
fa
0d
ff
f1
fd
ff
0a
02
f5
01
18
10
0b
d7
0a
17
11
ee
d8
16
1f
f0
f9
db
f3
f6
07
06
22
07
29
1d
fc
ff
e0
10
fe
0b
eb
02
f4
fc
01
fe
04
13
21
12
14
d1
c1
d8
f5
10
fc
f5
16
16
da
08
0a
f6
07
1a
e0
e9
fb
10
05
0d
16
0e
e6
f7
f9
e8
fc
06
08
f8
e8
fc
18
10
0c
03
22
1b
0e
eb
f8
00
0e
0e
f1
00
16
19
0a
f9
f2
09
f5
df
e5
fa
06
fa
d6
e7
11
0d
12
c0
d1
e5
00
05
07
e0
e5
fc
15
0d
f7
e3
d6
f7
11
05
10
f9
eb
12
0e
07
0e
08
06
00
f3
e3
0b
fd
0b
12
16
0f
f4
11
fe
fc
02
ff
20
ea
f0
04
06
1f
f6
08
29
de
33
02
fc
ff
e6
05
ce
e3
02
02
fe
fe
ea
17
fb
07
15
23
ed
23
20
fa
fa
01
07
fc
f0
f9
e8
0a
e7
f3
0f
15
fe
1a
36
ff
d2
ee
20
32
1a
cf
16
03
05
1d
14
01
ec
ee
fb
23
03
06
f7
07
07
0a
e5
de
04
0c
16
02
da
25
fc
11
23
f2
f8
eb
0e
10
19
03
f6
12
16
1e
11
fd
f1
0d
fa
20
ff
18
d7
df
09
f6
1c
fe
f8
03
37
16
fc
2b
23
17
e5
2b
fd
00
05
ed
ed
e2
d5
cd
e5
f9
df
dd
c9
f2
ee
07
01
fa
09
dc
f1
fd
02
cb
19
f7
df
dd
f8
0a
f4
08
09
3d
16
f7
11
0a
16
f9
07
f5
ee
da
04
18
12
de
bf
05
f6
e7
09
fd
20
e0
c3
e9
f5
19
15
02
d7
01
ff
fc
1b
18
0c
f5
04
0e
f2
e5
0c
17
f7
c6
d1
ec
04
f0
fa
07
da
f0
04
0e
fa
eb
d9
d0
e9
e9
d7
dc
da
e8
eb
c6
f6
fe
05
f4
cc
e4
d4
f8
01
c0
ba
cb
f0
f3
fc
0d
f5
fc
14
08
15
18
17
de
ee
de
dc
00
11
0f
15
f2
28
0d
05
0d
e5
08
f6
0f
0f
14
02
df
11
10
08
dd
f9
22
15
ff
e5
cb
2a
3e
0f
1c
42
1f
31
0d
2f
09
f1
11
f2
13
f5
0e
f2
ff
11
fd
11
00
f1
28
19
f9
fe
c9
dd
f1
0f
10
0b
fd
e4
f9
f6
e4
03
02
11
13
e7
e8
09
13
20
f7
e1
05
c9
b4
c5
d4
11
ec
e1
01
f5
27
17
0e
12
0e
fb
10
eb
d5
c5
d8
06
01
ed
ff
11
e6
f1
04
00
10
2d
1d
2b
f1
f8
03
f3
07
f4
ef
db
cb
da
ef
15
f3
eb
f1
00
17
f0
cd
d9
e6
fc
e3
f4
e8
c9
06
14
f7
02
0c
1b
f6
fa
f9
f9
c8
22
11
f4
02
ef
d8
cb
be
04
fa
eb
db
0d
07
f6
22
08
05
16
da
27
f8
f5
29
e9
e6
f3
0c
1d
e9
f8
db
e2
e6
ed
d8
fa
fb
17
20
f6
fa
ee
18
21
2a
0a
f6
0a
0d
07
ec
f7
da
e5
30
fb
c0
e5
e7
21
04
c0
e0
04
20
09
19
f7
08
0b
18
eb
fc
ed
ec
e9
e3
f1
08
de
f3
08
45
3d
e4
f3
1b
fa
1c
ec
07
e6
e0
c5
10
fb
04
11
f6
f9
1b
19
13
25
01
20
2f
42
33
f1
15
da
f2
f5
e6
1f
07
14
d7
cb
fe
03
f8
f8
28
06
f3
07
02
1f
19
14
e5
1d
02
db
08
ff
24
f1
f1
0e
0c
e5
10
e8
fe
ff
ea
07
18
0a
1b
11
12
15
1f
f9
e0
08
06
1d
f9
dd
f2
13
f6
e7
10
ea
09
13
ee
18
da
ea
f6
03
12
19
ff
dc
da
06
14
00
03
02
23
fd
e3
f0
08
27
fe
f4
f0
ff
df
00
0f
0c
0e
05
dd
f0
e7
e4
fd
f6
eb
f4
ff
1a
0d
f9
0e
13
20
1e
ed
0b
15
03
15
eb
f9
0c
fa
e0
f8
f3
f4
34
20
1d
f2
e5
24
f9
e4
fe
13
0f
13
fc
eb
04
e7
05
f4
11
13
19
19
0c
fb
fd
0e
fb
0a
f5
05
e3
ed
fa
18
fa
16
f5
f5
e9
f5
f8
ea
ef
fa
ea
f7
41
31
ff
e9
f7
11
12
0f
e8
ec
03
18
0d
fc
f9
f3
02
ff
0c
03
f2
e9
e4
eb
e0
00
ff
dd
05
0a
de
d2
f6
15
f3
08
e4
07
1c
ef
18
fc
f6
07
17
0c
f8
f4
0a
1c
fc
04
e5
0d
2f
fd
ef
02
19
23
0c
14
13
0e
d4
14
f7
08
0d
fa
0a
04
0c
13
16
ce
03
07
01
eb
e0
04
19
ee
f4
f7
f1
02
0f
f9
1d
06
e8
2a
03
f5
f6
d5
e6
02
18
12
ee
e0
f5
eb
f0
ee
16
27
e9
f8
1a
2b
06
07
f1
ea
f5
dc
18
10
0e
14
12
db
dc
fc
02
0d
ee
ed
08
1e
05
ff
fb
f8
ee
db
20
12
f3
ed
f4
2e
16
e9
ec
e3
08
12
1a
0e
f3
10
fe
12
11
24
ce
f4
f8
fe
ce
14
f6
e7
de
ce
28
23
04
b6
ec
d9
a6
fc
f4
c0
e0
f7
e6
e6
e7
0e
1d
23
f8
e9
23
00
f1
fa
15
f2
09
db
04
27
fd
17
27
04
fa
0a
27
ed
17
14
f5
c1
d6
f8
f6
c9
e6
ed
fd
0f
fb
08
ff
34
05
15
16
db
10
f2
28
fc
04
0d
ee
fe
f0
f1
1f
06
fd
d4
f9
13
1b
f8
24
2b
08
e5
d9
cb
00
fe
07
e8
02
ea
0c
fa
ea
08
fb
29
1f
26
1b
09
15
19
fd
f4
f0
d7
ec
01
f9
fa
f8
e8
09
e0
fd
d7
04
05
e1
0c
f4
21
f2
f0
15
00
fc
f5
0a
04
db
eb
be
c5
df
da
fd
cf
ec
e3
f6
fb
0c
0c
01
d5
fd
17
0b
19
12
03
0d
01
df
f5
13
ed
f4
07
0b
ef
ea
f7
f8
ff
11
e2
e2
07
fa
0d
17
21
dc
c0
b4
2f
36
20
ee
e0
f0
11
0b
19
0b
f2
2e
fb
25
06
cf
e8
0a
f4
15
15
25
10
14
00
27
fb
ee
f3
ff
18
fd
0c
0e
d4
f0
fd
18
fb
fc
e8
e3
d2
fa
f6
d9
ea
f2
12
da
10
14
13
11
db
c5
e8
ca
f8
c5
09
2d
13
f6
04
11
0c
df
ed
0c
04
e1
ba
12
2e
af
f6
fa
1b
3a
e3
03
fc
0a
fd
e0
fd
1d
12
01
23
1c
0c
00
05
37
06
fb
d0
11
de
fc
ec
dc
0e
f2
00
f3
fd
0a
e3
04
fc
f2
df
e0
0c
3a
1e
ff
1c
18
00
e2
d5
e1
f3
dd
de
f2
00
f0
fc
05
db
ba
f4
00
0a
11
ea
1c
0b
00
10
1f
08
da
d8
0a
e6
12
e1
fe
09
f1
e1
ea
0f
02
ee
ec
ed
f1
09
f9
17
2a
0b
c5
37
06
03
cf
db
dc
e2
d9
d7
e0
ef
03
0a
0e
ec
15
10
f2
00
f2
f4
d2
d7
0a
0e
ea
ff
2c
0c
ce
0a
11
05
0d
0e
ec
0e
f7
07
fb
ec
0d
1a
06
00
ff
0d
f5
04
0d
15
0e
10
05
fd
10
00
11
11
17
10
19
ea
f3
06
ee
29
1c
06
df
ff
0b
f9
04
f0
14
fe
ef
f6
ed
0b
ff
da
e5
ee
f4
1e
08
0a
13
f6
fb
f7
df
f5
09
ef
e1
e3
0b
01
0b
f8
ef
f7
fe
04
04
17
1c
16
06
e4
c6
fa
f4
f4
d7
ca
f9
e6
ec
fd
fb
e8
ff
f7
03
f5
f2
2d
22
36
1b
04
dc
e9
23
17
29
c8
d8
ea
01
26
ff
f6
0a
1e
05
0e
fb
e7
e6
d4
fe
1b
0b
01
f6
10
12
c4
e4
f0
0a
16
ec
c2
e6
03
02
13
d6
1e
fc
0c
05
12
19
fd
e1
05
13
22
dc
e5
0f
06
17
0d
03
11
0d
2c
fa
00
0e
11
2f
fa
e5
f6
f8
db
ff
f2
f0
f3
e0
f6
1b
01
10
16
f5
fd
19
f7
ff
10
0b
f6
e0
ef
2b
08
ff
e9
e0
09
16
02
f7
f2
bc
c1
17
12
2e
d1
db
07
09
0e
fe
f5
1b
0c
2a
22
fa
f4
fe
e5
f8
02
02
01
f6
f8
e4
cf
e3
f4
02
01
f2
ef
d9
f6
06
13
f0
fe
f6
f3
0f
18
ee
f2
fa
fa
00
e9
d8
20
19
e2
f2
05
1c
22
e2
d7
22
07
0a
de
f1
02
f2
00
e5
e4
03
ed
d8
ea
d8
f4
fe
11
11
26
ce
fe
ed
06
0a
25
fd
02
02
ee
fc
03
15
01
e3
22
04
ee
e4
d4
e1
02
06
27
44
e6
f9
f9
14
2b
04
0c
fb
e7
ed
16
fe
fe
0d
da
0a
15
fa
fd
d2
f5
01
09
fe
1f
ae
f9
16
f1
dd
0d
f0
18
e8
13
18
0a
ec
0a
f4
25
ec
eb
ff
fd
ee
fe
f5
0f
32
e9
17
eb
15
14
ee
12
fe
18
f5
06
10
fb
de
e3
fc
0c
ff
f4
f5
ec
06
0c
17
1b
ec
ed
fc
fa
04
05
20
ef
d4
f8
f2
f2
02
16
fe
1d
09
14
05
03
18
13
01
0e
18
18
13
cd
db
f4
0e
be
d4
07
f6
cd
fd
0b
ed
ee
1b
14
03
ea
e1
11
04
ff
eb
ef
ee
f0
13
25
08
0b
fd
27
1f
0f
08
fe
f9
c8
e3
f5
ed
f2
ed
f1
07
f7
ca
f3
eb
25
ff
d5
f5
fb
1f
f2
22
01
f8
de
eb
0f
f4
0e
00
fb
d5
28
19
04
d3
c7
f9
02
0d
f4
f4
16
07
16
05
08
e3
0f
15
0f
d7
f9
0a
df
02
0b
fe
1e
12
0c
ea
ff
d4
18
18
f8
fd
07
09
1c
11
0e
fc
fb
dc
e1
ee
06
05
ed
02
fa
00
e4
05
1e
08
17
07
00
10
06
13
0c
e1
e4
0b
fc
f3
df
0b
07
19
f6
12
26
0b
07
07
f4
0d
07
cd
11
02
03
f6
2b
0a
e6
22
22
0a
0d
eb
f0
ee
e8
08
08
01
ed
e6
34
1a
0e
12
17
2f
fc
06
da
e2
ea
f3
de
c7
d6
db
1c
0e
0f
e1
f5
05
fd
0e
d6
21
28
d0
fa
10
1e
17
0c
06
1c
fc
01
f8
f4
f5
20
e9
e4
ed
fb
31
0e
f0
01
0c
ed
ee
06
1a
fe
03
f9
fa
16
24
35
03
c5
05
01
15
e6
f9
10
12
27
1b
26
21
1c
00
d2
fd
0c
14
f6
e5
e5
19
18
f6
20
e8
2b
16
03
03
ce
f4
de
e5
f5
f7
17
02
27
0f
04
0c
0b
05
ee
f1
ff
22
e3
f8
f7
e5
0e
21
15
10
fc
02
db
dc
df
dd
dc
19
f7
eb
f3
18
00
05
ff
f7
10
15
e7
fb
08
f0
27
00
13
1c
17
03
ef
f9
ff
e9
19
07
f8
1b
06
0f
f8
dd
1d
18
0c
0c
f0
18
17
09
21
09
ea
1c
ec
d8
f1
ec
f7
07
0e
12
04
08
03
d9
ef
ff
ea
16
fa
0e
f7
0c
fa
08
07
22
11
0f
ff
ff
f6
fb
15
f0
f5
16
2f
1f
0e
1b
fb
ee
16
ed
e6
e1
dd
de
eb
f4
06
ff
22
1a
e4
df
c9
07
0e
04
0a
1f
02
f4
f6
fe
eb
ed
04
0a
fd
f3
05
e8
17
11
07
e3
00
1c
39
2f
0e
04
1a
13
3a
e3
d5
12
24
08
d5
d5
0d
14
27
0c
fb
2b
19
04
fd
ff
1d
e6
da
07
01
b8
f0
c2
07
fd
f9
f0
e5
ee
00
f7
fd
0c
08
f1
fd
ec
11
f1
e5
dd
13
14
e4
bf
ea
07
f2
27
1f
22
05
0f
3a
12
ec
e7
1f
23
07
eb
02
07
f6
e5
fb
09
30
1e
fa
db
ef
af
00
fa
04
e9
dd
f8
cc
04
04
fb
ec
f7
f8
eb
fb
f0
00
fc
02
fb
e5
06
ee
1b
23
dc
10
f5
07
42
f5
f9
db
2e
33
0f
e0
c8
19
16
0c
e2
df
e9
19
1a
0d
0a
fe
c1
00
ea
ef
dc
fb
eb
f2
fe
1e
0a
ef
df
f3
04
10
0b
ee
04
0b
fc
0f
06
fd
0b
fb
fc
e9
0a
fc
00
f9
09
0f
18
f9
dc
24
30
0b
fb
f9
0d
f2
f0
e2
41
fe
ff
d3
cb
0c
0e
d8
e7
d4
0a
01
06
0e
ef
f2
f2
eb
f0
f2
ed
20
14
08
10
e8
fb
09
f6
01
fc
0e
ee
fc
1c
33
f5
e9
ee
1a
1d
e8
ef
02
28
1f
b9
e6
07
2e
1a
d1
d2
23
f7
f3
e2
e0
0c
27
03
04
04
fc
00
1e
08
1b
f3
fd
22
14
07
cb
06
0a
14
f1
e6
05
b7
b0
f8
18
1d
ca
ca
e3
ec
08
f6
f4
16
06
ef
11
e2
01
09
df
08
01
00
de
cc
f0
e7
f2
0c
0c
eb
ea
fe
17
0c
fe
f5
07
04
0c
0e
ee
12
08
f1
1f
f0
00
f5
fd
05
f2
d8
06
f9
f9
e3
f1
d3
fb
30
11
0d
f9
07
17
f2
0e
f9
1a
1f
10
13
0a
ef
05
f7
ea
f0
04
cf
dd
f9
06
19
e9
ff
02
0b
10
f0
05
0b
fc
f3
1a
01
fb
df
06
15
17
18
e7
e3
0a
fe
21
01
0c
e8
1f
fe
08
f7
f0
f5
fa
00
fe
f6
e9
fb
0c
e5
04
08
f5
ed
ec
03
f8
f2
fa
f8
0a
f8
f3
f8
f5
fe
00
f0
f5
f7
1a
01
f5
07
f7
12
12
0d
f5
f5
e5
03
2a
00
eb
fb
f9
09
25
05
df
f9
e1
20
14
e9
fe
fb
fd
01
f3
e5
f3
ef
06
f3
e0
f8
fc
f4
07
fb
fc
ff
01
f6
ff
e6
07
03
eb
fb
f2
f9
fd
f1
fd
f3
14
05
f9
eb
e4
08
06
0b
f3
ee
f2
ed
f9
f2
02
f9
de
f1
ed
ee
e5
0a
f4
e2
04
fb
fc
1a
02
12
11
f3
13
00
01
0a
0b
fb
01
fc
f2
fa
e8
03
ed
f8
fc
de
ff
fb
ec
ff
f5
f3
f0
01
ee
fd
ef
ec
f5
d5
f4
ee
09
ef
e6
03
f6
e0
e5
fd
0b
fd
f9
f4
f6
06
13
0a
f4
f2
ef
0f
0d
eb
05
eb
fe
f0
0f
fd
0c
f3
ee
f8
f3
0c
fa
0f
12
f0
0d
16
0b
0e
0b
f3
f4
dd
fe
09
f0
eb
f3
06
12
04
fb
e7
f3
ea
fc
fb
ef
f9
fc
01
00
03
fc
f3
fe
f7
ee
fd
fa
dd
fc
00
f4
ec
06
de
f0
0b
fc
f6
f3
f6
f0
f2
04
ed
03
f8
fe
ec
f4
04
ec
f5
f8
eb
fd
f5
f7
25
00
07
e3
14
f9
fd
0e
ea
ea
e5
ef
07
f3
fd
eb
f1
fb
fd
03
ed
fa
ea
12
20
1b
09
db
f4
e7
09
18
30
fe
f6
ea
ee
08
05
08
e9
e9
e8
05
0c
04
eb
ef
df
18
06
e5
f7
ed
eb
01
08
06
06
e4
0c
f0
03
05
0c
f1
f2
f7
f0
f8
f4
f0
ee
ed
06
13
fa
f6
ff
fa
01
00
f9
fa
f5
15
f4
f5
fd
0a
02
02
f9
04
07
e8
f7
e0
ec
1a
07
10
e3
d6
04
e0
f7
04
f1
e7
0e
09
0b
09
07
f5
09
f5
e5
f8
f9
fd
e8
01
fa
f2
f1
08
fc
01
f7
03
0e
f4
03
fb
04
f3
ec
ef
f9
f7
ea
eb
03
fe
03
f3
04
0c
fb
07
ff
f5
f5
02
f9
04
fa
f9
08
f8
f2
fc
fb
f6
fb
00
ed
f9
02
fc
ef
f9
f4
05
f5
08
00
f7
0b
f3
ef
fe
05
07
02
ff
f7
04
fe
f2
f8
02
05
f5
f2
fd
f1
04
ff
01
fa
f8
f1
02
06
03
f4
f9
02
f9
f4
f9
fd
ea
07
03
03
fa
ff
f1
f7
00
f2
f1
01
00
f8
06
f1
f7
f4
01
03
f7
f9
08
ff
f3
f7
03
f9
ea
ef
f9
f6
05
f4
fa
f5
06
ef
02
f9
fd
fe
fb
f6
07
f2
0b
04
f3
fb
00
f7
05
fb
fe
f5
fc
01
fe
ec
fc
03
fc
07
04
f3
ff
04
f6
f4
fe
fe
07
09
09
f3
f1
04
f6
f5
06
f4
fc
f3
f5
f1
02
fe
ff
07
08
f9
fe
ef
fe
f5
00
fd
f9
ef
f5
ed
ff
fc
0c
fc
eb
ec
ff
03
fc
f5
f7
fa
f6
04
06
f3
f9
f3
00
f2
fe
fc
f5
04
01
f2
ee
f5
f3
f8
03
fa
f8
06
08
00
f4
f6
f3
fe
f4
fc
fb
ed
03
f9
ff
fa
f6
f8
f6
08
f2
f6
f7
f7
f5
f9
0c
fd
00
fc
07
0d
fd
f4
05
f8
06
ed
f7
0a
0c
fa
fa
02
f5
09
fc
f7
05
f0
fd
0b
fc
f1
07
f8
f7
06
f9
0a
f6
01
fd
01
00
ff
fd
07
f5
fc
0e
01
f3
01
04
06
03
08
f8
06
f7
00
f6
f3
f4
04
00
05
02
02
fa
ff
fd
f8
fc
f4
fc
ff
f4
ff
02
00
f6
f5
fe
fb
01
f5
06
01
ee
f2
f9
ed
f7
02
05
ff
f8
04
ed
fd
02
fd
03
fe
f8
f5
ed
fe
02
fd
09
fb
f8
fa
03
09
01
05
0a
f0
08
fa
f8
fc
fe
ec
fc
f5
f7
0e
fd
07
00
01
fa
fc
05
f4
00
02
f6
03
01
fb
06
05
fb
07
fe
f9
09
01
f3
00
f6
ff
ef
f9
ff
f9
08
08
f6
fb
04
f3
06
fb
f0
fb
06
01
f5
f0
f9
f5
f0
f4
06
ec
f4
fa
f4
08
f7
09
fb
08
f3
16
f5
06
f7
f6
ee
f7
02
fb
f0
f6
fd
fd
e4
e8
0c
fe
00
f9
07
ed
f8
ed
fc
f9
fd
ed
f9
fd
03
ff
fa
eb
ff
f1
f4
e2
ee
e9
fa
f9
f3
01
f6
03
f3
04
f2
0a
08
f0
07
0c
fe
f9
ea
0f
04
fa
00
0c
12
0f
07
04
fa
06
f0
ee
06
0f
fa
fc
04
f8
ef
fe
00
f7
fa
02
07
f2
f2
fc
07
fb
0f
0a
ea
0a
05
0a
ed
01
e1
ee
e4
fc
e8
f6
f7
f9
f0
0c
06
08
03
ff
f2
ff
f7
00
fb
f8
f4
fc
f1
fa
04
f6
04
fc
01
fa
ed
f1
04
f4
08
00
ec
06
fb
fd
05
f8
fa
f9
00
fe
0a
04
f7
f4
f5
f5
fb
fa
eb
fc
f7
f1
ff
e9
03
fa
05
ec
08
f3
ee
fc
0b
f2
fe
00
ff
fc
f3
0e
05
f4
f5
f1
0d
11
07
f8
02
ec
eb
ea
ec
f7
fc
f7
f3
fd
ff
03
00
04
ec
f6
0b
f9
02
e5
f4
ed
fe
f7
f0
0c
0c
fd
f3
06
0a
fa
f8
fb
f8
ea
09
e8
f5
eb
06
ef
f5
fd
f7
fc
00
fd
e6
02
f9
fc
f5
02
fb
fc
ef
0a
ff
03
00
0a
fc
ee
fa
f7
09
f6
ec
02
fd
ea
ef
f5
ef
f4
06
f6
ff
f6
fa
fc
ed
f8
00
fc
e4
07
08
ff
02
00
fe
e2
ed
fb
09
f2
f6
fd
08
07
f8
f2
05
01
f7
f3
e6
fb
f3
02
f2
fc
00
f8
ed
f3
eb
e7
ef
07
0d
04
f9
f8
fe
05
f7
f6
f8
f8
00
f9
f0
f1
f5
f5
06
ed
f4
f5
f4
f2
03
f6
fb
0c
f6
e9
f0
f0
f6
eb
eb
ea
07
01
f2
f2
f0
18
fd
f0
fd
ee
f1
e2
ef
f6
ec
03
08
fe
eb
fa
10
00
04
02
f5
06
fc
eb
f5
e7
f0
e4
fc
f1
f8
fb
14
00
fb
fa
03
f5
03
0d
f1
f0
06
f2
f2
f1
ff
0e
f9
fd
fe
ef
03
f5
04
f7
fe
f3
f4
fe
f9
09
f1
f0
f2
ff
ee
f9
f7
f6
f7
f4
fb
f7
01
0a
07
f2
0a
05
05
08
07
f6
09
fa
01
f9
f3
fd
05
ff
f4
f4
f4
03
0c
f6
fd
fa
01
fe
f6
fb
fe
08
01
06
0c
fa
05
f5
f7
fb
06
f0
03
ff
fb
09
07
fd
fe
07
09
06
f3
09
f5
08
06
fc
0f
fe
04
00
00
06
08
f1
f3
03
03
f9
f9
f0
fc
0c
ee
fc
fe
08
06
09
f3
fa
f3
05
f5
fe
08
f9
f7
fd
08
f3
05
f1
f8
06
f8
03
00
f4
04
05
04
f1
f5
07
fc
fb
02
f2
00
f5
04
09
f2
f1
01
02
01
04
01
0a
fc
06
f2
fd
fc
01
f5
f4
06
00
07
f8
f9
f2
fe
02
fe
09
f2
00
f7
05
02
fc
ff
ef
ff
fa
f7
02
01
fe
ee
01
f1
f7
f6
fc
04
07
f5
f8
ed
01
f9
f3
f7
05
f8
01
f2
fb
05
fa
f2
f7
ee
03
f4
f4
01
fb
f8
08
0b
06
07
fb
ff
03
01
04
ff
fc
f9
fa
fb
fa
08
02
f6
06
05
00
f8
04
0a
02
fd
03
09
f7
08
f7
fc
f4
fd
fc
09
ed
08
f2
02
f5
f9
fc
09
fa
06
ef
02
00
fa
04
f6
f4
01
05
07
02
fa
fc
fb
fc
07
05
f5
01
01
fd
06
07
03
f4
07
01
f5
f4
f8
f8
00
f3
f5
04
00
ed
03
02
f8
f4
fb
fb
ff
f7
09
f7
fa
07
02
04
f5
f4
fe
08
05
06
f1
06
fd
f9
f2
01
05
ed
01
fd
fc
f7
ed
ed
fc
05
07
0a
00
fa
f8
04
f8
f4
02
fc
f6
ff
f7
fc
fd
fe
f0
fe
04
fb
f2
07
f5
f8
0a
06
07
04
00
01
fc
fb
05
f5
0b
08
f1
05
06
fc
05
01
f5
f5
f1
ef
f6
f2
fb
f3
f4
fb
ff
f2
fd
f4
f7
f6
f8
01
f0
ee
ef
03
fb
f9
04
ff
f2
f1
f2
f2
f3
15
f6
f7
f5
fb
bd
ef
02
ed
de
32
20
f9
e9
00
15
0b
f0
bf
e8
0d
10
b3
a1
b9
14
16
20
07
d6
02
f0
fa
07
e8
c5
dc
d6
d7
ea
d0
f2
dd
c1
03
e9
08
0b
f1
fe
eb
cb
e6
e0
ec
c7
f2
1f
dc
24
00
26
21
1f
18
07
f5
f1
0c
07
fb
03
e9
f6
fa
d9
ee
ee
fd
2b
b4
0f
f6
23
14
01
0a
23
1c
db
ef
fa
3e
f8
f6
f5
2b
05
05
02
21
22
20
29
26
1c
09
07
00
02
13
ed
ed
2f
26
fd
ec
10
32
22
f5
e2
01
07
18
fa
d2
39
26
24
00
ff
3a
d1
e0
f4
f1
3e
f3
c3
ff
04
25
d7
f6
f6
15
1b
d1
c8
1d
3c
33
23
07
0a
01
0a
1b
0a
ea
ba
bf
e2
e5
e4
05
dc
07
28
f3
10
19
0a
13
e9
02
0b
f2
f7
fc
00
09
04
e8
22
11
1a
e7
00
ff
22
36
29
10
c1
bb
19
02
04
34
14
0f
12
33
26
09
10
f1
ed
1e
eb
d8
0e
14
26
15
06
1a
2e
19
fb
07
08
f1
e4
19
12
1c
f9
f9
10
0b
29
e4
f4
f1
fc
02
e8
e8
27
09
e8
cc
0d
16
28
ee
d2
0b
f2
18
ff
05
00
01
f5
3b
03
e5
e4
f3
1d
d3
f0
f2
f0
06
c5
dd
f8
22
ff
cb
1f
22
27
01
df
03
e8
df
0e
0d
ee
de
eb
ff
0c
ea
15
11
fb
f0
a3
ff
03
fc
ed
10
15
21
27
14
08
f1
cc
db
f9
0f
10
f3
0f
32
20
0e
09
1b
32
ed
ef
fa
fc
03
08
28
fc
d8
09
0b
0b
eb
14
12
d9
0d
d4
38
1d
dc
f7
12
0a
e9
b4
f7
fe
f3
f6
0a
0b
29
13
1e
f8
fd
0b
06
f5
e8
e8
0a
e4
1c
fa
0c
0c
11
26
f8
fd
fd
f4
0d
eb
f0
03
00
f6
cb
f3
f6
f5
ec
14
2e
07
fd
08
22
00
e2
07
26
e5
02
de
d6
fd
1e
17
0f
fa
eb
e7
ec
17
db
f1
eb
d9
be
e3
d6
ca
be
cc
cd
fa
25
20
fe
d1
03
f0
f4
e6
e3
ec
ea
fb
06
05
da
09
f9
fb
0f
ef
fa
10
f6
fe
05
10
12
13
06
fd
19
1a
0a
e1
e3
f4
26
18
03
e8
e6
02
00
d9
e6
c9
e7
f2
1d
07
d1
0d
fc
09
d2
f5
db
e1
0d
05
fd
1e
0b
26
fb
e8
e1
f0
11
01
bd
05
f2
02
f5
f8
2d
ed
14
e3
ac
be
fb
02
fe
00
07
cd
e9
f2
cd
ff
f9
d7
d9
ed
f2
03
0f
ea
0c
0b
0d
0a
16
0e
10
04
03
03
0e
fa
e6
e5
d3
03
02
04
29
f7
f9
04
11
00
d7
f3
06
2c
0f
cf
be
d9
e5
e8
dd
f9
0a
fd
ee
ca
02
f2
09
ed
c8
10
07
fc
f5
b8
05
fc
05
f3
e6
eb
01
21
10
eb
d0
ef
db
f4
e8
f3
ef
d6
c3
b1
21
ed
b7
d2
c5
20
29
1c
08
fe
ca
f3
22
34
02
00
34
f9
06
01
08
fa
1b
e0
eb
ec
1b
0d
08
f7
11
fe
00
07
11
ca
df
25
14
01
0a
07
1d
1a
15
ff
fe
11
12
1b
cf
e5
10
0a
eb
cd
ff
13
ff
00
cf
ff
fe
d5
f9
12
f5
08
ea
f5
19
fa
18
1c
19
05
1b
14
10
0d
fc
ee
23
14
2a
eb
de
f2
f4
d2
fd
de
0b
18
24
10
e3
c2
f9
0e
2a
e4
f5
f8
14
31
0a
f2
07
01
12
37
16
07
b4
fd
f6
ed
c2
a6
e7
11
fa
ba
ba
16
0e
d6
a3
ca
01
0b
e3
f2
02
27
1f
33
1f
04
b1
ce
fb
10
f0
f4
f3
ec
17
05
00
ed
10
15
05
2b
1a
16
10
25
d5
fd
17
02
e3
e7
1f
37
da
b5
dd
f0
07
c5
b9
05
02
19
bf
a6
09
01
fa
f1
12
28
23
27
14
d8
e1
f4
f1
e8
00
ca
f9
fe
f4
df
bb
b8
ce
db
36
dd
15
0d
0a
0e
01
fe
f4
ea
13
fe
e0
08
09
15
01
04
20
f9
fd
2f
0b
de
f7
b6
07
d8
d1
ca
fd
ea
f1
08
17
02
cc
f8
1d
0c
00
03
1a
ef
d6
df
fe
0f
f0
ee
f4
02
eb
0b
17
0d
1c
10
0b
b5
af
fc
19
e9
fd
f0
07
12
fa
09
1a
11
f9
dc
f3
15
00
f1
df
e2
ee
1b
0a
cf
d6
d4
15
11
04
eb
e4
16
0d
ce
f5
22
ff
cb
e8
0a
12
08
f7
08
02
01
1b
fa
fb
05
f7
2a
0a
02
10
07
fc
21
04
10
24
f4
eb
e8
02
06
e6
01
dd
e3
d8
12
05
00
e8
f8
fd
0b
e6
eb
0b
0e
ff
f2
fc
e8
0c
0f
28
dd
f6
ff
3d
3f
fb
e7
ef
f2
1c
0f
21
fa
0c
ee
f2
e7
19
04
d3
c8
e1
fb
0a
16
16
00
f6
f2
ea
ea
e7
fd
05
03
1e
0a
0a
ff
f0
fe
19
06
fa
0a
16
f9
18
19
11
f8
e5
f7
f7
01
d1
f5
19
1b
17
01
d3
0c
f1
17
f7
e8
f2
b2
fe
26
22
df
0b
11
f2
1d
ee
fb
fa
e2
d8
04
03
de
df
dc
09
fe
ea
ea
03
f3
ee
f7
fb
17
04
00
10
09
10
23
12
07
02
eb
d8
bf
c3
05
ff
eb
ff
0d
10
f8
f7
1f
13
06
08
f0
e2
e9
de
e8
1d
fb
25
23
fd
06
ef
0a
f5
06
1d
04
06
c9
d3
12
0b
0e
f5
e4
07
f8
f9
0a
01
c0
02
fa
29
1e
27
21
2b
0d
02
f6
f5
ed
1b
12
cb
eb
06
3f
fe
fc
f3
11
03
d7
fd
ee
de
e3
f9
1e
03
09
03
ed
df
e0
ef
f6
f7
f7
19
15
02
f2
ff
10
f7
e2
ea
f2
fd
d2
01
dd
1a
0d
0a
28
16
0e
20
eb
0b
04
f9
f3
f2
0f
11
05
e0
06
fa
e3
14
11
fd
ee
da
fe
10
07
ec
e6
0f
00
e6
de
12
ff
1d
05
0c
fa
26
1b
27
fc
9d
f7
d0
ad
ba
a0
12
f4
1b
27
13
0b
fe
e6
07
f1
d6
db
d6
05
02
f0
ed
03
fb
09
08
24
fd
f2
e9
0a
f2
f9
0c
c7
e8
f9
fd
07
e0
03
0b
17
05
ef
10
03
00
ec
04
f2
dc
e0
14
10
01
e8
db
f1
d5
f0
e8
ff
11
25
de
02
24
f3
1a
d2
f9
01
13
e5
00
fe
fb
10
e9
f3
b9
d9
06
f4
0a
0b
08
34
2c
05
1d
16
20
18
04
00
f3
ec
ff
fa
fd
f2
04
05
fa
09
eb
fe
e9
12
04
ea
12
23
f9
07
05
0c
e8
f7
f9
f4
f9
dc
11
f9
f2
db
d3
05
f5
07
e9
29
f7
ee
fa
eb
1a
01
fe
fa
f9
ed
ed
01
28
27
15
f1
22
42
06
fd
f5
09
18
ee
c7
13
1a
0b
e5
e4
11
f8
0d
10
d7
02
07
0a
fd
f0
12
fb
0c
e9
e2
15
0e
17
0c
f9
1b
07
f8
fc
f3
fe
c0
d8
ec
0a
17
09
07
15
f0
11
17
07
12
e3
2c
26
08
0a
16
ff
10
0b
12
24
12
ec
23
23
f2
fe
0b
e8
01
fb
12
24
f4
d8
f2
f4
fa
1a
ff
f2
fc
09
18
14
00
03
ff
e4
03
03
e9
f4
f8
f9
fe
f0
15
21
18
07
db
ee
ec
e2
e7
ee
0b
14
fe
ef
fe
0d
02
1d
01
06
fe
d5
24
16
f3
d4
fa
37
35
0d
14
05
01
d6
00
00
0d
0f
eb
e6
05
f0
fc
15
1f
23
00
ed
f7
e5
f5
d6
cc
ff
17
12
0d
0e
f7
15
10
1e
22
e2
ca
ef
fd
f8
d4
0f
13
0d
03
f7
f7
f4
e1
e2
e3
10
18
0c
0e
01
dc
c6
05
f5
0c
eb
0a
f5
f3
06
00
eb
e1
de
10
13
ff
f4
fc
0b
03
1d
21
11
f4
fe
02
0e
19
d9
e6
eb
fe
ff
de
00
0b
28
07
e5
04
fa
06
04
e5
0e
02
18
0e
0b
04
f6
03
ec
f7
cd
fa
fc
e6
ea
f5
fd
11
05
f3
fc
18
20
fb
d9
03
f7
05
f4
f6
fc
fa
ef
ed
fd
fc
fc
fc
f7
01
f6
fd
fe
03
02
ef
f4
f7
07
00
0a
ef
03
05
f8
fa
f2
fb
fe
fb
f2
f0
f9
02
fb
09
fc
06
f4
00
f9
fa
00
01
f8
02
02
08
04
0e
01
09
f5
f9
f8
f7
02
09
1a
0a
fe
08
fe
fc
05
f4
03
fa
02
05
02
f5
f0
01
fc
ed
14
f3
19
fb
0a
14
08
05
f0
f8
f2
fe
f7
f8
fe
f5
fb
08
f4
f8
09
fa
fb
fd
0c
fc
04
f9
f6
ee
fa
02
00
fc
f3
08
fb
f5
02
f7
f2
f5
f5
04
00
02
ff
ea
04
fe
fd
01
fc
f8
fe
06
02
f7
06
f2
fc
05
f6
00
ec
f1
0a
f7
0a
fc
07
fb
07
f4
ed
02
07
03
ff
f6
04
02
03
fc
f7
ff
f5
03
fd
06
ef
06
f8
f8
fd
00
fd
03
fa
f9
ff
ec
eb
fa
07
fb
f3
f1
f9
fc
fa
fd
01
08
00
02
fe
fe
f4
f2
fe
f6
f2
f6
f2
0a
f9
01
f2
05
f3
fa
f6
f7
ee
ff
f9
02
01
fe
f3
f1
fe
08
09
02
01
fe
fa
f2
03
fb
f6
f1
05
f3
ff
fa
09
f1
f7
f9
04
f7
f6
f1
f0
f8
01
01
07
08
01
04
fc
ef
f9
01
04
08
05
f9
f8
ff
03
00
f5
00
02
06
f6
f1
f4
f6
f7
fb
01
f5
f5
fa
03
f5
f0
ef
f5
f2
f2
f1
fd
ef
04
05
f9
fe
f6
f5
04
02
f2
f5
fc
f2
f6
f4
f3
f8
f3
fa
01
fe
ee
f4
fb
08
ff
f6
f3
f9
07
fa
ff
ff
00
fe
f7
fb
f3
f8
f0
f6
f7
00
fa
f4
0c
f7
03
fb
f1
fe
fe
07
02
ff
f5
f9
fc
fe
f2
f6
f4
f6
f2
f8
fe
f9
f2
04
f6
fe
fd
f2
02
03
f6
01
f2
05
f9
f9
fb
03
ef
f3
fb
fc
f1
fc
f1
fe
06
ff
f9
0d
05
fa
0b
03
04
f7
fe
fd
fa
fd
f6
f0
ed
09
06
07
f3
f3
f2
1f
ed
2c
19
29
ff
37
05
db
d9
e4
f8
e0
ec
ef
26
f1
db
26
5b
3a
fa
05
0c
f3
0d
f8
1c
1d
f3
ee
06
00
ec
f6
11
0d
f8
29
26
07
24
f9
fe
0c
f2
16
fb
03
dd
01
06
0b
e2
0b
ee
24
24
dc
ed
fd
0c
12
f0
be
ce
f6
fa
fa
df
e6
fe
0a
02
f7
e7
c8
f9
eb
fa
e8
ee
e5
03
04
11
f2
29
0a
f3
ca
d6
e4
e7
da
e4
18
0a
0b
08
0e
0e
04
07
f5
08
ee
e7
fe
22
06
17
02
1b
10
d4
01
fd
01
e5
01
14
f4
de
f3
24
0c
0c
d1
13
10
fa
10
e9
da
07
04
0a
e2
05
f9
ec
f3
f6
32
24
0f
f0
ea
e3
0d
1e
13
06
dc
f7
fe
06
f2
f9
1d
04
2c
08
12
10
10
0f
10
14
de
d6
03
03
14
0d
c2
ef
02
0d
fa
1c
19
fd
eb
ed
f0
d7
00
14
27
1e
06
ff
15
23
fb
05
04
18
04
fe
de
fd
0c
1b
00
e6
fd
14
1e
f4
04
00
0b
e1
f5
f7
05
de
02
f2
fe
e7
04
e2
06
f3
0f
fa
01
fa
2a
2a
f9
e9
18
03
e3
c7
e5
1d
cf
cf
ce
1d
ff
09
08
de
0c
fd
ee
23
e8
dc
ed
d3
0a
e1
cc
03
ec
17
e8
e1
2b
12
00
ef
fe
df
10
08
16
12
ee
f2
e8
e5
d4
fa
07
05
1f
17
03
fb
1e
35
00
4f
13
ec
f6
01
13
05
ff
14
12
e0
dd
06
13
2a
1e
1e
f9
1c
fa
09
f9
ff
de
f9
f5
eb
fc
01
36
e3
fe
02
13
0e
d2
ea
f2
f6
d6
04
01
dd
ed
b9
ea
e4
e1
e9
08
15
17
f0
1e
02
01
0f
0f
0e
0c
ec
18
fb
05
14
0d
ee
ec
e4
fb
07
22
16
2b
f2
11
0d
ff
fc
f1
1d
1a
fb
e1
e3
e6
ff
f8
16
07
33
22
19
07
ea
02
ee
e9
dc
f2
06
ec
ea
ff
3c
15
e4
f7
1c
f3
fc
00
f9
fd
f5
0c
16
ff
0a
22
1b
f6
eb
08
08
16
15
04
14
f0
25
17
f5
ed
d8
00
00
11
0e
fe
10
f8
10
17
10
ef
e5
ed
06
f2
d7
07
e9
f4
f8
f4
c1
b4
e1
f8
ee
d9
d0
dd
0c
03
05
19
e8
e7
0d
0e
23
03
f9
0d
1c
19
09
fb
fd
e8
bf
f9
23
ef
e5
ca
06
27
0e
19
12
fc
fe
f7
10
1c
f7
fa
37
07
fa
11
07
fa
e8
e6
e3
0d
f5
f5
02
0c
1e
0b
f8
fc
1b
f3
ff
e9
e5
fc
f9
d2
d1
e7
04
f7
08
00
13
00
26
0a
1a
14
ee
10
1e
0a
06
f3
14
f7
04
fa
02
07
fe
0f
16
2f
e6
22
02
e6
ea
d5
02
05
0e
e1
10
03
ef
02
03
0b
f0
e9
04
fc
ef
fb
09
02
01
e4
06
0b
0f
06
07
06
e4
e2
03
0e
06
f0
f8
fe
0d
13
0b
fc
fc
e3
f6
f5
15
0c
bb
00
06
d9
f2
13
04
fb
10
e3
15
0e
fe
15
19
0c
19
e9
00
fd
0a
f7
dc
db
e1
fa
f1
e9
f3
03
f7
ec
f7
fa
19
f7
eb
18
ff
05
05
fb
10
fa
f7
04
f9
0f
27
16
19
f7
1a
11
cc
dd
fd
06
23
f3
ef
fb
00
f3
f2
02
f1
0d
d9
df
07
06
01
ee
03
0d
07
0c
14
00
f9
0f
f2
f4
07
fa
f2
e0
f7
12
1b
f2
0e
16
01
ec
e3
0a
f9
cc
de
10
1b
15
21
18
0c
f1
04
15
2a
fe
09
1d
05
e3
04
f0
f1
05
f6
f3
ed
e2
ec
dc
0a
0d
fd
03
11
00
e8
19
f8
f6
f0
ec
f7
f1
02
06
e5
cf
d5
f5
e6
ee
f0
ec
03
0c
20
14
10
fb
08
06
f0
10
18
ed
fb
03
1e
04
f9
f8
09
fe
f5
f2
f6
fc
f5
e7
f9
f4
f7
ee
1e
fb
0a
27
08
ec
fa
32
08
ee
e2
19
0b
e6
fa
05
26
04
e7
ef
e7
0a
eb
f6
1e
0a
07
f6
08
13
f0
d1
ea
21
c9
fa
f8
f5
09
29
27
1a
2a
32
39
18
25
0c
0e
0c
e5
11
f6
04
07
fa
19
1d
26
00
36
fa
f1
1a
1e
0a
f0
01
f2
e7
ef
ed
e4
ee
f9
18
f4
00
02
fe
fd
e8
0e
fd
d8
0f
e1
ec
b0
e6
e7
ee
f8
f7
08
f0
02
d9
e3
1e
1a
03
01
ee
fa
23
04
25
04
05
11
db
d5
ef
fe
c1
02
ee
10
f0
13
05
1d
21
f7
fa
f8
f7
05
19
24
23
ed
12
0e
04
fc
f5
0c
e6
c8
fb
e2
f5
ff
f4
ee
ee
dd
ff
f6
f4
03
f2
fc
25
e1
0b
db
f5
14
f4
05
cf
ff
f2
09
d6
fd
36
35
18
03
06
03
ef
07
0e
16
fe
02
0e
0f
00
0e
37
06
03
12
0b
fa
00
f8
f2
d3
ab
0f
15
fc
0d
fe
d1
eb
03
f8
19
f8
00
07
0c
fb
1c
fb
15
01
0f
2f
2f
11
0b
e4
e9
02
05
eb
01
f8
fe
19
0a
13
11
ea
ee
06
11
11
ed
f6
f1
b8
ed
e6
e7
ea
f9
09
e6
f4
e2
0c
2e
f8
00
10
13
07
fa
0e
fb
d9
c2
ef
0d
e3
e9
ba
d8
e9
fa
40
29
0e
e7
eb
f3
28
f0
f7
dc
f4
2b
18
21
e9
00
d6
fe
22
e2
e5
e6
00
f0
e8
02
06
1a
12
0a
f8
f2
e5
dc
05
0a
0e
f7
14
2d
1f
ec
f9
1b
1e
f2
0e
01
01
ee
d6
11
13
09
0b
11
ea
f2
06
f8
39
0a
04
00
f2
e0
f9
fc
e2
d1
db
1b
f9
05
0e
ec
f7
0a
02
00
2c
dc
d9
e0
e8
00
f1
e3
f6
db
03
37
09
ef
1f
0e
3a
13
04
fd
03
1d
25
25
1f
ff
ef
0a
eb
ff
06
06
12
05
0f
f9
fb
01
1c
1a
10
f3
fb
07
f3
df
f6
fa
f7
02
f6
f2
ff
08
08
e9
d9
0d
13
ee
d4
fe
fe
df
f3
f5
2c
28
16
11
11
e9
fe
fd
f1
0b
fc
04
06
07
ef
08
21
06
0e
dd
03
dc
15
21
f2
f8
f2
0b
fd
08
ec
29
27
0d
09
f9
e2
00
06
09
af
d4
ec
db
d2
ea
e0
09
10
01
01
f7
f9
15
24
f2
fc
10
d8
c2
fa
08
07
ed
e3
0f
26
29
43
28
18
f5
fd
29
09
f7
f0
05
ed
02
f5
09
ec
f3
f0
fa
06
03
10
e4
2c
d6
f2
0e
12
0e
e3
2c
0b
0a
f6
09
06
06
0f
27
0a
00
f2
c5
06
19
07
11
09
13
09
f3
06
17
cb
e8
e8
ff
fc
01
0a
0f
18
12
f6
f2
02
1a
2e
f8
13
17
23
f6
0c
e4
03
37
e4
1a
d9
db
f4
03
14
f4
d5
cd
ee
14
1e
10
f7
eb
17
03
e8
05
dd
fd
eb
e5
e4
eb
c9
e9
df
f2
08
ec
ef
0a
11
19
f7
eb
fb
01
f1
16
01
12
04
d8
ff
0f
22
f0
f3
0a
13
f8
fb
11
20
14
12
0e
35
10
fe
0e
00
de
f9
fa
10
fc
ed
43
2c
0b
14
fe
db
04
15
09
20
f9
1a
27
03
f7
f5
fa
0f
fd
e7
d8
f1
fb
fd
0a
c6
d7
18
09
f8
de
19
01
f3
ef
13
ee
e7
da
c8
0c
f4
ed
1b
e8
ea
fb
d4
19
21
ba
e1
e6
04
ff
f3
09
02
f4
c7
08
0b
02
f8
ef
eb
15
2f
14
eb
0b
01
e2
d3
ef
c1
e7
f5
f5
0a
f9
f9
0b
24
0a
02
07
05
18
21
03
fb
fe
0e
f0
17
06
e7
00
06
0d
ff
f2
d1
06
08
0b
10
0a
1a
18
05
18
df
0c
16
1a
e9
f6
ea
34
fd
d1
09
01
e9
05
ce
01
fc
11
2b
fe
fe
e6
18
19
09
09
03
fb
05
10
ff
f4
17
ea
05
fe
05
da
eb
f9
cc
d6
f5
f6
04
f2
1d
06
0c
0e
12
1b
dd
02
14
06
04
05
15
08
fc
f8
f8
14
24
13
1f
0c
15
fe
fd
f5
ec
f3
ed
db
05
e5
e3
e0
da
1a
08
e5
e6
e0
01
e9
d2
c9
e3
fa
d8
f7
f7
f7
f8
e3
e9
f1
d5
f2
dc
fa
e5
f9
2a
02
dd
f3
fa
0b
e3
d7
fd
f7
01
06
15
02
f6
f0
e0
07
2e
eb
fc
e1
f9
0c
0a
f7
fe
fa
02
e3
f1
ef
fa
fa
de
e6
ce
df
ec
fb
f9
e3
ea
f4
fe
03
1a
ff
27
f3
08
02
00
f6
02
f6
03
05
ee
e0
f4
fd
02
de
e0
f7
e9
f5
1b
f6
05
e6
00
db
f3
f3
f5
f2
09
10
ec
f1
f0
08
03
04
04
fe
ec
f6
f1
1e
eb
06
0a
f4
06
00
f1
0b
f7
11
1a
e4
00
00
fb
14
fc
04
f5
12
fe
f0
10
05
fd
02
0c
ff
fa
f4
f7
f8
12
13
e4
df
03
0d
f4
e5
dc
f3
0c
ec
ec
de
e6
d7
f6
ef
f3
f2
ff
f5
f6
e7
de
f7
01
fc
fc
05
05
04
e9
eb
10
f2
f6
ed
f3
0c
01
e7
e4
f2
f4
f2
f5
f0
ec
f5
09
0b
d8
f2
0e
02
db
ed
f7
13
0d
fb
07
f6
e6
e5
d2
fe
e7
f3
fe
f2
fa
1e
fc
04
23
13
04
0d
da
f3
f2
ef
fd
d0
10
e9
02
05
05
0f
e2
df
ed
f5
e4
04
04
f2
05
0b
fd
0e
18
e6
0e
f7
f9
f5
ed
17
01
20
09
f8
2a
e5
11
0d
e0
e8
0c
05
0b
f3
0f
15
13
14
ff
f2
d1
db
ff
f5
e4
04
fd
02
04
fa
e6
fd
07
11
11
f2
e1
03
05
02
d9
12
16
0d
0f
00
f9
e6
ee
08
f4
dc
ed
d6
f5
04
f6
f2
fd
0b
14
fe
e7
c4
00
09
07
0f
ff
dd
fe
f2
0f
e7
f6
e0
fd
0a
0f
01
e8
ff
1a
07
fa
05
f0
e5
f9
12
1a
f0
18
0f
f9
f2
f7
06
00
ea
e2
f0
f5
d6
e3
0f
f1
f4
13
03
e6
de
f2
17
0d
ee
e7
e0
ff
f1
f3
cb
d9
ec
d8
e9
d1
ec
fa
eb
eb
d7
e2
d8
00
06
13
07
07
19
0c
0d
fe
15
eb
e8
db
d1
10
01
f8
e8
f6
fc
fa
f4
18
0c
1c
ff
14
1e
f2
fa
ee
e1
e5
01
10
d4
e2
ba
ee
17
f7
ea
e4
ea
f2
08
e8
e4
f7
07
e0
0d
01
e1
d4
ce
0b
0b
f2
d8
fa
fd
0c
21
0b
0c
f5
f0
0c
00
f4
13
0a
fb
1d
0c
07
e0
9f
a7
e9
2a
f7
df
f8
05
0c
0b
02
ed
ef
f0
ff
1b
fe
13
09
1f
0d
05
0e
20
1b
16
11
0c
0c
05
fc
1e
2d
16
f0
f8
1a
09
f0
e2
f3
14
04
f6
d9
e5
ed
f1
05
ff
d7
db
f3
0f
00
09
11
02
16
e4
00
01
f9
f7
f3
ef
f8
2f
f3
15
33
e8
fa
0b
04
27
02
fd
03
0a
07
11
19
f5
ee
fa
0e
1b
03
f9
eb
f5
0e
f2
09
0f
04
ff
15
0e
14
17
16
0e
1e
05
0d
1c
0c
0c
0a
02
08
38
f8
2c
10
e8
01
f2
07
ff
e3
1c
ec
29
08
ff
ee
fb
10
16
1a
2a
0e
14
20
f9
1c
01
0b
01
0c
0e
fd
e6
d4
e4
d8
ea
ee
db
e7
dd
fc
e7
ec
f7
03
08
e9
fd
fb
f4
01
fd
04
f5
fb
ff
25
03
1d
05
0d
db
e2
f0
e1
e0
d2
f8
e5
0d
09
09
f5
04
0f
fc
0a
f7
fa
0b
f7
0a
10
fa
0b
3a
3f
0f
0e
ef
d8
e2
0b
01
d1
dd
da
f6
10
de
05
f4
fb
fe
dd
ee
ff
02
f0
09
09
20
2d
2d
04
11
04
31
2a
ff
f1
05
09
00
0c
00
e6
f1
e7
e8
f0
ee
d2
dc
21
3b
31
0d
0d
d8
f2
fb
e6
00
cc
cd
de
f9
fb
00
f3
d8
00
f9
f5
f0
de
0f
03
10
19
05
1a
1f
0e
16
1d
3b
0c
f4
ea
f7
fc
fd
f3
ec
0e
f7
fa
e0
fe
ee
f9
f1
f5
00
19
25
2b
05
05
f9
00
fa
04
3f
17
e8
fa
0b
0c
ee
e5
fb
f5
17
05
10
0e
20
16
08
f4
e4
21
14
be
ea
ea
10
df
f6
d7
e8
ee
ea
15
bb
c2
3e
02
e6
fb
ce
3a
1a
ed
c3
be
0c
10
d8
ec
c2
fa
06
02
d9
ee
f6
f6
f3
f8
0d
f7
f0
f8
13
2a
f8
07
f2
0a
19
22
11
f3
03
28
0a
16
fc
29
ed
de
e5
e1
30
fa
d1
03
00
d9
ce
03
04
0e
45
2d
21
ef
0e
14
03
fa
1a
06
f6
fd
02
15
dc
ea
e7
0c
12
e9
fe
e9
ed
07
0d
ef
d5
21
0b
22
d4
dc
18
12
0d
1d
21
1a
15
09
f0
08
25
f7
05
e3
03
f5
02
34
19
08
ed
fa
2a
1e
c7
ef
0c
2b
09
e1
e2
11
18
08
d2
cd
06
04
38
0c
39
0f
e6
01
dd
fd
ed
05
e4
ed
ff
00
14
eb
f4
0b
10
08
f5
10
fa
f9
f0
06
15
2a
ff
fe
f0
d2
ef
d1
eb
ca
be
d1
06
ff
00
fa
08
23
07
15
21
2e
24
18
03
1d
09
ec
e1
dd
05
0c
27
12
e2
0b
1a
0c
df
f4
33
28
f2
f6
13
04
37
10
06
09
06
07
ff
0a
23
26
f5
0c
fb
fc
00
fb
02
d4
f6
ec
03
02
0c
fa
e1
05
ff
20
1c
fb
1a
27
26
24
22
07
04
12
23
18
e4
ff
0c
0b
21
d4
df
2f
1c
1d
be
a6
14
17
1b
2a
e1
db
d5
c0
f1
fb
17
fe
ff
09
22
06
c9
09
29
13
e2
fd
09
10
fe
cc
03
18
e5
e2
e1
c0
f7
2c
1f
da
bf
0c
1f
13
01
1a
11
22
08
01
0f
2c
1e
13
f6
05
1a
0b
f6
d8
eb
0f
3c
1e
0e
06
15
1b
e3
03
fb
15
11
e1
f5
f6
14
ec
0e
df
fb
07
f1
f6
f8
d5
c2
f2
f6
f1
c5
cb
29
2a
15
04
26
0c
12
ea
0c
0a
35
03
11
01
24
e9
f2
ee
fb
f8
12
20
f8
fb
17
09
dc
d9
28
e5
33
f7
db
eb
ec
32
1c
0e
f5
f8
e6
f5
f0
f0
f8
03
e9
ef
e7
f1
f1
0b
e9
f8
02
10
ea
06
f1
08
fa
fd
03
f0
ff
00
f7
fc
1c
f5
16
f0
f1
f8
e8
0a
0b
03
ec
f7
f5
e8
18
f1
03
07
f2
08
ea
03
f6
11
17
ec
f0
fa
01
f1
f2
fb
f0
fb
f8
f4
fe
e9
fe
fa
fd
e3
fa
ec
f6
f3
fe
ef
09
ed
06
03
0d
ed
01
fe
ec
02
ef
ee
01
ea
ee
e9
fa
e6
f2
00
05
fd
f2
ee
fc
fe
e4
ea
f7
e9
fa
09
fb
fe
ed
fe
fe
ee
f2
f7
fc
00
fc
ef
ff
fb
ee
0b
fa
fa
f8
f6
fe
f9
0d
f6
eb
09
fd
0a
f5
fb
00
f1
f0
09
e8
06
f6
fc
13
f1
ea
fb
02
f6
f2
f0
f8
f7
fa
f9
f7
fa
ff
f9
e7
f2
ec
f3
05
ef
ed
f7
fb
18
eb
ef
fb
e9
fa
f8
e3
e8
fb
f3
f7
e0
f5
02
eb
0a
eb
01
f7
ef
f6
f5
fd
e6
f4
01
e5
02
04
f8
e8
e3
fa
03
fb
f1
f4
f2
f9
f1
fa
f0
f9
f9
eb
f0
eb
f6
ff
fe
f4
fd
f3
02
ed
f7
06
08
fb
ee
f3
f1
f4
f3
04
fc
f5
f8
06
ff
e7
e8
02
06
f4
03
e6
f0
03
da
11
fe
fb
0f
12
f1
02
06
f6
15
03
fd
f3
04
ef
17
eb
fb
04
ff
13
03
f0
04
01
fe
fd
f6
0a
fe
f0
00
f5
ff
ff
0d
04
ef
fd
f5
fb
09
04
fa
ec
06
fe
ee
ff
f8
f9
fd
fa
e8
ee
05
fe
0c
eb
f1
01
f7
e4
e8
f7
ec
e6
f6
f7
ff
fe
fc
ed
ef
eb
e6
e7
f2
ed
14
fb
10
f5
f8
e7
07
01
00
0f
00
f7
fe
f9
f8
f5
f5
02
00
f6
00
ef
eb
fc
fe
11
14
08
fa
fa
ec
ee
f5
fe
fe
fd
f2
0c
e9
01
f6
ec
01
f4
e1
e9
fb
ef
f2
fa
01
fa
fd
f1
ec
f7
ee
05
02
04
f4
f4
f9
fc
f9
ef
f2
01
07
d0
de
ee
17
03
c1
f9
3a
d6
11
16
2b
f3
d7
06
19
0e
ef
e9
f1
f5
1d
43
13
ee
d6
0a
00
11
0b
f8
43
2d
cd
30
0c
1c
13
0e
f6
d5
0b
29
07
e8
18
0c
16
fc
ea
05
f6
1f
f4
19
de
0a
04
fa
db
0a
1c
d6
fb
fa
2d
2d
ec
20
f0
05
14
5b
0c
fb
e8
0a
36
02
f4
ea
f2
02
08
1c
19
b6
ec
1c
08
ec
f9
19
fb
ff
ed
11
04
f9
d8
e1
c9
e4
ff
04
fb
00
f8
d6
1a
d3
21
2f
fc
d6
da
fb
34
21
09
14
fc
f4
f7
e5
11
15
ea
dc
15
f3
0f
cf
d2
17
f6
22
df
20
d4
04
10
18
f6
f3
f3
03
21
fd
fe
e6
f3
db
0c
07
fd
19
22
f1
fc
f8
08
1f
04
da
eb
0b
19
d7
d5
ff
07
10
e8
f6
c8
03
18
18
05
d1
d1
c4
ee
d2
27
ed
e5
c2
aa
00
00
c5
d0
bd
0c
09
03
08
d6
8f
cc
e7
2d
ef
e9
c9
cc
f7
11
db
f4
20
f3
f3
be
27
0a
19
e6
eb
f7
0a
09
f4
fb
09
fd
1a
13
e9
e0
17
fe
00
d0
f7
22
00
fa
10
00
ed
f1
ff
25
1a
e1
15
e3
d8
29
35
e0
fa
f2
2a
38
ed
17
e6
de
25
0f
3c
ec
e4
fe
10
11
20
0c
22
2f
f3
e3
d4
fb
25
13
e0
2e
1a
f9
00
05
1c
d4
05
09
df
1b
f9
05
e3
3d
3e
15
e2
e1
e4
09
fd
f8
d8
ee
f7
15
0d
0b
bf
19
04
e5
ca
f2
18
02
e5
e0
14
01
ee
05
d4
b2
cb
f9
23
2d
ff
ea
2d
02
c9
1b
f8
f6
e6
f8
d1
e4
df
f6
0a
fd
36
15
0e
fb
da
e1
00
f7
0f
eb
2e
08
ce
01
fe
d7
02
ed
dd
f6
ef
01
e7
da
21
09
ee
04
f1
e8
f5
ef
e3
c7
c9
e4
fc
1b
f1
f2
21
0d
cb
df
01
0a
fc
0a
cf
e9
06
33
35
06
f0
00
eb
ee
ea
fe
01
fa
f9
ef
fb
06
08
e8
fe
0f
05
fe
e0
f4
07
0d
17
f8
f5
e3
21
04
11
ec
ea
2d
06
00
fa
f1
ed
1a
f4
0d
ef
f9
0b
0a
fe
0d
fa
fc
14
fa
f3
fe
f0
ff
1c
1a
10
06
13
fc
15
00
04
e8
f7
18
f9
f3
f9
f7
01
04
0c
e2
ed
0e
f1
22
16
f8
04
17
27
fe
ed
03
03
04
f6
ea
f9
01
19
f1
f3
fe
08
f6
05
08
0e
f4
fc
0c
f0
01
ff
f1
06
d8
0e
ed
f8
05
ed
1b
f9
08
1e
02
f3
e8
e5
f0
02
18
f7
05
07
f8
fb
fb
e5
f7
f1
25
08
0c
fc
ee
05
ed
ef
e6
fe
f0
0a
f7
0f
0d
04
04
0b
08
fe
ed
03
11
e3
f4
dd
e4
e3
ee
06
08
fa
00
ff
ef
d9
e9
ea
f5
dd
f8
e7
ef
ed
ea
eb
e9
01
fe
f8
f2
07
07
f7
d9
e6
e3
ed
f7
03
fc
ec
00
ea
04
eb
fb
04
f1
f9
0f
0e
00
f4
f7
fb
e3
f5
f0
f6
04
e9
f5
0f
02
e5
f8
f5
de
09
fb
22
f5
08
f4
f5
1b
00
0e
fe
f3
0d
07
fe
08
07
f1
08
0a
fd
f7
03
fb
18
03
eb
2b
03
0a
f1
ff
04
12
fa
05
f9
ff
19
f7
f5
f8
ed
30
02
ed
fa
f2
16
15
ff
e4
05
09
ea
f9
f0
ea
eb
f8
09
f5
f1
fb
06
fb
eb
eb
f0
ec
ff
03
07
e6
11
18
ea
fb
f6
e0
ed
d9
e9
f1
e6
f5
0a
07
f5
f8
df
ea
ed
07
f8
15
f9
fe
0b
17
06
07
ed
0f
f5
06
f8
e8
0b
ef
07
1d
e6
33
05
f9
00
f2
09
3b
04
06
03
e6
1b
02
ff
f2
f2
f6
ed
00
f6
f1
fb
f0
08
f9
ee
f6
d1
06
19
07
02
05
04
13
f5
00
15
f2
ea
dc
e6
e6
0a
0a
00
09
12
10
03
e6
f4
e2
f1
ed
e6
ec
0c
f5
f2
eb
fa
f2
2e
06
07
02
0a
1a
e1
fd
f6
f9
c8
02
00
f8
d7
11
24
fd
e3
d0
24
fb
f2
de
02
00
d9
fb
f9
f0
ed
e6
02
e5
18
06
1b
1a
fa
ed
17
1f
eb
f3
36
ff
e7
ce
f6
3c
1f
0a
f9
e8
e9
0c
e3
f9
1c
11
f7
ec
ed
14
34
f8
ff
f0
fd
18
09
0c
e3
fe
ce
2b
f1
e8
0e
f8
17
04
08
ff
ee
02
fe
03
1f
2a
f9
cc
e9
04
ef
06
08
0d
fa
d9
f3
f4
07
f2
f4
f1
e2
e9
f1
1c
05
1d
05
20
24
ee
01
e8
01
f1
14
0e
fa
df
c2
01
09
11
1a
2d
18
fc
03
06
05
0d
f0
f3
e0
04
ef
17
0f
1c
fa
f5
1d
3d
17
ea
e8
f8
ee
f7
e3
e6
0e
02
e9
f1
0a
25
1c
d7
de
08
14
25
18
05
f5
e2
dc
fc
ee
02
0f
17
10
f9
e3
f2
0b
c6
d7
bd
ee
0b
f7
0a
0e
ff
fc
fc
f7
18
25
1b
f3
ca
0b
ea
ed
eb
f7
d7
fd
02
fa
ff
ea
ec
f7
11
32
f1
f1
f1
02
f0
f7
04
fb
ea
e5
0b
f9
f2
ff
05
1d
0a
e5
f1
0e
08
0f
fc
02
04
f2
12
1b
0f
e8
03
19
1b
00
f0
e8
e3
e8
14
1a
0a
2a
19
13
09
10
1f
fe
18
19
0a
ed
d6
13
37
f3
db
02
1c
42
e9
c2
f6
e2
f5
f0
f2
fd
df
e3
12
10
fe
03
21
15
1c
21
eb
ef
f6
0e
dc
da
f9
19
04
fe
fc
09
f1
07
ee
06
04
ff
f9
17
1d
f0
f1
05
0f
03
f8
0d
03
d7
de
d6
14
07
ef
05
01
f1
f3
fd
0b
1c
fa
1f
36
f4
0c
ff
2d
f2
c8
0b
07
f4
a4
f9
1a
14
f9
f2
10
11
d6
f6
ef
e2
e0
0f
14
0e
fe
d8
20
15
10
0a
e6
03
13
f2
e7
d5
02
0c
fd
ee
e2
29
f6
d4
e7
fb
ea
c8
f3
06
e4
19
0c
0a
ed
b4
15
f0
f0
f8
e5
f1
19
03
dd
da
04
f6
fd
1b
11
f4
0a
1c
12
fe
25
2e
06
0e
00
f9
fd
fa
0e
05
0c
df
c1
e7
16
0e
00
d6
e3
06
ff
18
05
00
01
1a
28
03
1f
fe
04
20
23
28
09
08
2a
5e
63
4f
04
21
30
1a
f6
01
10
d5
ed
d2
ff
ee
e7
d0
d0
00
f8
df
fe
fc
37
61
31
09
0a
f4
0d
fa
e4
d7
f6
08
09
13
db
06
06
0f
ff
e5
34
02
f9
09
e3
dc
0c
1d
09
48
c2
df
f3
1b
14
0f
05
16
06
0e
09
ea
e6
f7
ef
ed
03
ef
f3
dd
1c
1a
f4
f0
c9
2a
18
f5
c0
df
0c
13
fa
b3
13
0c
0c
e6
e8
e6
00
ee
fb
16
10
d8
ca
cb
30
49
fb
cb
f7
23
25
00
06
f2
f5
23
03
07
02
02
e9
0f
10
04
09
ea
eb
f7
e8
ee
f4
e7
d8
04
18
16
dc
ec
07
16
02
fe
fa
0c
fb
07
f5
07
11
0e
08
af
e5
1d
fe
34
c0
f1
11
2a
1f
e5
fe
08
17
2e
23
fc
0c
2b
0b
fc
d6
08
ff
ed
11
10
04
f2
dc
19
14
1a
de
ce
fd
09
18
ec
da
03
01
0b
00
dc
06
07
ea
fa
dc
0e
02
ed
e0
03
0c
2e
1a
e6
f7
fd
10
0a
d0
d9
0a
05
19
00
ed
00
ff
13
08
ed
14
e8
05
fb
27
d9
03
05
0e
ec
1e
15
14
1f
e6
11
0b
17
07
e3
e4
08
11
03
13
d3
f6
05
28
4e
e0
16
07
0a
1c
0d
19
0a
fa
fd
ec
ea
0b
ff
c1
fa
14
f8
f7
e6
fc
1a
04
d8
cf
cf
08
13
fd
da
c7
06
3f
2c
f3
1b
f1
18
12
f9
03
e7
f6
0f
19
da
f0
e6
f4
36
f9
ed
ff
03
3f
fe
1d
0e
2b
23
17
00
eb
e7
cf
e9
0b
fd
fc
e7
ff
1f
1a
23
0d
06
fd
05
0c
06
0e
f6
e0
1f
13
0a
10
fe
09
e0
fd
e7
0a
e8
cd
0d
0a
22
0a
08
e9
e5
fa
f9
04
ea
fb
f5
fe
f1
fb
01
1a
04
04
04
20
1d
20
1d
db
0f
21
29
13
d6
f5
00
0e
f0
f2
f4
0f
11
09
07
e3
2b
1f
1e
09
07
1a
0d
17
0c
f5
d5
b7
bc
ea
0c
38
f1
00
fa
14
f7
1a
18
ff
f9
fc
f9
f2
db
2a
1c
0a
e9
e0
aa
08
11
ff
1c
31
34
18
04
2f
0c
f0
09
ff
0d
03
e8
0c
ff
f9
09
fd
f9
0e
26
fd
f4
f0
c6
18
f9
eb
ed
e2
e9
f0
ff
fc
0c
ee
ea
f6
ee
e4
03
fe
00
14
0b
ea
02
f6
14
2f
e4
f0
fb
13
1a
fe
e9
de
3a
1c
12
f3
f9
28
17
0e
eb
e2
e2
20
0d
26
04
f0
b1
13
06
ea
e6
d9
fb
fc
0f
f9
e8
ed
07
eb
fa
27
ff
f1
fa
0c
23
f2
fc
fc
0a
e2
d9
e0
e6
fd
f8
05
12
0c
ea
06
1e
0b
fa
0b
20
1d
0f
04
0e
20
45
05
fa
f6
cd
2f
0b
eb
ef
e5
0f
01
13
10
08
df
13
0b
f6
fe
f6
22
fe
f8
06
dd
0c
0f
0b
02
f5
03
07
1f
2b
f1
e0
fd
05
1c
ee
dc
f2
f5
1d
0d
c2
e6
15
29
d7
f6
f6
1c
ff
eb
f7
f9
2e
2c
ee
ec
07
11
06
ff
ed
06
1a
fa
1f
04
f7
19
0a
ee
ed
ea
fb
e0
b3
d8
06
0a
11
e6
fd
f1
fd
15
03
e8
03
2b
08
19
fb
11
3d
17
20
0b
f0
dc
bf
07
f4
e7
f4
d6
d3
f6
0a
f5
0b
f4
fc
ff
f4
0a
05
1c
1d
ff
21
02
eb
00
0c
eb
e9
d4
dc
24
19
ff
f6
ea
ef
ed
22
1f
02
f1
ef
1a
26
26
0d
f6
0e
ff
07
f6
df
06
f8
05
e8
e7
ae
ea
07
f7
ee
fe
11
0a
f2
ff
f1
0a
fe
06
02
12
1d
15
ef
c9
f4
07
04
ef
de
fb
18
2a
ed
f7
fa
23
0b
ee
01
f9
20
2a
02
2a
0f
f9
eb
ed
12
22
0e
10
1e
10
08
22
1e
01
fb
08
1e
f7
fc
0e
f2
cb
0f
40
f6
36
06
ef
f7
06
1a
08
f2
e4
1c
1c
0d
15
fe
f8
fe
1c
12
25
fd
e2
00
02
ff
f2
05
f9
0c
32
50
f7
c8
fa
f3
1a
fb
0f
1d
ff
fd
0a
f5
0c
b6
fb
fd
e4
fd
c0
03
13
fa
1c
1c
10
c8
07
03
f2
0a
f7
34
06
0e
27
fa
0b
30
0e
00
ee
d8
da
e7
ec
eb
f1
fc
f5
ff
02
1d
16
05
17
1b
e9
e7
ff
07
d0
b7
ef
ff
e9
d2
de
ed
f2
ee
08
e7
fd
2f
3d
00
f7
23
4c
e8
05
0d
e6
d4
e2
1b
08
fe
cf
ed
16
04
ef
4a
45
07
fb
03
1e
00
06
ef
fc
1e
01
0d
fe
dc
12
1e
ea
f7
f5
fb
fe
f0
02
f5
e8
ce
11
04
01
eb
14
ee
22
10
fb
f8
fc
08
ee
f7
e0
e9
eb
15
05
1b
dc
ca
d9
f6
fb
09
15
ed
e5
04
fa
f4
08
fd
17
14
e2
e9
02
08
03
c9
f1
1f
f3
bb
a2
d5
0a
e9
0a
16
05
17
26
14
fe
05
07
1a
10
02
14
16
1d
05
26
13
ff
dd
00
fd
f4
e1
00
2f
09
25
f3
4b
06
fd
05
ed
17
08
15
1d
dc
ee
f8
0a
18
e0
fc
06
1e
fc
d0
00
32
17
ee
04
06
14
fd
d4
07
da
0f
fd
dc
15
0b
cd
1c
04
35
11
02
27
21
0c
02
08
e7
ed
11
27
2a
15
12
1d
2d
08
e8
dd
04
f3
f0
e5
0d
01
fc
fd
f5
01
09
ec
0b
12
07
04
f0
18
f5
0a
db
f0
d9
f2
f0
f6
ba
f0
21
38
0a
e8
0f
f1
07
f3
ec
0d
11
f8
e6
06
1b
1d
eb
02
10
0c
dc
dc
f5
0f
d2
fd
fc
24
1f
09
f1
0a
1f
ee
01
12
f9
0a
21
f4
03
02
18
17
f7
10
1f
1f
b6
3c
02
e0
d1
d2
12
d5
ce
fa
d7
f8
01
e5
e5
e6
f1
06
23
ec
fb
dd
eb
fc
f9
0a
da
ec
13
0c
f7
fe
17
15
12
00
04
f8
f7
15
f8
06
f4
0f
18
16
13
08
ff
00
10
fd
08
01
fa
e8
f3
ff
fb
de
d6
f9
0d
f0
12
12
0c
ed
e3
d9
be
ed
ca
f6
fd
b9
e7
e1
11
2b
e2
f1
e3
f9
10
14
06
f9
dc
c1
c8
ec
e4
fc
b4
b8
fb
fd
04
e9
bb
04
fe
fa
ea
e0
e9
fe
fe
02
0d
db
0b
14
18
fe
de
08
1b
2f
16
1c
31
21
f3
f8
f7
0d
fc
fb
12
e4
fc
fe
ef
04
06
f7
cc
c4
aa
fd
f6
ea
e6
17
13
e3
10
07
18
e8
e6
ed
03
f0
cb
fc
fd
1f
eb
f7
eb
13
19
09
ed
00
13
21
40
1d
fa
04
25
33
0e
0e
0d
fa
db
eb
f1
f3
03
fd
24
fe
08
0c
19
36
2c
08
16
36
c4
e1
f0
f6
ff
e4
08
11
13
db
01
18
17
fe
d7
ae
fc
27
01
ea
df
ec
ef
ff
0b
f2
ff
fe
13
f0
08
ee
f3
f4
22
f6
f7
fb
0c
f7
08
fe
e7
d9
d1
1e
0b
ee
dd
e2
2d
0a
f6
e6
00
ef
e2
09
03
f8
e7
e5
06
0d
0c
03
e6
fe
fb
10
0e
ff
db
02
ff
25
1f
e8
00
0b
04
e9
fe
e8
f9
fa
dd
f4
e0
fa
f3
25
1d
2a
2d
14
2e
0e
0d
10
1e
21
0e
e5
e5
f2
08
0f
e7
d4
f8
0e
09
f3
dd
00
f1
1e
12
07
f9
e8
04
1c
34
fa
0e
dc
e0
15
00
fe
f5
21
0a
f8
ec
02
f2
e1
1c
15
11
fb
ed
26
fc
f5
f1
0a
d5
23
16
0c
0f
1b
f6
fa
11
06
15
f2
05
09
fb
0b
07
ee
09
0d
fe
08
ef
f9
11
13
0d
fa
eb
ea
f5
fd
13
fc
ff
d3
e4
f2
f0
ef
04
f9
fd
f7
32
fc
f8
09
03
0a
ca
e1
c8
db
32
bd
d9
05
13
25
f9
0d
0c
13
ff
04
04
ec
f2
28
0b
2d
11
05
f4
f7
26
11
f8
e8
ee
0e
12
1a
0c
ec
f1
12
3c
2f
00
10
14
0c
2a
15
0d
1b
12
f6
11
0c
06
16
c2
eb
d8
0d
30
f7
ea
01
fc
04
fc
0c
1e
1c
ec
11
fa
ef
08
e7
f9
fd
20
fc
e1
f6
04
0d
25
c4
e1
0c
0e
04
d1
0b
02
f8
1f
1c
ea
e4
12
0b
d4
04
09
19
09
f2
12
0e
3b
26
dd
fb
16
ec
ea
f9
06
ec
f8
01
21
18
eb
07
11
14
0b
fb
c9
bf
c4
e3
f9
f6
d9
cc
be
d0
b2
e7
08
f2
fe
01
f1
0d
0f
01
00
fc
1a
ec
1c
10
f0
d6
c4
1f
2b
0f
26
0a
3a
fb
0e
3a
5c
04
f9
07
19
08
f5
e6
18
1a
0b
0d
f4
e4
0a
0a
e2
ed
e5
ea
e3
df
ef
f5
da
c4
16
0e
f9
08
0e
07
22
06
d6
dc
e1
ed
f8
ee
dc
c6
b7
0a
18
2f
b6
b3
d3
e2
0c
e8
fd
ed
e5
e0
ea
fa
13
fa
0c
f7
df
d5
fd
e0
f4
cd
c7
fa
d1
b8
8f
d3
0c
db
03
18
16
01
07
0a
fa
f7
04
fd
24
0b
0a
0d
e9
fe
29
02
06
ef
0b
04
f2
03
16
1d
08
25
fc
18
03
f1
eb
02
f6
0f
09
1c
10
fb
e3
0f
2b
0e
24
09
39
fa
e9
36
00
f6
07
0a
0d
de
ed
fc
02
b4
11
09
e2
21
f8
aa
e6
e7
23
fc
f9
fd
02
1b
1d
e6
08
13
17
19
1f
f7
ed
f9
1c
f3
bf
b2
cb
e4
dc
b3
cc
d0
d7
ee
02
fc
eb
e6
38
1b
0f
fd
ef
03
f8
f2
de
c9
ff
08
f3
ef
e2
e0
e3
29
27
17
e9
f5
0f
fe
25
19
fa
0f
09
08
f3
0f
f3
0a
13
0b
de
da
fa
f7
e7
f6
cd
14
06
08
d3
f3
00
e2
0c
16
fd
10
05
0f
11
fe
f5
e3
e7
d2
fc
f9
f2
f2
f0
e9
e9
d7
05
e4
fc
f5
dc
f4
fb
eb
03
eb
36
28
1a
06
1b
37
31
25
fc
08
18
28
0f
0c
0d
b6
ce
07
38
22
f5
ff
0e
0b
25
23
12
25
03
1a
13
15
11
11
21
08
13
08
ee
03
f1
02
14
0b
dd
08
07
dd
fc
05
05
e6
ca
e4
02
33
09
de
22
3c
2e
10
08
dc
fa
f2
d4
c9
13
0a
f2
01
11
c4
d0
c6
ef
f8
fd
db
f8
d1
10
0d
0a
15
17
2c
18
f6
f3
c6
f6
fe
e2
e1
f5
24
1e
fd
06
13
0c
ed
04
e8
07
f8
03
fa
f6
f5
ec
07
f0
f7
22
02
0c
06
09
04
e6
ef
15
eb
fd
eb
e4
3d
01
05
e3
fa
06
0f
05
d6
19
e8
19
f9
a4
0f
09
f7
fe
10
f1
0f
08
1f
f8
08
1b
02
12
01
11
1c
f3
f5
d7
01
1a
f7
13
ff
0a
13
04
0c
02
00
16
f6
2e
fe
ea
02
e0
09
05
ef
fa
bc
f5
27
fe
f4
ba
f2
ff
11
22
14
1c
fc
fd
ec
df
c0
f0
1e
02
cc
f0
07
f9
23
e1
00
ee
0c
08
fe
04
14
02
06
20
e0
e3
fe
cd
12
f7
e5
ee
f2
2b
12
11
fa
ff
32
07
00
f5
ff
23
ea
e4
d7
f0
00
02
f7
18
2a
fe
fd
1e
11
19
17
e4
1a
f5
fe
01
00
06
da
e9
26
2c
0b
e1
e7
fe
1d
f7
ea
1c
34
1d
ea
df
e7
22
1b
ee
e7
e5
f1
08
1e
f8
05
18
17
07
f9
0b
1d
fb
00
f7
1e
f3
08
00
15
2b
23
04
f1
08
37
ed
0b
1d
0b
0d
f4
f6
0e
0b
10
17
e3
f4
fb
e4
25
27
e9
ef
fa
e8
21
0a
fb
de
c7
04
26
f6
fe
e5
ee
21
11
0a
0a
02
f4
0c
05
27
13
d9
d4
fd
1e
ff
e3
f2
0f
19
f2
df
05
10
0c
0f
ff
07
19
28
12
e7
e8
fd
0c
f5
ea
e4
15
45
09
ef
0e
33
15
fc
1a
17
fe
cd
b4
d4
fa
17
d0
f9
04
e6
e2
05
ed
f7
17
06
ef
f9
f0
2a
18
e8
ee
fd
0a
fc
fd
0d
1a
fb
e1
f4
1d
0c
f2
23
09
f6
0a
2d
13
03
db
de
12
16
f8
02
ef
f4
dd
16
24
0f
bd
a6
ea
f6
f6
27
1c
00
ff
0f
ec
fb
f3
fc
05
0b
d2
e1
fe
fe
13
01
fb
e5
00
20
48
f4
da
ed
f3
0a
13
f5
06
16
f2
fc
f6
0b
de
c5
f6
f4
00
fc
11
e5
d5
20
23
12
fb
07
f0
ea
22
e3
f9
ff
10
00
22
26
25
f6
f4
ff
0c
11
26
38
f5
03
1d
24
0b
e2
07
f7
ce
e1
f0
20
0e
eb
0e
02
f7
11
00
4a
ec
ef
e5
09
3c
e3
f3
eb
da
1b
f9
e5
fc
0b
12
da
f0
08
07
2e
fe
01
f6
0d
13
f3
dd
f5
0f
03
09
13
03
f7
ef
13
00
e1
fa
02
2a
27
f6
3c
40
24
23
f7
02
10
f8
f6
0b
da
bb
fa
f1
fd
01
e3
cf
f5
04
ff
0f
fe
09
fd
f7
ff
23
22
3a
04
ef
f1
f1
19
1b
2e
e4
fa
07
25
12
dc
05
0e
15
ea
fa
21
14
ee
d3
0d
0a
f9
e2
0d
03
ec
da
04
1f
dc
e3
05
06
f7
fc
0f
0f
1f
f5
db
ce
ff
f5
df
0c
02
0a
00
e8
26
15
10
e8
ca
16
1e
05
ed
bf
11
15
1a
e2
1a
3a
f9
02
10
27
ee
e1
f8
e8
e1
fd
f8
ff
c0
be
41
07
0b
f9
b9
df
f0
fa
f1
12
22
08
12
12
13
08
fb
00
f5
07
ff
f5
00
05
f4
0e
08
04
de
ca
24
17
01
0b
12
1d
09
01
1a
17
e5
07
f8
06
1d
21
fc
02
03
e0
28
e7
07
21
f9
f2
0a
ea
ec
f7
2c
0f
01
2f
04
08
0b
09
0c
07
fa
f8
10
07
11
f1
0c
20
f8
dd
ef
f6
01
17
24
03
04
2d
0c
44
f0
fb
0c
f0
20
cc
e9
fd
ff
1a
f8
0a
0e
f8
f8
27
23
fb
08
f4
13
fc
fd
f4
16
0a
1d
f8
e9
e8
14
34
0f
f8
f7
01
f0
f9
ec
c6
e8
ea
e5
f2
ff
1a
10
0f
e8
05
3b
11
f8
fd
fd
1c
17
dc
f4
fc
ff
0d
ef
d4
07
19
08
e1
fb
07
14
dd
c6
0c
02
0e
d9
db
f9
06
14
27
1a
07
03
1c
f3
f4
fd
fb
11
14
e5
d9
e6
e7
00
de
0f
e4
d6
f2
ed
08
09
10
15
fc
0c
e5
ce
05
13
06
e6
b9
ec
03
ee
f2
ea
f6
fb
e2
04
e6
1e
13
0b
27
f3
f0
f0
2a
13
ef
e9
e6
e5
fb
15
06
06
e2
0a
13
f4
fa
04
1e
ff
f2
f8
ea
08
fb
14
00
ec
dc
e7
11
02
0b
f4
e0
d6
01
f9
f1
e2
09
02
f4
07
0b
19
23
10
15
1e
08
0a
fc
01
fa
f5
ed
09
03
1f
21
1c
01
0e
00
f4
ee
f1
f9
c8
f4
e8
d1
e5
d9
03
0d
ef
e1
f6
00
08
13
fa
bf
09
00
e4
ff
b0
f6
f8
01
ee
d1
08
0f
fa
2e
f6
f4
14
2f
09
eb
f0
d3
f2
0b
2f
06
e4
fb
f0
30
fc
e0
e4
f4
3e
f2
fa
f6
e7
08
04
f9
e9
e8
1c
36
0a
fb
cc
e8
e2
fb
10
2e
3d
34
10
03
12
2a
f8
f9
15
ee
0a
d6
da
f8
e9
01
15
0b
16
07
d8
de
04
03
07
24
24
0a
ea
f3
3a
27
01
ec
f9
05
02
06
e1
e9
f2
14
f9
ce
ef
f7
f9
ec
ff
f5
f6
0c
00
0e
0b
f4
10
12
19
19
07
07
fe
fb
f2
08
f6
ff
fc
01
0b
24
08
f1
12
17
24
fb
08
11
0d
39
11
ff
f7
e1
e5
f0
e9
05
e1
ef
f3
0b
fc
e1
fb
fa
f8
f6
f2
f0
ed
ee
13
1a
0e
f8
f7
0d
21
10
f2
04
f4
01
fd
f8
fd
06
0b
01
eb
f4
07
ff
e2
05
f0
f0
fc
f9
fb
00
fa
12
ec
fd
1b
01
fe
d4
f3
11
ec
c6
06
07
fc
15
17
0e
f3
f9
f0
01
f1
dd
fd
ed
fb
de
db
f8
f9
16
18
15
eb
ea
ec
20
fa
06
05
ea
ff
ef
fd
e5
fe
00
f3
ef
dd
1d
17
0c
d8
e6
00
f6
0a
f9
d9
e1
02
f9
bf
eb
f6
e7
ef
f5
09
d9
e0
fa
f9
16
f2
d5
0b
1d
0c
f5
fd
04
d6
e5
ed
eb
da
0e
07
e9
de
f0
04
05
e5
d0
01
16
fd
d7
fa
05
03
f0
1e
01
ec
03
f1
2e
14
ff
0b
03
25
f9
fb
0e
1d
31
0a
f9
05
01
f9
de
ff
eb
f9
08
03
0a
0a
0e
f7
02
db
14
32
f9
f1
ff
ff
e4
f0
01
ed
13
cf
ff
0c
f4
f4
00
05
1e
eb
13
05
30
2b
19
15
cf
ff
f7
e6
04
09
0f
01
ed
01
e3
fc
1d
f8
ef
02
ff
f9
02
16
fb
ee
d2
f6
f6
fc
04
14
16
fd
e3
2b
26
ff
d0
e8
53
19
f4
f8
fc
30
f6
1e
1f
26
3d
0d
10
06
f8
1e
0e
22
0a
1d
34
28
01
0a
00
06
05
07
06
fb
ec
fd
fa
00
f8
c4
ed
15
09
fb
ba
f3
02
05
0d
c6
e4
fe
07
ed
d2
e4
16
ec
e3
ec
0a
1e
f4
fc
e6
f2
03
e8
e5
bf
d7
f3
fe
ea
db
ff
07
f6
fc
04
01
0f
d2
ea
02
ee
24
e6
db
12
0e
12
03
f2
13
ed
e5
ed
dc
00
0e
ed
f5
fc
f8
0f
14
1d
e7
f6
f6
14
2b
db
f0
e8
f7
03
ea
23
2a
16
06
09
0f
09
f8
ea
f2
f3
e6
f7
00
fe
01
0f
07
14
fa
12
10
ec
f3
ed
21
f1
e5
f6
e4
12
ef
d6
06
ea
14
10
0e
14
dc
1d
28
17
0c
ee
ff
02
fb
f9
07
0a
1a
2c
15
04
0e
07
f8
e5
f0
07
07
fe
e8
f8
0e
07
0a
11
24
ba
11
13
0f
e3
f1
23
17
25
ea
ea
21
15
e8
f3
fb
0a
ec
f6
03
f9
0f
1a
08
0e
07
f7
fe
06
f5
f1
f9
f7
ff
d2
0d
f9
e3
f0
f0
0b
ed
01
1b
fd
2c
18
f9
03
eb
28
47
38
07
da
ed
12
02
03
d7
ec
dd
f8
dc
f3
f6
db
f5
ff
00
f3
fb
e3
f5
13
e0
be
b1
ee
10
f6
11
3d
18
0b
fc
25
1b
41
1b
1a
0c
ff
31
05
2d
24
31
15
dc
eb
b4
04
22
f8
00
e0
09
21
ef
28
ec
13
0e
f2
21
ec
2c
08
ea
2f
37
1c
ee
f5
39
08
fa
fc
fe
0b
fd
02
00
12
27
19
11
19
14
08
fe
0b
07
02
f3
f7
03
eb
f6
f9
f5
09
0c
0c
03
f3
26
00
12
f6
df
0c
27
f1
0d
e3
dc
0b
10
0c
f0
13
e1
00
3a
2c
35
05
e3
f6
ea
e7
fa
e4
f6
ff
f3
ea
f6
e6
10
0e
f9
09
e8
00
f4
f9
0e
ea
ed
f8
e7
ea
27
1e
0e
07
0a
04
fd
12
13
08
0b
0f
0d
16
22
15
20
0d
00
26
39
12
15
08
f0
21
f6
fc
ea
10
35
1d
03
13
01
31
18
0f
f9
f5
03
0b
0c
e2
f8
bf
20
13
f8
ca
dc
0e
05
0d
d9
d3
f8
f5
dc
d8
da
09
05
f3
f2
11
11
03
02
e8
f5
38
31
12
c7
c5
0d
04
1f
c8
e0
00
04
ff
ce
e6
f8
e1
0e
e4
ea
f9
e6
14
e1
05
0d
0e
f3
e9
ea
0b
06
f0
fc
e7
04
20
1b
01
d7
f9
0b
0f
04
d2
f3
09
eb
1f
f2
0a
02
ea
f7
1b
19
17
15
03
12
3c
21
07
09
f5
0d
ef
00
1c
e8
f0
f3
e5
fd
35
0c
00
f4
04
3b
0e
07
13
13
c9
00
01
f1
02
11
02
ec
f8
09
f8
0a
00
d3
f4
e1
f4
fc
ed
eb
eb
ef
fb
09
ed
fe
0c
26
f7
fc
ea
fb
0c
03
17
e2
f5
e8
ed
0b
dd
ef
f9
dd
fc
fd
0c
21
1b
02
e4
25
0b
e4
0f
eb
15
02
09
25
15
42
28
e1
26
f6
ec
f1
05
fb
15
19
18
01
28
15
fd
fd
32
1e
fe
21
1e
f5
e1
1c
f3
03
ec
eb
27
07
1b
e8
ea
f7
34
2e
1c
2d
23
0b
23
1e
d6
00
11
e8
fe
dc
e7
e8
e8
ef
ff
f3
d3
f3
35
20
0e
ff
1c
ff
09
28
fd
0c
1a
dd
15
0e
2f
14
28
f3
01
ef
1d
47
f0
00
2a
06
fd
ed
07
f7
e7
fd
fb
0c
12
25
18
f6
1f
23
27
17
ef
1e
1a
26
f1
e3
e2
f5
fc
04
ea
f8
0f
03
f3
ed
f9
f7
f6
ee
04
f7
09
0f
08
f8
03
06
fd
ea
0d
f1
1a
08
fc
16
f8
16
fe
25
13
05
ff
db
26
09
02
f3
ea
12
dd
e6
ce
f3
00
0d
fd
f4
f2
2a
07
f4
0b
0d
39
e6
e5
fd
ed
ef
1a
00
08
e6
db
f3
00
e7
f4
f8
ff
19
f9
00
0d
fd
fb
fe
ee
1e
ef
ec
db
e4
c9
f8
dd
df
d0
b5
1f
f5
e3
c4
94
d8
d4
d6
ee
1d
fa
da
df
d6
06
cd
e4
10
f5
0f
04
f7
fa
11
16
e4
00
23
1f
ef
f3
17
e3
16
22
f9
11
ea
f1
00
15
1b
fb
0d
1e
f3
0e
e4
08
f5
fc
fe
03
05
e9
0d
19
10
19
0a
23
24
f9
fa
01
07
14
05
14
0e
ec
13
f0
f4
07
fb
ef
fc
f4
e3
0b
f4
02
02
20
e5
ea
09
f3
f3
ff
fa
f5
ee
d9
f9
fd
e8
e7
00
16
0d
d4
b8
e2
f6
e0
e2
f8
14
d7
df
f8
f7
16
09
e6
fd
07
e3
f6
ea
1c
27
e3
12
07
f4
e5
af
ff
f1
fc
13
1d
e3
13
1a
fb
fa
cb
04
20
fa
03
f2
f4
f6
e9
00
fb
d7
d9
fd
f5
ec
fa
06
f8
f4
fb
24
ea
14
25
fa
eb
e4
ff
fe
0d
05
f4
f5
04
05
09
00
12
cb
e4
eb
d9
07
24
0c
00
0a
e9
0a
30
fd
02
31
1a
1b
f9
e1
3c
e0
15
01
0c
10
bd
f7
fc
f1
fc
01
02
06
06
f8
04
02
04
04
f7
fe
fd
07
02
f3
f2
f5
ff
09
f2
fe
04
fe
fc
fd
fd
06
fa
fd
00
00
07
05
03
f4
07
09
f5
04
f3
fb
0b
fe
f9
06
f7
f3
f3
00
00
01
f0
fb
fc
05
fe
08
04
05
f9
01
fb
fc
0a
f6
01
f5
02
02
f6
ef
06
f0
f9
f6
08
fa
04
f8
fd
f2
05
f5
07
f2
09
f4
f3
f3
ef
f9
f2
07
f5
f8
00
03
08
fe
00
f6
f6
ff
fd
04
07
f2
f8
ff
fd
f9
02
f2
08
09
fd
05
fa
06
04
f3
fa
f1
07
02
08
f7
01
08
03
05
03
07
07
09
f7
02
04
fb
03
fb
03
00
ff
f8
fc
ff
f3
00
f3
03
f8
f6
03
fa
fe
03
f8
f5
f9
06
fc
06
fe
0b
ff
f2
08
f4
f5
fe
08
f7
fe
fe
f6
09
04
03
fc
04
fb
fa
f3
ff
fb
06
f2
03
05
08
06
07
f7
f5
01
01
03
00
01
fe
fb
04
01
02
03
03
04
07
f1
fc
f4
05
01
fc
00
ff
f7
f2
03
fb
09
00
f8
01
ff
f4
f7
fd
06
f7
06
f5
f4
04
fa
f2
f1
00
00
0b
f3
f4
03
f1
f7
07
f5
07
07
f4
f6
f2
f6
f6
0d
04
06
06
f5
01
f9
f4
f2
f4
fd
0b
f5
07
f9
0d
fc
02
fc
ff
f5
0a
fe
f5
04
f4
f3
f3
fe
f7
00
fa
03
f4
03
04
fd
03
fb
04
07
02
03
02
f8
f6
f4
02
f5
fc
ff
0a
01
f3
fe
fc
f1
03
fb
0a
f8
07
fd
fd
0a
ff
fc
f8
fe
06
fb
f2
03
fa
05
f4
f6
08
05
f4
fb
05
f6
f2
f4
00
fe
03
02
fd
f4
00
fb
05
fb
0b
07
f3
fb
0a
02
fd
f3
f9
f6
f7
f1
fc
fa
09
04
f4
ff
03
f9
fe
f4
00
07
04
fe
fc
00
01
09
05
00
08
07
fd
06
fe
00
f1
00
02
09
00
f5
00
f7
0d
0a
06
12
eb
f7
e8
2f
02
19
b9
fb
f5
05
fa
f3
03
fc
ff
f5
34
46
25
15
0c
11
0e
22
15
f1
f4
f5
2f
23
26
16
09
13
07
0a
f7
f7
fd
08
0d
e3
e1
ec
df
2d
07
f0
fb
d6
c6
e4
08
fe
04
f4
ca
0c
e6
04
00
f7
0d
fa
20
18
0f
1f
13
28
08
10
dc
cd
f8
e1
05
10
f2
21
ec
31
ff
eb
21
fd
df
da
ff
15
07
12
3f
2a
1a
02
13
1b
08
f0
f3
f5
ff
f0
fd
1c
f8
2e
22
3e
21
06
f8
01
00
01
ff
f1
f5
e5
e3
ef
e6
fa
e6
06
e9
fc
d1
cc
0e
07
01
d9
20
2e
e3
ff
f3
0f
02
d5
07
fa
fb
e7
0d
1b
11
28
05
f8
0d
0c
dd
dc
08
01
06
06
da
11
1d
1f
05
cc
f0
e6
0a
fc
c4
e3
fe
18
13
08
de
e9
03
01
22
d6
ef
0a
14
0b
fc
e1
da
eb
e5
3a
28
fc
ec
af
ef
07
fd
16
01
01
0f
0e
0a
f0
0b
10
0f
0d
06
f0
1b
f9
ff
ef
0b
22
ff
f5
d2
ef
fa
fe
03
d6
0e
e1
03
ef
fa
e5
e9
13
f3
fd
c5
eb
00
f4
06
db
03
27
08
0c
f9
e8
e7
cb
d8
10
10
13
d8
f6
0b
ff
07
ec
f0
d9
e4
fa
f8
10
d6
c3
02
00
2b
f0
18
20
13
0a
01
fe
ff
0e
0a
08
15
07
15
dd
19
f5
36
f7
da
2b
e0
c6
aa
b5
03
0f
18
05
e2
fc
08
1a
08
ee
d4
23
1a
18
c6
fb
04
fa
de
b8
04
f2
e0
d3
b3
31
0f
11
1d
0b
f2
e3
14
10
19
e1
ff
01
f7
ff
16
e0
d8
d0
f9
4e
06
ef
ee
1b
f4
ff
14
1f
05
d9
12
03
0a
fc
ff
f1
24
f7
ce
f7
de
14
f5
d9
ff
ee
f9
eb
af
fb
03
f1
03
db
fc
ee
08
0f
ed
b9
18
23
02
16
f5
02
14
0c
ec
17
4a
31
03
d8
03
f7
05
f5
0d
13
f8
d2
04
e5
f2
0f
fb
fb
ee
eb
0a
1c
00
f9
3d
0b
19
27
e8
2e
1c
e5
ea
ee
eb
fa
ef
fb
e6
eb
f9
10
f3
ff
0d
f4
37
12
1d
0b
ea
ee
27
13
dd
dd
dd
f5
0a
fe
f7
02
11
16
f1
ef
fb
17
16
ed
f0
e1
08
0e
0f
14
f8
de
da
ea
f2
f7
35
08
06
de
1f
11
13
0e
e6
f0
e4
28
f0
cb
e3
fa
01
0e
16
ff
fb
f3
22
e9
e4
02
dd
25
30
fb
f2
0f
0a
ff
01
07
07
f7
f8
16
08
0a
0a
ff
02
0e
1a
d3
14
02
37
34
e0
f2
18
15
f4
fc
ed
e0
01
fb
0f
f0
fa
e3
00
11
f5
04
09
f7
32
2c
05
0b
b4
0a
f0
f0
ff
c8
ef
01
01
ff
dd
f0
18
15
04
1b
f8
eb
05
12
16
04
e6
08
ed
ea
13
01
ef
de
d5
2f
30
22
0a
e7
1f
10
f6
13
1e
37
1d
00
16
25
4a
ed
e8
fc
e5
30
24
17
f0
1b
2f
09
e3
f8
09
00
cf
ee
e2
11
1f
0a
09
04
f2
de
ea
19
14
f6
c1
f4
f4
08
19
cb
e9
e0
ff
ea
ec
0f
04
f8
f3
05
11
f9
ff
e9
0c
06
10
22
fc
da
f3
f2
04
06
e2
f3
e1
08
09
0e
16
09
15
fd
f0
f3
ea
1d
00
32
0f
fd
ee
ee
db
e6
f9
f8
f3
ed
03
1c
f7
1f
11
fd
0b
3a
1c
03
ec
d7
02
14
fd
fe
fa
fd
f5
1e
07
f8
0e
10
0f
01
f9
f5
f3
ff
fa
0c
0d
2a
06
0e
f7
06
14
24
08
ea
fb
fa
26
1a
e0
06
fc
0a
f0
0a
f2
ed
37
26
26
eb
e8
1a
1c
eb
04
ff
0f
fd
fe
f4
d2
0c
06
0c
f9
f1
f4
1f
20
05
05
e6
01
09
29
33
01
fe
08
02
0a
c7
fb
03
ea
f1
04
2f
1f
01
ef
0d
0b
1c
08
f4
00
0e
f0
01
08
12
1e
1c
0b
26
ea
fc
0c
f1
e3
f7
03
2b
06
0a
db
10
00
12
06
f9
df
08
17
0a
b6
fa
0d
1b
14
f1
e4
28
23
41
ff
d8
28
0d
18
f0
eb
df
07
17
fa
1f
2b
eb
d9
1c
0f
28
ee
d4
fb
1b
1b
0c
e5
fa
0f
04
f0
05
00
05
0a
26
11
0e
fe
04
1e
16
e3
c8
e7
39
1c
ea
1a
19
db
ce
05
1e
0c
13
d4
14
02
0b
06
ca
18
f8
0a
19
0c
cc
df
04
fc
0e
00
0a
fe
17
ee
07
10
07
0f
c3
d3
e4
f3
f2
09
e5
f8
07
0e
29
f3
09
06
12
21
fb
df
eb
de
c3
f8
ea
ed
e6
3c
01
e0
f5
16
5f
18
ed
d6
f3
10
f9
e2
ad
bd
e7
ea
17
13
01
fc
f6
fc
f8
0b
0f
cc
d9
e3
04
f7
12
ec
e9
02
0c
19
09
10
04
13
02
fe
f3
02
0a
f9
fd
13
41
38
eb
ee
09
1c
23
c1
ed
07
23
07
b5
df
fa
fc
1b
2c
fa
02
f9
da
0b
06
ff
f4
cb
d7
0f
0d
e7
eb
af
e1
ff
fe
38
e2
0f
0a
03
25
22
28
fb
ed
cc
1e
13
f1
e7
d0
1f
17
f7
f5
0a
0c
00
f6
03
00
fd
da
db
e6
ee
2c
f1
df
0a
01
02
f8
cb
0a
09
11
01
cc
f0
e5
14
24
1c
cc
e4
23
37
0a
bf
a9
09
2c
21
fc
1e
eb
d1
08
05
0d
ee
f3
17
00
e0
f8
04
05
f2
ea
0b
0d
1a
29
11
15
fc
fd
da
c9
fa
f9
f9
04
db
d1
ec
fd
0d
38
dc
e6
fe
0d
ff
e0
fa
0f
15
23
35
fc
00
e1
d9
ef
1b
f6
16
fb
d1
11
e0
f0
00
09
fd
12
f1
fd
fb
f2
2d
0e
fe
1a
16
e7
e8
f5
11
fc
04
fe
fc
e7
cb
f5
eb
20
01
f2
f6
f9
05
e7
eb
fe
08
fb
03
05
f8
f4
f7
11
02
26
e0
15
09
f3
09
f0
44
ca
ed
06
fe
22
a9
c7
e8
fa
fe
1c
0e
06
fc
1f
f0
ee
28
f9
2b
00
12
09
f5
08
2c
11
f7
f6
e3
04
e1
b1
a7
f4
bc
df
07
13
f6
f5
12
13
04
f9
0f
08
db
e0
e3
ed
e6
d9
e1
2d
f1
e5
e8
1d
32
1f
16
0f
e8
dd
fb
08
16
08
f9
01
ff
fa
fe
19
1a
1a
f9
f4
f7
1d
0f
ef
dd
c7
15
1f
fb
fb
c7
21
01
03
00
f8
f9
e8
e3
17
0f
0e
f6
df
f9
fc
0d
07
e3
f4
f5
00
f1
17
07
f5
19
10
f3
f3
f3
dd
15
09
f4
1a
04
fb
e9
dd
d2
1b
0b
12
eb
ed
0d
06
e6
f7
f3
06
cb
d9
e7
f9
f3
f1
0f
f9
d9
e0
ff
12
26
dd
03
35
4d
ce
cd
c7
f3
16
0d
1f
10
19
14
ef
c4
0f
1e
05
bb
ce
f7
01
ff
df
d0
f8
08
f3
f9
0a
06
f8
17
0f
f8
f1
fc
10
03
1c
f0
fc
0c
f9
f6
17
fb
f9
f9
f6
ff
00
f3
23
39
1a
fd
18
1c
fd
eb
fb
08
fd
eb
cf
d3
09
0d
0c
17
1f
1c
fc
f9
09
0d
02
f7
f5
1c
0d
f6
e4
eb
0e
00
e7
ef
06
f7
ea
06
10
0d
17
ed
0a
14
fe
0d
1b
0c
f6
e3
db
c1
dc
e7
f7
fe
21
20
16
f5
06
0e
f7
18
0b
e8
c1
d1
0f
07
fe
da
1e
2f
31
ea
f7
11
13
ed
21
23
07
c8
db
14
0e
fd
d5
ff
04
e6
e9
f6
12
eb
0f
fa
30
2c
13
20
11
f7
df
f8
f8
f7
0b
e1
ea
f9
08
ea
e9
06
06
fe
eb
03
15
0d
fc
f6
0f
f1
f8
15
0e
f3
f3
f6
10
11
fd
31
27
f9
18
08
d0
f4
e4
ce
e9
d9
dc
ce
02
01
0f
ef
fb
1a
0c
0b
15
12
e9
d9
fc
f9
13
e3
e6
1a
18
0c
e6
c4
2c
26
11
0f
17
23
17
0c
ee
f0
ee
d2
e2
0c
0c
00
e6
01
02
14
29
20
22
0b
ca
07
fb
f0
e6
e3
f9
f7
fb
ee
0e
fd
0d
2a
05
16
f4
1f
13
20
ff
f7
27
2a
08
ef
c8
ea
fc
3b
42
e5
e7
0e
0c
18
04
13
2b
20
01
12
20
0c
0e
ea
04
f5
0b
05
e2
0a
17
0f
e7
cc
1c
0c
d9
d1
cb
11
ef
d9
e6
f7
03
f1
f5
12
23
22
f2
32
fd
eb
fb
db
3a
09
24
1b
d5
f8
f6
e9
ea
f6
e7
ea
eb
f5
da
fe
f9
12
f4
18
3e
fe
0a
ed
10
ea
f5
1a
20
19
1b
26
f9
0c
13
0b
03
ef
d9
e2
d2
e4
12
e5
ec
d2
db
ea
cf
d5
d8
e7
f3
03
06
d1
db
1e
0f
e6
e6
f7
05
0d
f1
ee
ff
03
0c
ff
1c
16
fd
1a
12
d2
01
3e
f5
fe
10
10
fb
02
1c
21
04
f4
01
fe
ef
f6
0d
f2
dc
cf
d3
1c
f9
eb
e6
f1
f4
22
1c
03
fd
11
ec
13
06
f0
f8
f3
0e
01
e7
f2
af
c9
f5
e6
f1
9a
c3
db
e7
16
1b
00
15
09
df
f0
f7
f8
04
e9
d9
c9
e4
ee
0d
e5
e2
e1
06
f3
ee
c9
e5
f1
04
19
19
fc
06
e7
1b
16
cf
e0
f0
27
27
d7
f8
0d
04
0a
ff
18
09
18
fa
da
22
00
e3
c4
f0
02
0d
0f
05
f0
0c
f0
07
12
02
0e
06
f6
10
23
ff
0d
10
30
21
ef
17
fc
00
23
07
23
12
e1
fa
f3
d9
f4
f0
e0
dc
ec
d3
de
e4
ed
fb
e7
0b
0d
08
f3
19
18
11
0d
0c
f0
f1
eb
04
20
f4
f0
e3
e3
08
e1
e0
ee
f6
13
cc
e8
0e
08
05
05
01
23
09
05
e9
fb
f5
d9
cf
ef
0f
e6
d7
f9
f1
ff
35
ec
01
ec
fa
24
02
1a
22
0a
12
09
1c
fc
f2
e4
fb
19
16
f3
cf
d4
03
f8
f0
c3
1d
0f
ef
f0
e0
f1
02
14
02
fe
fa
00
f1
08
26
0e
14
04
f3
06
1c
0e
fe
f9
fe
fe
db
fe
dd
e6
f7
09
f2
ea
0a
38
47
07
13
0b
17
04
32
25
09
f1
f0
0a
0a
07
0d
02
fb
02
08
1c
12
d7
fa
11
01
f2
f9
17
f8
da
ed
e3
21
23
fe
1f
f3
fa
1b
0b
0f
f4
e3
fc
f1
e1
01
e2
c8
cb
c2
e9
db
e5
f9
18
22
f9
dd
e9
1b
0c
05
fa
c8
e3
0e
e2
d2
02
0c
f5
e8
fd
e8
ee
fd
e9
05
18
17
18
ba
ce
14
34
0e
f4
ed
e3
08
e9
a7
da
04
03
04
d4
e4
f5
cb
28
ed
e8
d1
ee
e4
ff
0c
1f
1a
df
e2
ff
f0
f3
f8
02
fd
0a
0c
fc
fd
02
24
37
e1
04
da
21
1f
ff
f9
c1
08
ed
0b
e8
d5
fa
1f
1a
f6
e5
03
ff
04
ff
05
08
e4
fe
de
b6
d8
ec
0b
27
0b
13
07
d8
0c
f5
0c
3c
06
f5
e6
07
14
e4
ef
f9
16
18
f6
ff
19
07
13
09
f6
07
fa
ee
f7
fa
00
e2
0d
e8
fb
f7
04
bf
49
12
f3
fc
da
19
ce
ef
d8
f5
0c
ff
0c
1d
26
e8
ef
0b
fa
f7
df
06
13
06
14
ff
eb
02
07
fa
cf
ee
f8
17
36
e4
df
05
0c
f9
0c
05
09
f6
f3
18
ee
e7
e5
11
02
e3
f0
1a
00
f1
fe
24
14
0b
bc
f4
0d
fe
ec
f4
01
e2
dc
e4
21
2a
02
e8
01
f9
f9
d8
db
ee
12
25
fb
f6
fb
db
01
e4
fa
34
ff
fa
f9
0d
15
04
09
f7
f4
ea
14
f8
f5
ea
ec
f7
12
09
0c
1f
fe
06
20
28
3b
ec
f6
0b
08
06
00
11
1d
fe
00
02
eb
00
02
fe
14
fb
f6
05
19
24
ef
f3
f8
fa
08
10
f6
de
f8
19
11
18
f5
e3
16
ed
fa
05
f7
0e
01
f4
ee
04
d2
f5
fb
04
0c
f5
ee
0c
25
15
04
f4
ff
10
01
0c
f7
db
e5
e2
21
09
23
26
0d
2f
19
0f
fe
ea
1d
26
0a
fc
00
f9
f6
fb
f5
01
f2
0d
0a
d8
ef
03
05
f4
f3
09
0d
ef
c4
e2
e8
d5
d2
fc
cb
e0
09
01
e0
e7
01
f8
f6
1c
eb
f8
0d
f9
f7
26
0e
f4
f0
d5
dd
f4
d4
08
f2
cc
ff
fa
f7
18
f4
ed
e4
fb
26
ec
ec
fd
16
00
da
f0
eb
fa
f4
05
00
f8
0a
15
0f
f7
0f
0f
2f
f4
f2
ec
18
0a
02
07
f5
f0
fb
00
01
f6
e0
1c
f7
fc
ee
33
21
0a
f4
20
49
11
f6
e5
d9
cb
eb
07
1a
dd
fe
0c
fe
0a
1a
f0
13
ef
f1
f5
1d
e6
e4
d9
dc
df
fd
1d
f0
e9
05
0e
ee
fc
06
08
2a
04
da
ff
0d
35
07
d8
0b
0d
3d
10
d3
0a
ff
10
09
e9
cc
dd
ef
04
0b
db
e1
01
2f
0a
0a
df
e0
ed
e2
ec
ea
c0
cc
fc
df
e2
fa
e8
d8
06
e0
0b
09
10
25
0e
da
c6
ce
05
02
c3
9e
c0
15
da
d0
ce
c9
21
0d
1c
06
fc
c8
c6
b8
12
26
f0
fc
15
1e
03
fd
0f
fe
e9
04
02
10
e6
08
f1
cf
bb
03
1b
e8
c3
ee
13
0e
16
eb
0a
25
06
04
ee
12
13
20
f8
f3
14
0f
08
f7
0b
0e
f5
f2
09
e1
ff
2d
0b
d3
d0
e8
f1
15
05
05
05
09
1e
1d
f2
0b
01
0e
06
01
ef
15
ec
27
f9
f8
10
2d
10
1e
e4
e9
fa
11
1c
d5
cc
03
f5
d9
d1
f3
f7
e8
fc
f7
0d
26
fc
d1
00
14
18
16
14
03
eb
ac
ec
0f
ee
8d
bc
09
eb
e0
a5
d4
db
00
1c
fd
fd
ea
08
05
27
24
17
d8
da
ed
13
e9
09
d5
e8
27
01
0b
c5
18
27
20
f9
e2
14
fc
2e
ef
ef
0f
0a
00
ee
f8
25
05
e2
f4
ee
e1
a5
d7
f6
03
c9
90
cb
0c
f6
ee
14
07
f2
0d
09
1a
ff
f1
1a
f3
ea
0d
fb
fc
c9
00
13
e9
e7
ca
e3
1e
08
ff
f6
0b
23
fc
02
1d
1e
1c
e6
d5
e6
03
13
09
fd
ff
eb
eb
1e
23
06
f9
fa
0e
e2
ac
9e
c2
fd
ea
e1
0d
03
06
eb
d6
e7
0f
0f
08
ee
d9
e3
e5
13
ff
e2
01
f0
ec
06
f3
fb
00
e3
f8
11
1e
fc
fc
ff
10
1a
f5
fd
35
1d
15
fe
16
17
18
15
18
02
05
f8
02
0a
23
06
da
e0
05
07
0c
01
f8
cf
18
1a
08
0e
25
03
fb
fc
08
04
fc
f7
00
0e
f7
11
0b
f7
fd
1c
fb
dc
02
1a
04
2d
ec
e7
1e
16
ff
e2
15
22
e3
d8
d9
02
26
0a
f6
19
12
15
0a
f0
1f
0d
fc
ef
ff
12
f8
f8
f1
fb
04
da
07
fc
26
31
c9
ae
ef
08
27
1a
04
fa
f4
f5
18
27
1d
f8
d9
e0
f1
0c
11
07
ef
06
e2
f7
fe
17
22
fd
07
ff
10
0e
15
fd
e8
e5
da
14
03
03
0d
06
27
ef
f0
02
16
ca
e0
ed
d3
00
16
1e
08
e1
f4
12
fd
01
05
0a
f3
d8
dd
18
21
25
fa
fc
ec
0d
eb
f4
e9
fb
13
15
fd
f6
f1
02
f2
02
e7
0b
11
f6
f0
ff
09
fa
ee
12
05
11
06
0f
44
26
10
ef
13
ee
ef
fa
1e
05
ea
ef
08
f2
07
11
ec
f2
e9
f6
ec
e9
0b
ed
d6
f1
1f
0c
d8
10
db
e4
f7
02
2e
0a
ec
dc
ef
06
09
1c
f6
01
f2
f9
fc
1f
20
75
ea
07
f9
0e
fa
0e
f9
08
0c
fa
f9
f8
17
17
15
f0
07
01
11
fc
ef
f1
18
2a
de
cc
d0
f8
0a
0d
fd
f7
21
fb
24
f2
f1
10
fa
fc
f0
02
16
dc
e3
18
11
15
f1
a9
dc
de
f4
da
0b
fe
f9
f7
16
08
ff
ff
fd
ff
23
05
f4
ea
05
f0
f2
f6
fa
1b
ef
db
ec
12
13
e1
01
0e
16
26
ea
fc
0a
1c
1a
fb
1a
fe
fc
f0
2f
04
ec
01
fb
18
d5
c7
c6
de
f8
f5
17
e9
df
fd
f2
f4
0b
e9
f6
d8
fa
0a
e4
ed
c6
05
f9
ef
07
16
f8
a4
ec
cf
b6
0f
19
17
da
d7
e4
26
f0
e8
eb
e2
dd
d2
ff
19
cf
f1
0f
07
1b
f0
fe
35
0a
32
49
34
16
0e
30
07
14
14
16
07
1a
f9
cd
df
de
ff
ec
f1
d0
e8
ba
03
0c
23
39
2a
08
04
4b
04
11
12
e8
4a
10
16
ea
de
ef
e5
df
e0
1a
d5
0f
ef
1f
0c
03
19
07
11
0e
be
19
06
14
e2
ff
1b
e4
f5
ff
0c
32
f9
e3
f7
18
05
02
ed
f3
0f
2b
15
03
c0
17
26
25
f0
f5
0f
f7
2d
14
34
fd
ea
24
24
15
e5
12
16
11
f1
ce
db
0b
03
36
d0
ef
13
1c
17
e5
e2
ec
e8
e8
1a
f3
14
10
eb
03
f3
0a
e5
ee
0e
e4
de
ec
f4
2b
01
18
0f
04
d8
05
1f
23
2e
e8
fa
fa
09
fc
33
1b
f6
f9
c5
c2
d8
12
03
01
e6
1c
09
15
f4
c4
04
fe
f0
d7
ec
fe
ed
e8
f3
41
1e
0e
08
0d
24
37
11
03
04
06
0f
0f
dc
f6
17
26
ea
01
21
23
f3
ff
3b
fe
e1
e0
30
29
ea
e3
05
fd
0c
14
fa
11
f3
03
1b
13
09
f0
11
1f
1b
20
ea
1a
16
f5
fa
f4
0a
13
ca
01
10
fc
f4
07
f3
2b
de
05
11
03
1b
e8
e1
39
07
0a
c6
fb
14
f2
e8
e0
12
ef
0b
17
0c
02
ea
f2
fd
06
d0
ee
02
f5
08
de
0e
13
08
f7
eb
0c
fd
f4
ee
ee
11
02
11
cf
f6
d7
f4
0d
00
0f
07
fc
13
17
43
0e
f5
00
ec
21
2c
ea
f0
d0
ee
fe
f2
d6
f7
13
f8
fe
f4
19
0e
15
10
03
11
e9
0c
0f
22
08
f7
07
17
08
f1
de
01
ed
fe
0d
13
0b
f0
00
e2
e9
e4
cb
e4
11
0f
c8
e9
23
06
e3
c9
1f
10
f0
bd
09
1a
fa
07
1a
15
ff
22
01
10
ed
0d
11
0e
fc
02
e3
f3
e9
cf
e0
27
3b
16
06
b7
eb
11
f0
13
ce
16
0b
ef
16
fd
12
04
1b
e0
01
f0
f0
fa
c0
fa
ee
db
da
e7
10
2c
1f
ea
b7
0c
02
0b
e7
c6
08
06
fc
11
17
0e
f8
10
14
06
f0
17
1e
08
21
12
f9
e8
f4
ec
04
05
e9
ee
01
2d
02
d7
29
37
dc
d9
16
0b
15
f5
06
fa
20
0c
db
d5
f4
0d
eb
da
e8
f7
e5
e6
ec
e6
f5
f0
08
e1
ed
ff
0c
f3
11
05
fe
e9
f4
fb
ff
ec
0c
28
01
11
e3
f8
11
1a
3b
d7
fe
22
10
11
f4
fd
0a
0d
f9
f8
20
26
dc
05
e6
0a
14
d3
f8
00
d0
c3
ea
fe
d8
d5
ef
07
09
f5
e7
dd
06
f9
07
e9
cb
bb
dd
13
1c
1c
d0
fd
ed
ef
ec
e5
dd
ed
ff
b5
d4
c1
ab
a1
a2
25
07
f0
da
a4
c4
e9
f7
0d
f3
e0
f1
f3
ed
e6
f3
c7
13
21
13
c2
24
0b
1e
00
03
20
23
14
df
cb
db
ee
01
1a
ff
e6
02
1d
12
0a
fc
0c
07
04
fc
f3
04
e7
f4
05
cd
00
07
0c
90
d1
01
f1
ef
cc
f5
f9
ed
f3
02
02
10
f4
f0
0c
11
1d
f1
ee
31
05
09
f6
02
bd
e3
06
03
1f
cd
e9
da
e3
ea
20
fb
cc
f4
e4
04
fa
ef
04
e1
39
11
d7
bd
ba
db
ff
21
11
de
f6
f2
04
e7
fc
c8
05
0f
1f
dd
19
25
1b
f2
a2
f9
10
fb
c8
a8
e9
f1
e6
00
27
cc
dd
dd
10
e1
db
f2
f1
f7
e8
04
e5
e0
e0
f0
50
24
12
ec
f7
d8
c8
0d
20
06
e7
0a
14
0a
0f
0a
db
eb
f1
02
14
ec
16
e4
cd
16
1b
fb
ed
b0
fe
1c
1d
0d
da
12
13
f6
f8
fa
f1
0a
14
36
0a
04
e3
eb
fb
bf
d3
02
15
03
ce
f2
f3
d7
d9
f7
de
ee
e0
f4
e8
d9
10
fb
21
08
1c
10
0d
16
05
07
0b
19
33
27
14
22
c9
d9
fe
11
06
de
05
cd
1f
04
04
08
0d
fc
f9
0a
17
f0
00
f8
db
de
f8
e3
01
d7
03
53
ea
f2
0c
06
22
f9
fe
e1
ac
c3
f2
eb
01
e8
d4
ea
2f
2e
fc
23
fc
e6
ff
28
39
e3
e8
e3
d0
09
f0
f5
09
fd
ed
cd
ea
08
ed
df
11
21
17
0d
1a
04
ff
12
f3
35
07
d1
f5
0d
2f
0d
ff
ed
fb
dc
03
f7
07
ec
ca
03
13
16
02
fa
09
1e
03
e8
f4
06
0e
fe
