df
09
08
0f
1d
0e
17
20
dc
fe
0c
f7
f4
01
11
f0
f4
fd
01
0b
0d
3a
0b
f6
d7
1c
e5
01
e7
19
00
10
01
21
18
1c
fc
09
20
04
da
11
ef
03
02
0d
3c
0b
ff
f8
0a
f8
03
df
ee
0d
d8
fa
52
10
03
17
f3
cf
37
17
17
25
02
e8
0d
3b
eb
27
c5
13
ef
11
03
52
ec
0c
3b
00
f4
f1
d8
31
fd
f8
f1
00
e1
10
1f
da
f2
05
02
30
29
fc
09
f9
f0
fa
0a
fb
ed
f9
eb
12
14
1c
f0
fe
1f
ef
12
0f
cc
05
02
05
fe
c5
09
06
fd
0f
10
04
04
f0
fa
14
f9
ee
f7
3c
29
fa
f4
e4
0e
0e
21
e1
0f
f7
03
f7
ff
13
ec
e8
f0
e8
21
22
0d
0e
08
ed
eb
f4
02
f3
20
f5
f6
f5
10
c9
2e
18
16
0a
08
dd
fe
16
f6
04
01
0b
06
e6
0a
d8
06
b7
0c
09
e5
d9
f4
f4
e3
f1
cd
07
c0
1b
10
f1
f2
19
e5
d1
fa
f0
e7
10
01
c0
be
13
fd
d6
03
ea
22
da
1e
07
09
10
f2
00
02
0a
fa
03
f7
ff
04
ea
f1
0f
fd
04
01
fd
fa
ea
11
d4
e2
e9
0c
0f
f2
fe
f2
f5
12
05
ea
c3
04
13
d8
30
f5
f6
ed
11
1d
08
00
04
b9
d6
f8
f3
db
f5
f4
07
06
f3
f0
0c
eb
09
11
f8
f6
ef
ed
e3
e2
1a
ee
06
e5
11
df
16
cc
f9
f4
d6
0e
d3
0a
ed
d9
ed
15
c7
0e
c2
d0
07
17
18
f2
23
f4
df
dd
e4
e8
07
15
1c
17
ef
f6
ed
e0
13
dc
04
fb
14
0e
d4
db
fe
e3
e8
05
d3
14
f1
02
04
f6
1f
12
fb
0c
0f
13
05
10
ea
00
fb
e6
12
f2
10
f5
01
b6
f7
db
e4
f6
ea
00
cb
0f
f1
05
f7
ec
05
0c
f7
e7
f2
19
0c
08
14
0e
fc
05
0c
0d
f5
0b
0d
04
17
07
08
15
fa
04
0a
02
1b
20
f1
e6
13
14
fd
f6
11
da
ee
26
14
15
ed
0c
df
0d
cd
fa
e0
04
e9
12
f9
fd
2f
e5
e4
fd
d1
13
04
f3
0f
1d
ec
f9
1e
14
12
ee
0c
db
f2
0a
e8
e9
26
ef
fe
e1
1b
1a
2c
dd
1d
f9
da
f6
02
e4
11
f4
cb
ea
ed
e6
fd
0e
09
c7
f3
f3
e5
09
e4
18
e6
12
ec
05
11
10
e6
30
1e
10
15
fa
07
02
ee
e9
f0
18
ed
0d
00
10
2c
fd
f0
e6
ee
26
f8
24
1f
fb
e2
f6
f3
f4
ee
fa
05
f8
09
df
20
21
00
14
1d
08
dd
f6
05
11
f9
0f
f8
27
41
df
34
02
0c
2a
e1
20
fd
14
2c
0c
fe
0a
de
0d
05
0b
ef
ff
fb
03
18
d7
f7
0a
ea
16
f8
ed
03
0f
e2
e0
0c
e5
f4
0f
25
f8
13
ef
18
1b
21
17
2f
0c
10
f0
f5
ef
c0
f2
0f
07
02
2d
0e
ea
ef
07
04
f7
02
0e
fc
f5
e9
06
17
f0
fa
0b
e1
08
10
08
f1
fa
0c
f8
f6
e0
0c
ed
f0
e9
ef
14
ec
d8
f6
15
ef
d3
f2
fd
ee
fa
0c
f2
10
fd
37
06
f4
c7
06
e6
ef
01
18
ea
15
f4
07
e2
0e
e5
ec
e9
fc
ed
c2
17
f3
f1
fd
f2
0b
09
03
dc
21
fa
e7
e8
fd
08
d3
d8
f0
db
19
d3
03
2e
fe
e4
21
0a
1a
df
f6
f8
07
0a
ef
b6
de
d3
1e
df
14
f5
e9
f2
e2
eb
05
12
19
07
04
c7
15
fe
16
45
18
f2
17
0f
0a
e8
c3
40
03
09
25
ea
d1
f6
35
f2
ee
0e
07
eb
ea
0d
00
46
0b
ff
fb
f9
23
00
f3
f6
03
ed
18
fd
20
ec
fc
15
f0
f8
0e
ed
d0
d2
f1
ea
18
15
01
04
f7
09
eb
02
10
ee
f7
03
f3
10
ef
ef
f0
d8
16
f5
ee
2e
18
fa
0e
28
10
f7
f6
11
d1
0f
08
cc
fd
13
ef
2e
09
fc
d7
fe
20
06
d4
20
e9
1c
0a
15
f6
ed
e7
0f
17
0c
f7
08
06
30
05
05
3a
23
09
e0
30
e8
10
04
0f
e7
eb
06
11
1b
da
ec
e0
09
09
08
ef
20
f0
11
00
ef
21
17
31
0b
1a
d2
f9
08
0d
2a
1f
0f
17
29
00
fc
e1
d0
f5
f9
fa
e3
eb
0b
0a
ed
13
fe
fa
cc
ce
09
f8
e9
f9
13
05
1b
fe
1d
fd
d9
ee
da
df
1f
0e
e9
f1
cf
f2
ea
03
12
e2
f7
1a
19
f4
e7
db
ed
e7
e6
d7
e8
09
07
e8
fc
f3
d8
f8
07
f9
23
fc
ee
10
ff
13
ea
f8
d2
fb
04
1f
02
fa
01
06
fd
ff
e8
f3
d6
e2
f4
eb
05
07
b3
f8
d0
02
25
02
15
f9
f9
0d
16
f5
fc
10
fa
24
07
fa
e7
ef
1f
02
11
db
03
f5
dd
00
1a
0d
11
0f
02
04
2b
f7
23
1a
24
e8
17
f8
ec
fb
f3
0e
0a
b7
fd
fe
04
12
08
0c
23
e3
f4
ef
eb
08
29
e8
23
48
f5
0c
ec
05
00
ed
05
ec
e2
06
e8
fb
f1
ee
1f
e5
1c
0b
0d
f3
0b
31
11
1d
f0
07
05
12
f5
1b
22
f3
d8
0c
2d
f3
18
02
e1
0a
de
20
1e
16
fc
ec
c9
09
ed
03
c6
bb
14
f5
eb
02
09
ea
01
13
1f
f3
fb
0b
ff
1d
fa
ef
01
11
f5
f7
f8
1b
07
f2
05
20
0c
2f
d6
0a
15
17
f2
e3
f6
1e
03
00
0b
13
0b
06
11
1f
ec
0f
f7
ee
f7
12
e2
05
f8
02
d1
fe
0a
ce
e5
09
ee
ee
cd
f6
d2
28
e1
00
00
da
11
0f
35
21
f8
ff
0f
0f
0f
b0
0e
44
d3
2d
f6
02
ff
ea
07
ee
19
19
f1
19
26
04
10
14
d0
34
31
e2
fd
13
18
c8
1b
e7
11
fb
e5
1e
0c
cd
06
0a
0d
16
1d
04
fc
26
0c
15
4d
ff
f0
01
17
f0
06
11
06
07
fd
09
ef
f1
0d
24
ee
19
03
fa
e6
09
09
0e
e9
02
f6
f2
17
e0
08
1c
0b
0e
14
0a
06
28
18
e9
f1
e6
f2
1d
f2
f0
03
f1
fa
e1
08
0c
18
11
18
08
f0
dd
f6
04
2d
32
08
f6
04
06
cc
28
e9
00
cf
f5
08
f6
11
ed
14
ea
16
f6
15
0f
ef
c4
1d
09
06
f8
0e
15
f2
e6
09
f9
23
d3
1a
16
33
f0
08
f3
ed
fc
ee
f8
15
d5
f5
cd
01
1f
13
04
fe
ed
e9
fb
02
05
03
13
1f
f1
12
02
04
11
12
f9
db
0e
12
1f
05
ec
04
09
fe
0c
de
0d
2d
20
1f
ea
ea
fd
f7
e9
22
15
f3
ed
fa
0e
06
f8
10
fe
11
fc
dc
ef
12
19
0e
31
00
ce
18
fd
1d
00
f4
e6
06
11
f3
d8
0f
ea
d5
fc
f3
fc
19
ff
0e
16
e4
27
1f
e4
16
e6
fd
00
09
ea
dc
38
06
08
cc
1a
ea
db
15
09
ec
e7
26
01
d0
fe
fd
ee
10
11
fa
12
ff
f9
22
07
26
ed
00
02
0d
00
13
41
08
03
19
31
06
f7
22
fc
d3
00
17
0d
35
20
f1
10
e4
fc
1a
03
d2
00
f5
ee
fa
fc
17
16
06
fc
00
1b
f2
0b
ee
f8
1e
f8
12
03
11
fb
17
e7
1c
1c
14
05
dd
04
0e
07
13
c5
f2
ff
02
ff
ee
0d
09
c4
12
02
d2
04
0b
e1
18
36
ed
e2
18
09
f8
24
f7
f5
e5
f9
08
21
f5
1b
03
e7
dc
e7
07
2b
0e
02
f3
fc
fa
e7
1d
fe
10
f3
ff
f4
c8
db
0e
05
16
03
f4
08
19
21
06
17
01
10
d2
17
ed
11
d5
ea
16
01
20
13
f1
fe
e1
ec
df
f7
ec
ff
e9
0a
02
04
f1
ef
05
07
09
dd
15
07
09
f8
ef
00
01
08
e0
10
06
0f
fb
f1
14
e7
ed
e1
04
0a
f3
08
05
03
03
ea
06
11
fa
fa
f1
fc
fd
ee
ff
08
0c
10
fa
e6
ea
ec
04
f3
f4
04
e7
ed
07
f2
09
e9
04
fa
e3
01
09
f8
e3
e6
e7
f6
fc
0b
ed
05
fe
05
01
e4
10
03
07
f4
df
fd
df
f9
fa
fc
f3
12
09
0c
df
e2
0b
0a
06
e9
ed
e2
e9
f7
0e
ef
0c
f9
04
0c
ec
08
f0
ed
09
04
da
0f
24
e8
e9
04
de
1e
20
0d
d4
dc
00
15
06
09
fe
27
e9
e8
02
df
f4
16
10
15
0d
02
03
f7
e1
e8
ec
07
d7
f0
e8
06
d8
01
06
14
f0
de
ed
ea
0e
0a
f3
03
04
dc
0b
11
d5
f9
d2
ee
e9
f2
d2
fe
32
1f
29
13
09
f9
f5
1b
f7
06
d5
1b
ec
fd
fa
24
f0
1a
f2
f5
f7
0a
f6
05
e0
e5
e2
f6
fd
16
de
e5
e6
08
17
00
f0
1a
ee
d8
15
fb
f4
3f
e3
25
05
02
1a
cb
1a
04
02
13
ed
0a
ee
00
c7
f1
e3
01
f2
bb
2c
00
d2
09
d9
d4
f4
06
ec
f6
08
f1
fd
a6
1e
01
15
ee
ec
08
db
1e
12
15
fb
1d
07
1a
fe
29
ee
01
10
1c
fd
ec
04
f0
fd
0a
16
f4
fe
fb
e9
d8
fb
d4
20
1e
11
f3
32
15
e1
f3
ef
b6
13
bb
10
f1
07
00
ed
ee
25
ed
ea
02
f2
ce
ff
0a
f7
cc
04
fe
e8
e3
09
f8
19
03
ed
dd
43
fd
e7
fc
eb
05
13
00
15
0d
1c
09
fa
fa
34
05
03
e0
e2
28
e9
0e
cb
f6
45
00
f2
1d
c5
eb
1f
fe
02
e1
eb
f9
fb
f1
1f
ee
f4
e2
fa
f4
e8
e9
2b
19
0f
0d
dd
13
fb
1f
f8
eb
23
f0
de
eb
e2
de
05
ed
0a
09
df
12
07
fc
f4
1e
03
1d
09
f7
c2
fd
f3
fb
1c
17
03
03
dc
0e
ff
d4
05
0b
23
3c
00
00
ed
e8
f1
03
08
c1
e2
ef
14
2d
f1
21
f7
02
0f
f7
e2
ee
23
df
da
ef
d1
f0
f1
2c
f9
fc
1e
f7
1a
0e
00
02
f9
dc
06
c2
05
fe
e7
27
0b
1c
3e
ee
e9
fa
09
ef
f0
01
04
fd
19
fd
dd
f8
f3
f8
16
f2
18
f9
e6
d1
09
fb
11
08
f9
f1
16
c9
23
f9
11
02
0b
fa
1b
29
10
04
09
00
e2
1a
ea
06
ee
1c
06
17
fb
f7
f6
fe
12
03
21
f0
e4
14
04
f3
25
05
e7
20
16
ff
1d
d9
1c
d3
e7
be
f9
e3
f7
fd
1b
e1
0c
09
02
02
e8
ee
21
bf
ee
28
0f
02
22
fa
fc
20
e5
f4
f0
e8
26
f0
fa
04
10
e8
f2
1f
f7
0b
2e
09
f6
02
eb
f4
30
ff
f0
29
f0
e0
07
19
1e
ee
fa
ef
d8
ff
f4
0f
dd
f2
0c
0d
e4
ff
0e
d2
1d
03
07
18
13
e8
15
f0
11
fc
0e
0c
23
12
18
01
fb
00
0b
06
12
0e
eb
e6
06
fb
0a
21
01
f7
ee
07
ff
d5
f2
01
1d
fb
2a
fa
25
fd
14
0e
ea
01
15
f9
20
13
11
20
fb
0e
2b
06
0d
fa
e1
11
fa
e6
f5
0e
e6
1c
1c
cf
f1
ea
0f
22
1e
09
cc
f2
e4
04
04
11
2b
16
19
ea
f9
ff
09
bb
2a
06
04
ec
24
fc
05
eb
e6
ef
09
f2
dd
dd
f9
e7
ed
0d
1a
f7
ed
ee
ff
e4
fe
ef
ea
02
d4
ff
22
e8
36
28
0f
26
ec
f4
1d
1f
13
d6
02
e3
e8
fb
39
12
23
ea
10
10
0d
f0
e8
ff
1d
e9
1c
03
03
f0
01
f9
ed
ec
fd
e4
10
ef
0e
2a
37
00
d3
ea
fc
e5
1b
19
07
fa
e7
2f
e9
1e
f3
e9
0a
2b
f3
20
f2
02
1b
db
04
08
0b
08
e4
cd
24
19
f1
04
e4
d5
d0
fd
02
f6
33
f0
ed
20
18
0b
15
06
ee
15
fb
ef
24
d5
02
0f
f1
06
f6
07
e3
c9
0f
fd
fa
f4
0a
f6
d2
13
0f
f9
cd
30
eb
07
ef
ea
fc
d9
eb
28
ff
0a
e7
04
02
ed
13
da
09
10
00
0c
f8
31
ff
27
0d
ed
02
16
15
0e
e5
0d
0e
0c
0b
1d
f3
ef
05
bb
05
2d
11
e7
33
ff
f8
06
09
fb
cf
05
25
e6
f6
e7
1e
d6
f9
e0
05
0b
f7
04
f3
e5
00
f5
12
09
0c
17
1d
c9
f6
f6
38
06
22
20
00
04
14
2e
f5
fb
25
18
0d
1d
1d
ef
de
fa
ef
09
f7
de
23
1c
ec
e0
d0
11
f4
de
e5
ee
15
e4
2b
fa
fa
f7
17
1d
e2
fb
da
3d
eb
03
e5
10
06
ea
26
f3
f3
09
f1
11
24
d9
15
07
03
0b
01
0f
db
28
16
08
fa
0b
03
0d
1a
2d
e6
f5
f0
1e
ed
07
ec
fd
0d
1c
04
34
ff
ff
13
04
db
e9
11
17
0f
e8
1f
e0
09
ec
13
04
02
ea
12
08
14
13
ec
ef
f0
f6
f6
f0
43
f3
19
ec
20
0f
e9
f4
e7
35
02
d5
2a
06
f5
07
06
f1
fa
0e
fc
e7
08
0d
14
21
e0
ef
35
e8
fe
1d
1e
01
0f
02
12
14
fc
04
09
03
e3
ec
fb
12
1d
fb
23
e9
01
07
1f
ff
f0
1f
06
14
0b
2e
f5
f4
f7
35
0a
15
0b
07
05
08
e8
d4
17
11
10
11
07
f2
ee
be
10
05
f9
d1
02
d8
ed
f2
ea
22
c8
fe
c4
12
ef
f5
e1
02
14
15
c8
ee
b5
10
f3
15
01
fc
25
10
18
11
db
e9
21
e8
f0
ff
f1
18
d0
13
f3
23
0d
23
ce
0b
f0
b9
1a
f8
20
ff
1b
15
b7
f4
1d
c3
13
ef
04
ee
07
e4
19
10
e8
25
05
06
ec
19
00
2e
04
1d
fe
17
02
fb
23
16
0e
ff
fc
ee
f9
0e
f7
05
13
f5
fb
09
f1
f6
f9
ce
fa
ef
14
f6
e7
f9
d5
1a
00
12
04
e9
0c
f6
ef
f4
07
d1
00
e8
f3
23
f7
ba
0c
fe
fe
f4
08
f0
f6
df
cb
ee
e4
e8
ec
c1
10
09
d0
01
0b
04
e3
0c
d1
fb
f8
17
e3
18
e3
01
e6
19
15
f3
f6
fd
d4
f2
e9
e5
f2
10
ca
f9
07
e7
fd
01
10
d9
f0
ed
ea
fd
eb
cd
04
0d
03
0e
c7
03
f0
24
d0
0e
11
e8
cc
27
ee
eb
f9
c8
13
10
09
f3
bb
fb
21
ee
f2
09
e5
ce
09
dc
11
0d
06
fe
17
1d
07
fe
16
fb
18
ec
f9
ce
0c
04
e3
e5
29
3f
04
f4
0b
f6
db
04
0a
06
14
e7
f6
0a
19
eb
f1
17
f1
0f
0f
ee
05
f5
fc
ff
f9
f0
f5
fc
2c
05
d3
ed
e7
c5
07
12
f1
de
e2
f6
cf
19
f9
07
0e
0a
13
ed
ea
e2
fc
cf
06
e7
e5
0c
19
f4
30
fe
02
e5
0e
10
0a
e2
d0
3d
fa
e7
0e
f3
db
f6
0a
17
e5
e7
e9
dc
0f
0b
0b
fd
f8
ed
03
f9
f5
ed
dd
fe
24
f9
08
06
14
e2
f6
04
12
fd
e7
0d
08
14
0e
11
eb
e6
2f
dd
04
f7
de
ee
ee
08
df
ff
11
09
eb
ec
25
e2
22
31
21
eb
0f
e4
04
e3
08
eb
06
0e
f1
eb
f4
fa
0e
f4
ed
11
0c
bf
22
24
fe
19
06
30
01
27
d9
28
0b
ce
0c
0b
e9
21
f1
f5
1f
f4
0f
18
f8
17
09
e2
00
11
ea
19
0f
32
20
e9
21
fa
f5
de
0b
12
31
e2
f5
13
d6
f9
f8
ed
f9
07
f9
eb
ec
05
01
df
fb
f0
f0
ed
c4
10
2d
ed
23
17
f9
f4
f2
dc
11
f4
30
08
0b
0b
fa
e5
eb
ed
ff
09
16
06
d7
ca
03
ec
12
03
02
08
09
27
08
fd
f2
1e
0e
d9
1a
2d
e9
f0
10
0e
02
f1
fc
bb
00
f9
fc
0a
ed
16
f6
e9
f9
fe
f0
0f
dd
0a
f5
0b
19
e9
02
d2
dc
0d
e6
f7
05
10
0e
06
21
01
c6
d9
1e
d1
16
14
e6
f8
1c
e2
22
08
03
f7
fa
1d
f6
0a
0a
07
24
00
18
f7
e5
d8
25
0b
df
15
10
e1
2a
f8
04
23
f6
f6
15
05
fa
f7
e1
f4
f0
01
04
fa
c3
1f
03
f4
dd
ef
10
23
e6
f1
02
f6
09
06
01
bc
25
0d
00
02
10
16
f0
15
21
08
d1
0a
0b
f1
e6
f0
d7
d8
da
ed
0f
04
ef
05
f1
2b
f3
fa
04
fa
f5
e6
db
36
0c
2f
fa
11
cb
08
fe
c6
1c
ef
f7
df
f5
07
cb
19
13
ad
f4
dc
23
fd
16
de
fa
08
f2
14
f8
0e
0b
dc
1d
0c
f3
20
3c
0e
eb
1a
1c
13
f4
03
ee
d0
fc
e6
2e
cd
fc
0b
03
0b
fa
1b
f7
0c
f2
26
13
25
05
16
d6
01
36
06
c6
fd
0a
14
19
f1
ce
12
13
ec
18
e7
01
ed
0b
14
d6
ef
08
3b
13
fd
ce
14
f5
e7
16
02
fc
0f
c9
09
ee
f2
df
e9
e5
ee
dc
f0
f6
fb
04
3f
17
e9
15
ec
e7
00
f9
06
dd
1b
03
08
c4
04
e7
96
10
0f
07
09
e6
0a
0f
f7
03
ff
f5
e0
03
ee
12
fc
ff
18
1c
fd
fd
00
c9
13
25
1f
e3
1a
ee
f2
d5
ef
de
16
ec
e6
07
37
f9
18
fb
dc
fa
d3
0d
14
f6
f5
05
0f
30
1a
d4
16
fa
02
0e
06
20
fa
e0
1c
13
f7
f7
ff
39
0c
f3
1b
0b
1f
01
ff
1d
fa
20
df
e8
fe
06
23
1c
07
f6
fa
f0
fe
19
e9
18
da
22
0f
fc
05
d9
f7
07
1a
f4
04
f1
f3
c9
da
e8
f8
0e
e5
d6
ee
f5
bb
1e
fb
f7
3b
fb
22
eb
10
fa
22
f1
f1
0b
0d
ff
12
09
e9
0d
26
fe
fd
05
e9
07
f3
f7
fe
0b
f2
3a
18
18
f5
2a
fe
14
ee
25
fd
38
09
fd
f8
e6
f1
e4
10
0c
0a
11
15
0e
14
0e
f4
ff
12
06
00
e2
07
f9
08
e5
0b
eb
00
28
ed
f8
e1
0d
11
e4
e3
bc
f2
f4
d3
f4
f9
01
22
16
d9
2b
0c
ea
f4
38
fc
e7
2c
26
f2
19
2d
04
28
0f
29
1b
e6
d5
03
06
fc
f6
a2
12
06
14
0a
bd
10
0b
e5
ea
12
e9
13
43
d2
18
1e
f3
cd
0a
c5
ea
f6
1e
f5
1b
0e
f0
35
f4
e4
17
bf
06
e4
f0
04
15
0d
06
f3
c4
ef
ea
ec
f4
ea
1e
e1
e8
0b
e5
0c
fb
1c
f3
1a
07
22
1b
ea
11
01
fb
fb
11
ec
bb
ce
ef
e6
1c
fb
0f
ef
0c
0a
ef
08
2e
24
ec
ea
10
f2
f6
3a
dc
26
00
ee
0b
ee
e0
f8
ff
21
dd
0a
d0
fa
e9
01
ee
24
0f
01
f0
e9
10
10
e5
1e
d4
d6
e9
f3
f5
e6
03
1e
4c
e1
0f
ed
17
d7
d6
0f
00
df
48
eb
2c
20
fb
f5
1e
1a
dc
06
eb
d9
f7
26
07
da
fc
dc
25
ff
1c
e1
dc
21
2e
ec
fb
ea
07
0b
f9
39
26
f7
28
17
f6
f4
23
1e
fe
fe
0a
1d
f9
ea
09
07
0c
ea
10
f2
11
fc
f8
db
22
2d
17
f1
dc
f3
17
f3
20
00
ce
12
f4
16
08
0c
06
fd
ea
eb
23
b4
ed
11
0b
ff
1d
e5
bb
e4
02
f9
e1
0e
b9
2a
eb
f4
f0
ec
e8
16
17
01
f6
28
fa
22
05
fb
13
02
ec
1e
0e
28
1d
ef
d5
f6
f3
0b
f0
1a
23
1e
fd
fe
21
05
e5
e9
20
d4
d7
d1
13
e5
0d
12
00
26
08
eb
0e
da
00
fb
1d
28
ef
db
d8
2b
18
ff
ec
18
e0
12
fd
09
ce
df
af
f3
1b
39
1d
22
f7
fd
fe
05
15
2e
1b
fc
fc
fa
f0
01
ed
1f
f4
02
e1
f6
01
f7
eb
fa
e5
e6
08
23
1d
f8
08
0f
1f
01
f1
f6
0e
fa
1c
19
c3
f8
f8
f4
04
03
cf
1d
e7
e7
e9
03
f9
16
ef
2a
07
e9
11
1b
15
fd
09
0c
f5
d1
e3
12
ea
f6
12
ec
03
2b
20
ef
13
f8
1c
00
f9
16
fc
10
1f
30
06
00
2a
de
e2
32
0e
f3
e8
06
d8
43
13
08
ee
05
0d
eb
f3
0c
f5
ed
0c
06
08
00
0c
06
18
d7
e2
fe
03
ce
fe
f7
01
e6
da
f7
0b
f0
05
f8
12
c4
15
1b
e8
f6
25
03
fa
02
0f
05
02
1a
20
01
06
ff
3b
0f
05
0b
e7
03
03
9e
f2
f7
2f
ff
ac
ed
0b
0e
02
db
d8
e1
f2
0e
ff
f9
16
df
fc
c2
ea
13
ec
fd
2c
f6
ea
0d
ec
dd
40
fb
fb
18
eb
c4
eb
0d
03
e7
17
00
1a
e1
ed
fd
09
eb
20
17
0d
f9
f6
ce
b1
22
e9
1b
df
33
f7
0c
dc
fe
d3
37
2a
c9
06
01
1d
1b
24
fa
13
ec
d8
0a
06
0d
fb
f3
08
e8
f6
0d
07
12
bf
37
10
e2
f1
f3
f1
e5
29
31
08
fa
fc
09
dc
0c
d5
09
1c
06
19
f1
ef
ec
ca
13
fd
db
d6
1c
0d
fa
17
f8
02
23
2f
0c
26
f0
d8
ff
2c
fe
14
12
f1
18
15
30
df
d5
1a
25
20
00
ef
f9
fe
01
ef
da
19
ff
03
07
04
1e
0b
d3
13
24
d4
ef
ff
e1
fc
1c
ec
ef
02
f2
16
04
17
20
00
ee
f2
19
fd
dd
e5
f9
fc
2f
01
f0
2c
1a
08
e7
b8
ea
e2
0b
00
e7
f9
f0
13
08
ec
11
08
13
1c
1b
22
19
06
de
ed
f2
e2
ea
10
01
f2
e1
03
1a
f9
11
0f
f4
e8
11
fe
ed
08
05
04
22
e0
15
21
ff
29
18
13
f8
f5
f6
19
ee
d1
ec
fa
22
01
f3
de
06
11
d3
04
06
e5
ef
05
13
17
0b
24
09
f0
0a
01
0e
14
f6
e6
13
fc
f2
ff
0c
11
ff
ea
0c
d6
ea
0c
13
14
09
f1
11
08
2b
1d
29
1c
da
e3
31
fd
e9
ed
17
f3
31
0b
f5
14
fb
1b
ed
e3
10
fb
d9
11
fa
0c
0e
04
ff
f3
c4
26
fd
f2
0b
f6
1a
de
1b
f0
23
13
0a
b1
03
02
07
00
db
da
ea
15
06
03
fd
0b
ec
0b
11
26
d7
09
0f
fe
02
1c
ec
08
f8
0a
f8
12
e6
1a
49
09
1d
ed
ea
09
f8
23
0b
ef
f3
e7
10
12
17
e8
cf
1d
e3
20
0c
0e
f4
14
fb
ef
f8
fe
cd
fa
0f
fb
13
12
f6
ea
0c
ba
16
db
ec
01
10
e8
e8
1b
0d
06
2f
f2
0c
1b
26
f2
f4
fe
1a
b9
1e
ec
2a
e2
1f
ea
00
02
ce
e4
f9
e0
c4
f1
04
f2
e7
f3
e3
f4
10
f8
0b
15
0e
2d
0d
f4
eb
0a
1d
d5
f4
fe
03
19
ee
05
00
04
10
fc
15
fb
06
05
ed
10
ff
0d
d0
16
f7
d2
13
f3
0a
f5
f1
15
f6
fc
ed
f3
0d
f5
fd
d9
14
d2
2e
d1
12
06
12
06
18
33
ff
04
2b
ed
f5
cd
ff
08
0b
07
05
40
01
0d
fb
de
0f
e4
fe
fc
f6
11
f1
38
fb
12
28
e7
e9
1b
e2
cf
b5
0e
15
ed
0c
06
16
fe
d0
0d
da
db
21
2c
e4
fd
d0
fc
2f
f6
33
16
15
11
11
f9
ce
e7
2d
fa
04
f9
24
fc
1a
d0
0c
14
eb
11
fd
17
e7
02
bb
fa
f6
25
12
e1
0f
dc
f8
1b
f7
26
11
f1
fb
fb
0f
da
f4
1e
d7
20
1c
ed
f1
18
15
12
07
fb
f4
f9
f3
19
1a
0c
f4
ff
f8
f7
01
ea
14
02
1c
07
dc
1a
1a
14
de
01
ea
ea
cc
02
0f
0d
f9
28
14
19
00
e1
1c
b7
0c
ec
2b
09
eb
01
1f
e9
48
05
0f
09
f7
de
2d
05
05
10
02
d9
0f
16
21
e3
d3
24
fd
1d
07
de
fe
ef
06
08
08
11
14
08
e7
1e
04
14
02
14
15
12
e0
f3
f0
ec
dd
da
0f
14
d6
18
d7
f2
06
1e
14
4c
07
24
07
ed
09
2d
07
11
d1
29
05
e8
3c
d1
fc
fb
00
07
ff
de
ec
1d
06
10
0b
ed
e6
e5
26
0e
22
10
f8
0b
e8
15
2c
ee
17
fb
fc
1b
15
13
0a
09
03
ee
e6
f1
f1
ed
f1
f0
21
11
cc
21
01
ff
1b
06
07
09
01
f8
0a
fa
c6
ee
f9
0e
ee
ff
d6
1d
f9
fe
08
f5
23
ee
ec
d2
f9
2e
14
05
30
18
07
0f
08
f6
14
39
03
19
f2
f8
fc
e1
de
12
ee
f3
00
04
fe
32
0b
0b
06
40
2a
07
0e
ce
f5
21
00
f4
f7
e7
17
14
ea
f1
02
f3
09
03
10
06
01
fb
f6
06
01
ee
f1
d9
06
ea
13
fd
f6
fa
fe
f4
0e
14
00
ed
fe
07
08
f7
08
00
f7
06
f6
14
f1
0b
fa
ed
ef
f7
0a
ed
e2
eb
e1
10
0d
fd
f7
fc
19
f7
0e
fd
eb
e1
06
09
fa
01
f5
f8
f7
0c
02
e2
fa
e8
fe
ef
03
03
dc
0d
ef
fd
de
e8
f5
f7
f2
f5
fd
e1
02
f8
df
08
10
16
0a
f5
e8
f7
06
f0
df
11
fd
04
01
02
09
fd
e4
e1
05
db
f9
11
00
29
20
e5
0e
f5
0f
f2
04
df
ee
ff
e1
29
f1
f6
da
f3
0e
f4
e3
f1
2e
17
04
d8
fc
f7
ec
1c
f6
0e
05
d6
14
0c
14
ec
e9
f6
10
12
fe
f9
1b
09
3a
15
f2
1d
0d
e3
10
f4
1e
0d
0f
f0
f7
e4
13
e8
bc
1a
f8
0c
21
f6
10
df
33
12
f9
09
0b
ff
18
f9
18
31
f7
13
ef
fe
fd
00
22
21
ed
f9
1f
f7
00
ee
02
f1
26
24
f4
e5
10
ea
27
0c
e4
e4
d7
ec
ec
f5
fe
fa
17
1f
f0
e1
04
1c
08
db
01
1e
1a
f1
0b
e4
26
0b
11
cc
02
29
df
fe
e2
10
3e
f1
ff
eb
fb
fe
05
f6
04
df
f9
e5
13
0d
ff
fe
05
c8
11
f6
11
09
fe
06
1b
06
ef
f4
11
0b
30
03
ff
fe
ec
f1
1b
f4
11
d4
17
bb
eb
d9
fc
ff
f2
ff
f2
0c
fd
03
15
1a
e7
20
03
f9
cd
09
0d
10
1c
23
04
14
00
dc
f4
dd
06
fb
0e
13
11
e7
1d
ca
1b
2a
f1
f8
f1
0b
09
33
09
fd
01
09
ea
ed
1e
20
0b
09
38
10
13
ff
16
ff
ef
12
0b
20
f3
c2
f3
19
10
08
e3
19
0a
f4
e7
0e
d8
fe
f6
01
fa
fe
f6
05
0b
30
0a
01
fa
f4
04
09
fa
05
02
f5
19
ec
20
05
1e
f8
20
e5
20
f5
f8
fb
11
17
07
15
00
ee
06
f6
0b
f5
ff
33
ff
fd
05
f7
eb
ee
0c
ef
ec
e8
fc
22
07
2b
12
fb
33
04
c5
00
c4
f6
0d
0c
1a
04
ed
00
09
23
e7
e6
07
df
df
14
f1
01
1e
ca
f4
e4
3e
ed
04
eb
1a
f9
e5
f1
18
23
0c
ef
d0
0c
f6
01
03
07
e4
cf
f5
15
16
10
07
49
20
fb
e5
fe
f9
f2
0e
e9
f9
0b
fd
f9
eb
ff
35
14
14
d3
0e
d2
0b
d0
30
e0
0b
00
fb
f9
ed
e9
23
f3
ca
f0
c7
b0
05
0b
02
0f
1d
0e
b9
e5
10
10
ef
06
0b
0b
d3
14
19
2c
35
c4
08
09
f0
d2
09
e5
b3
ae
f7
14
07
fe
fe
ff
de
f9
f6
b1
fa
fe
d7
e2
e7
fb
fe
06
1f
fd
cd
f2
f3
bf
e1
33
08
04
0d
f6
f9
d3
d8
bc
24
f0
0b
fe
bd
0e
0e
ee
dd
00
f1
0e
ed
ef
f4
2d
e9
f6
06
02
05
02
df
03
e6
ed
07
e3
fc
ec
f7
11
f0
02
18
e4
2c
15
0b
18
0f
f6
31
1f
05
d4
fb
08
0f
0b
e7
fc
1d
ef
15
20
11
d7
06
0b
ff
fe
02
0d
ed
06
03
0b
09
23
ed
f8
f1
c9
09
f3
15
18
28
c6
1a
13
15
e1
02
0d
ff
00
05
15
f9
df
e9
ef
08
18
2c
de
e4
05
f2
f4
cd
e5
0a
d3
e5
f5
e2
df
c9
fa
e3
02
f7
fb
f8
1f
06
0a
00
dd
de
1c
18
e6
0a
11
d4
ed
e4
ff
02
03
1c
48
f8
40
fe
e1
17
19
f8
f8
fc
0a
02
07
ff
2f
00
03
19
08
1c
f7
28
fa
02
25
02
06
f2
2c
0b
f7
fb
fa
03
d3
1c
d1
01
13
fd
10
0a
08
29
f9
08
05
36
04
09
0d
1a
fc
0f
02
00
10
f1
22
16
f2
16
f1
d5
04
eb
0b
f3
e7
e3
f4
31
1a
ff
fa
10
1e
cf
e9
fd
fd
fa
ff
ff
fa
0f
da
d5
1d
1a
f6
f3
f3
0d
fa
d6
1d
21
fb
ff
e9
31
11
24
e9
00
ef
d5
fc
15
0b
02
09
f9
21
ff
14
e1
ef
ff
db
e6
07
ed
f0
ff
fb
00
0b
fd
fd
16
01
18
24
db
ed
f5
14
f5
d6
f0
0d
f5
07
fd
f1
eb
eb
f8
e3
d7
f3
eb
eb
e4
f7
fb
f7
e2
0d
fb
fb
13
ed
f5
eb
f9
fc
ec
0d
f6
15
fd
f6
18
e2
06
01
f6
18
f0
0b
d6
d9
f9
1f
e8
ea
11
01
15
0d
04
fd
fa
d9
0a
11
dc
f1
0d
04
db
07
02
e3
1a
0b
20
f5
f0
f7
fb
ee
ee
fb
fd
11
fa
14
0e
0c
0b
f8
d2
dd
02
fc
32
11
f8
ee
e3
ed
fe
e4
0d
f7
f6
f7
11
a5
08
0f
fc
21
ec
00
16
03
07
1c
06
e5
18
f1
1d
ef
01
0e
42
14
0f
e6
fd
12
0c
0e
0d
0d
0a
f6
ff
25
0f
e3
f3
f4
f5
20
14
19
ec
f8
f4
11
18
16
b6
f6
f9
f0
f1
20
0e
15
05
fd
ee
e1
07
de
2b
07
f1
17
0a
09
18
16
ff
08
06
fd
e4
1f
f9
e2
20
c5
27
c7
fb
dc
16
e2
b2
cb
f3
d8
bf
1d
fb
dc
0d
de
fb
01
04
1a
f9
17
c2
21
f1
f7
1e
e6
17
f6
fb
09
ff
18
0d
16
04
10
12
28
0e
ef
18
c7
05
26
f4
f0
08
ec
fc
e2
de
10
fa
ee
f0
ff
e5
09
30
e4
0f
fd
f1
fd
05
fe
12
ca
e5
02
fb
08
22
c4
07
1c
e4
e9
1e
fd
0f
07
ec
0e
e0
f9
07
ed
15
f0
d5
ee
20
ef
ec
e5
f7
07
fa
f3
11
f2
de
35
ed
17
16
1c
13
e0
d5
09
fb
d0
1a
de
ef
d3
f4
23
fe
d5
07
f7
cd
34
1f
d5
dc
14
f2
f0
26
0b
f0
f9
11
18
f3
e7
b9
0b
d6
cb
fd
f8
fc
ec
14
16
ef
31
0f
0f
f0
d3
0d
38
f3
f7
f1
f1
fc
ef
0d
f6
e4
03
0a
09
fb
01
e5
07
f1
15
f5
08
ff
05
f7
f4
11
ff
0a
ef
01
f9
ef
f5
ee
04
f8
00
e8
ed
09
e8
05
e4
09
fd
f3
ef
03
07
05
09
01
e0
fb
fa
07
13
f6
ea
0b
e5
05
07
06
01
f5
01
0b
ea
f7
e9
ec
0e
e3
f9
06
08
01
e7
f8
ff
f8
03
04
ff
fc
ed
f4
e1
f6
e1
fa
e8
eb
0a
f3
ff
06
14
09
03
fb
e6
02
f9
f0
ed
ee
10
e0
0c
14
06
fc
09
ef
03
0e
e5
f9
03
f7
0a
f4
d3
07
0d
db
f8
0f
13
0b
f2
04
d5
1f
02
1b
0a
14
f6
04
d2
26
fa
16
38
f3
28
fb
ca
1a
11
f5
1a
16
04
3e
1a
0c
04
17
19
21
01
f1
0f
18
e9
f3
f9
0d
f7
f6
fd
da
17
bf
fd
fa
24
18
fc
09
e2
ee
ea
06
08
ff
fa
d9
16
0c
0c
14
fc
e6
01
ec
0d
22
e8
21
d2
06
0d
04
f1
06
eb
cf
d9
f1
00
e9
3d
0a
f2
fc
23
00
f4
fb
10
fa
20
0f
06
f2
36
24
fa
db
04
05
d0
03
bf
0e
07
13
1e
0c
0c
fc
01
f5
0b
16
16
06
11
14
d8
fc
0e
cb
08
0d
1b
fd
d6
27
d6
f8
f2
f6
db
f0
bc
f3
e2
fd
f6
09
23
05
f3
fe
f3
dc
f1
fa
19
ed
f7
de
17
e4
f8
12
c6
fa
cd
07
07
d6
01
e4
0a
3b
d5
0f
f2
0a
f5
18
da
07
d3
ef
eb
2c
05
ea
d8
ef
d3
1e
10
39
f3
f9
2b
e5
2a
0d
0b
2b
f7
0d
f2
eb
de
e9
1d
ee
f6
0b
f8
12
e7
fa
07
07
c8
0c
01
ee
e4
12
07
f0
29
0e
15
19
ea
01
0a
13
f0
db
18
0d
1c
09
fc
eb
b3
0a
e5
f9
d3
28
01
bb
fb
06
f5
20
1d
e4
32
0f
c6
05
30
05
04
2b
fb
09
0e
32
f5
16
fa
1e
1b
14
fa
05
f2
0b
ff
dd
3c
02
0b
0f
e9
f8
26
f0
e5
10
ec
f7
17
fe
08
fe
2a
00
29
ee
ea
1b
ef
11
19
f3
03
45
f7
d8
06
c6
e2
e9
f2
fd
0b
20
04
f4
f0
d3
ce
e8
0e
0c
0b
11
f8
3b
eb
f9
f5
0b
f2
0d
10
ff
19
f0
06
fc
de
e5
09
0a
d9
fb
19
e8
0d
01
f8
0a
1c
fe
ef
0c
12
17
07
e6
05
2b
f1
11
2f
ce
02
ee
14
16
e5
01
eb
da
23
1c
12
08
f4
12
f3
e1
2d
03
fd
0f
e8
ed
e8
e5
02
06
fd
f6
0a
f7
11
23
04
26
13
f1
c1
f9
fa
fc
09
0c
13
1c
02
1e
ea
f4
f8
cc
2a
bc
e5
01
f2
d0
03
d3
17
21
ee
fc
19
dc
e6
e9
e5
18
ef
05
e3
e2
f2
0c
fc
f0
e7
d9
16
ff
19
f8
c8
fa
eb
13
1e
2b
ce
de
10
24
02
02
fe
2d
03
06
f8
f0
de
0f
e2
f2
fb
09
fd
01
e4
eb
e8
fb
0d
ec
0c
f5
eb
f3
fe
f5
f8
e6
12
0c
0a
fe
08
07
0c
10
ef
ef
0d
f1
e9
ff
fa
13
f3
00
df
0b
e3
0a
0a
f5
0a
e9
f7
ee
ea
fe
f7
ed
e5
04
ed
f9
f3
fa
ff
06
eb
13
ef
12
f1
ff
ff
f0
f1
04
0d
ee
05
0c
f4
09
0a
f6
e9
e9
fc
0c
04
e9
e5
eb
08
ed
f5
09
0a
e8
ed
fd
f9
e2
e9
fd
07
01
f4
13
15
ed
03
03
ef
fd
07
f9
01
f5
0a
10
0b
00
f0
f7
07
0d
f7
f4
0e
ff
13
f2
fc
13
eb
0d
0e
fd
ee
f4
08
02
fe
db
ec
eb
10
f0
f4
ea
e9
e7
d6
f9
de
e6
f9
25
e3
de
ec
14
f9
e8
f7
de
e1
f1
0b
08
f7
22
fb
f1
13
04
eb
00
e3
0e
f0
de
03
f9
ed
ec
c9
e6
e8
06
0b
02
fb
00
f8
19
e4
fc
0d
f4
ea
ee
fb
ee
e0
e6
e9
01
fa
e7
0a
ed
ff
dd
fb
0e
a6
1e
f1
fb
0c
e4
ea
e3
ee
02
fb
15
fd
fa
f0
02
db
f6
f3
f1
10
fd
e9
fe
12
04
d6
e8
e5
17
01
fd
2d
fc
0a
0e
df
08
da
09
00
f2
e3
11
e9
e2
06
d2
01
3b
06
0d
f5
e2
ed
21
2a
22
11
f5
d9
2d
0b
f7
0e
07
e8
1b
02
fd
d7
23
0c
29
08
f0
f2
f2
f8
1b
09
00
0b
f8
ed
13
f9
0d
10
06
fc
07
e8
f1
1e
e7
04
f0
0d
e2
0a
fe
28
04
08
02
10
e6
07
f5
20
09
0a
09
22
05
f1
db
e0
1f
e2
1c
06
f0
de
f5
f7
23
00
f7
b9
0d
05
f3
13
15
00
e3
0c
17
00
13
2d
dc
ef
1e
19
26
f0
19
1e
f4
1f
07
00
ff
2d
00
ea
ce
fb
1d
fc
f4
26
eb
f6
22
0a
e7
0c
fb
f1
32
e9
2b
f7
0c
1f
0f
24
ef
12
0d
19
0c
fe
14
e4
ec
04
ea
17
04
2a
e7
11
0e
11
f1
f3
d2
05
fc
2a
1e
30
fe
21
1a
a7
0d
ed
1b
e9
e0
15
0e
ee
07
f2
0a
e9
fa
12
05
ef
01
fb
16
c9
17
ea
0e
c4
f5
34
25
2a
e7
e5
ee
e8
18
00
26
0c
f5
e9
fc
16
f8
10
06
0b
0b
27
ff
de
ee
ed
c5
fb
ff
00
e1
08
d8
20
ee
fa
05
0d
01
0f
21
29
ff
f4
34
e9
00
eb
09
1e
f2
2f
1e
04
18
0b
f4
f8
19
d3
06
d0
ec
17
0e
fe
df
36
04
0d
09
f0
f7
15
fd
21
f5
e8
d4
07
ed
02
18
12
0c
d4
26
e8
10
51
f9
10
f5
f5
0d
d9
13
f9
f3
fa
17
10
11
de
23
0c
07
ea
08
02
dd
e9
da
f6
30
f7
01
23
cd
0e
db
eb
24
06
ef
f6
06
1c
1e
0b
2b
12
fd
1e
e3
40
eb
0f
bf
d2
e3
07
1d
08
fc
18
c2
f1
12
02
3a
ea
d8
0e
1b
f8
f2
15
f6
17
00
e1
ef
31
07
ec
d2
29
f9
01
15
e9
06
0b
dc
f4
fe
07
0b
fb
17
0c
f0
01
f1
40
f6
0f
1c
0b
01
04
09
f6
15
1c
15
f7
f7
e4
16
fb
f7
13
f2
25
d0
e5
ef
f2
1d
e5
f4
18
dc
03
0b
fb
14
de
0b
00
09
0e
00
d5
1b
ec
0a
ff
0f
ed
0a
13
1a
0b
d5
f4
22
f1
15
11
17
07
d3
1f
1d
dc
dc
11
06
e6
d9
e6
1e
13
fb
10
2f
e3
f3
15
03
f3
f6
fb
f0
05
09
01
da
0c
10
27
ee
ee
f1
f8
03
04
14
12
0c
e3
20
11
1b
e8
04
ff
23
ed
ff
14
1a
0e
fc
e3
fe
25
37
f0
0b
00
02
f4
fa
f7
07
15
f5
e5
f5
0a
0e
dc
f4
ea
e6
04
fe
fb
ee
12
0b
ff
23
de
0d
25
f4
d0
24
d5
00
e3
14
ec
04
f2
e9
1b
fd
18
1a
21
f4
01
05
0c
f7
f5
d9
f8
1e
fa
2f
01
2a
f6
df
1f
f3
1d
f5
e5
0e
1a
17
06
1a
df
2f
36
da
02
ef
ff
cb
f5
ec
dd
f6
09
00
fc
d4
1f
e6
fc
11
29
1c
ff
1e
1b
02
47
00
03
fa
09
0c
e3
fc
10
07
ff
fd
e4
18
f0
02
08
25
ec
fc
0b
c5
11
15
1b
00
fb
fa
c6
09
01
0b
e0
15
dd
11
0e
ce
cd
e7
da
25
23
11
0f
ff
01
04
fe
03
e7
f3
ff
f8
c2
10
01
09
ee
eb
e4
0c
e6
c5
01
eb
ec
d2
1a
f4
d5
f6
16
c7
f1
d5
14
1f
f8
f1
1d
f5
f4
fd
d1
f3
e5
1f
14
18
06
ff
fd
f1
b4
0a
15
f5
ee
0a
eb
d4
ff
ec
0e
d3
02
20
14
f9
29
f5
ff
22
16
0b
03
27
01
0c
f3
ff
e9
0b
0c
15
03
0b
10
fe
fe
ff
15
f2
df
0e
01
c3
fa
10
11
15
ea
cb
e2
ec
f2
f9
d4
d7
fc
01
fd
ee
0f
f7
00
0e
ec
03
05
e6
fc
0c
f0
1e
14
de
f2
1e
d4
03
1c
f4
09
f7
ee
fe
df
0b
0e
14
0b
25
df
fa
f4
08
0c
2c
1f
c3
b9
02
ff
1a
e5
31
ee
15
d8
cf
fd
09
2f
e9
e3
f6
05
34
1c
03
10
07
f6
19
0d
c5
04
15
02
ff
ef
fd
e7
28
cb
06
0c
bb
e2
00
0a
f9
f3
f3
12
f1
26
08
11
f1
ff
f7
29
fa
cc
e2
0b
00
dc
03
f4
da
f8
f6
ec
ea
11
0f
11
00
0b
f1
0f
fb
2c
ee
fc
0e
02
1a
19
01
ea
19
e4
ce
ff
ff
02
0b
1f
03
f7
ea
f3
db
e6
e9
14
fb
23
f9
10
01
0d
05
c1
1c
d4
12
f7
c5
16
03
ee
e8
f9
25
f3
01
ff
f4
08
17
15
34
f1
04
1a
e4
d7
e4
24
09
37
0e
ff
01
14
0f
1e
22
0d
fe
30
26
17
f0
00
d8
ed
1a
fd
00
e2
02
0e
bf
e1
e0
f5
e5
0a
d9
fa
f4
f2
04
05
0a
df
0b
18
f4
f9
39
0c
e8
2e
ff
e9
10
23
fd
08
26
06
0e
1a
c0
27
e6
20
f9
00
20
e0
1a
e6
fd
f5
05
0d
10
1a
05
0a
fc
06
0d
e0
0f
16
e3
fe
dd
f5
0c
0c
f6
fe
e5
15
dd
f4
dd
18
07
18
f4
30
2c
fd
0f
fe
cb
18
d5
09
f8
d4
fe
fc
17
ea
e1
0c
e3
ed
e5
14
1f
f5
0c
01
eb
e8
ff
0b
06
07
f0
30
01
11
1e
dc
ea
fb
e5
24
0d
ec
09
35
26
1b
15
16
20
05
03
d1
09
1c
01
0a
f2
2b
09
fe
dc
fe
04
0e
f3
eb
d4
c9
fd
f2
e7
e8
fa
06
ef
06
fe
e1
08
0f
f2
fe
03
e6
0e
37
eb
00
01
07
f6
04
26
bf
06
19
07
02
f9
0c
f9
0e
ee
fe
f0
1b
e8
e9
ea
ec
09
21
16
20
ef
09
fd
f9
12
e6
d2
0e
f9
f1
f2
db
12
dc
2b
11
12
f0
28
01
11
f2
07
fc
eb
e2
01
2d
24
0b
df
e5
f9
c2
ee
0b
11
f9
0a
e5
34
0e
fa
f4
ee
08
10
17
0a
09
ed
15
de
f6
04
f6
e2
f2
fb
09
e1
f1
07
05
fb
19
0d
e4
ed
d5
20
ef
e3
04
09
12
e1
0d
03
f7
2c
fb
f3
03
e2
21
ef
de
03
0f
0d
19
fc
f8
f2
ef
15
0b
07
13
19
fd
0f
00
1e
00
f1
fe
08
ed
0e
c2
26
0c
fd
01
17
e6
23
18
dd
25
11
de
17
24
f0
fe
2f
e6
11
03
e7
fa
0e
0f
12
0a
ed
1c
f3
03
0e
20
d3
07
e3
fc
f3
19
0f
29
ee
11
1e
0e
13
f2
0b
0a
fa
fa
0b
05
e3
da
e5
e6
ed
2e
dc
fa
07
1c
fe
15
01
16
ee
e6
f9
d4
16
25
eb
e5
1b
1b
0f
e0
27
f3
12
d8
11
fb
f9
d8
04
02
e8
07
10
fe
da
1f
eb
f9
ff
e9
f5
d8
12
23
28
0f
0f
0c
f1
02
f4
e0
1b
e8
f2
19
0c
11
ee
04
da
18
0c
fe
fb
10
e5
ee
11
0a
04
dd
0c
1c
ee
0f
ec
1a
eb
fd
f9
19
f9
08
0b
f1
f2
f9
18
04
39
29
0d
1b
c0
f1
07
2b
fc
13
11
0b
e7
1c
2a
e6
ee
1c
1a
14
e9
1a
e5
ef
da
03
1d
f1
1a
14
21
0a
cb
e0
02
00
1d
df
f1
11
ef
19
fe
ef
e8
e4
05
01
11
dd
00
f8
e9
fc
04
0c
e6
e7
ed
ea
e8
f3
fe
eb
eb
f5
24
3b
fd
06
0a
0f
f3
e1
13
18
fc
18
35
dd
fd
01
08
18
25
39
07
07
07
03
eb
31
fe
23
03
f6
f4
1a
f3
f8
1c
d5
0c
19
fe
13
e0
2e
db
1d
dd
05
02
04
fb
14
04
f6
28
15
12
e4
e7
f2
f1
f2
25
05
11
1d
0d
d3
f4
d2
0b
f2
de
28
10
01
18
e1
10
fb
00
26
22
32
01
11
02
f3
fc
0e
fe
fb
f4
f1
fa
f6
17
28
0a
11
fe
f2
0e
da
10
f5
0a
f7
f2
09
f0
d3
fd
1d
e1
15
18
0a
11
08
03
02
05
f4
04
fa
f2
ef
ff
e8
04
08
f0
eb
e7
f0
0a
00
ec
09
05
eb
0a
0e
fa
0b
ef
f5
f3
dd
f8
f0
fc
13
17
16
e0
f4
17
0c
53
f1
dd
fe
fa
f7
28
e9
fe
ee
fe
fd
01
00
f6
f2
0d
f5
f9
f5
e9
f6
ef
10
0d
06
05
22
ea
d9
f8
d7
f3
04
e7
08
f0
ee
11
fe
fb
11
f3
f1
ef
e6
ed
fa
ea
09
ee
12
ff
f7
f6
05
fc
fd
0b
fa
0e
fc
07
e5
04
06
ef
f5
e2
11
03
e3
02
fc
03
f9
f7
f5
0f
eb
dc
0d
e3
ee
f2
ee
f0
ec
0d
03
e2
0d
11
fe
06
ea
fe
f8
fd
f3
f1
0c
fe
ec
ea
f5
f1
e8
e9
ec
fd
02
10
04
f0
f6
0d
e9
0f
f2
f5
08
eb
e6
0a
02
13
e3
06
d7
fa
fb
e6
14
ec
02
04
0f
f4
df
f7
12
02
02
eb
0e
f6
e8
fc
07
fb
09
0a
fb
07
e6
e7
f4
0e
f9
e9
05
f5
08
fc
01
e8
fe
0d
fa
17
14
fb
06
e4
fe
f0
09
f2
07
04
11
f6
13
01
e9
1b
ec
07
28
f6
fb
fd
f4
fc
f1
0a
f4
ff
ff
dc
fb
c7
0c
f8
1d
e2
d9
21
12
21
19
f6
17
ef
2c
f9
12
1c
03
f2
0a
f6
08
fa
01
e0
f5
32
fc
e9
f4
fa
cd
07
fd
09
ef
19
f4
f8
33
f8
db
10
f2
cb
e2
e3
12
e5
d3
eb
17
12
0d
07
37
ee
0c
d3
1b
16
dd
ff
06
1d
16
f9
f6
f6
25
09
13
fc
ea
e7
fa
09
05
f0
09
0d
05
0c
1e
1a
fa
01
20
0a
eb
17
e3
13
eb
1c
f8
fc
f4
fd
1c
05
08
fa
ed
ef
07
d5
fc
eb
df
0a
c4
10
16
e0
08
f9
d2
eb
22
06
fa
08
f3
17
18
dc
ee
1b
04
07
10
17
e6
06
0a
cf
e1
0b
f4
23
eb
e5
03
e8
28
cf
16
f9
f2
f2
21
fa
00
e9
0e
09
0a
29
02
da
17
e3
d6
f3
c8
f6
01
1a
13
f8
f8
0a
0f
e6
d8
ed
22
fd
de
bd
1a
fb
0e
0a
12
13
e4
fb
0b
12
2e
ed
fb
33
0d
ee
f8
f7
f8
fa
1a
ed
f9
e3
0a
eb
04
03
f3
e5
f8
f7
02
eb
04
00
f8
f4
fe
04
f9
f9
1f
0e
02
18
e5
ff
14
17
ef
15
fe
19
f2
11
f9
24
23
05
e9
ff
ee
f9
10
dc
28
15
04
12
f7
e4
ef
e2
00
16
e9
d6
ef
fb
ed
f0
03
10
01
da
ea
f1
23
1a
fa
0d
10
1e
14
ff
d8
f7
f6
18
07
17
16
16
f8
10
e0
27
19
da
f8
0b
17
03
e7
fc
d4
13
e4
fb
ec
28
e6
b4
e0
2f
fe
dd
22
21
e4
df
ef
09
e2
f1
f8
e3
ef
fd
fb
15
02
f8
10
0d
0c
f4
0b
28
11
f8
25
19
e5
10
13
fd
f0
f2
d4
f2
f9
0c
fc
f9
e8
e9
e9
f4
0e
fc
f1
ff
03
15
ea
06
f3
0d
d5
1a
08
f1
e6
25
dc
dc
03
00
e4
da
e2
ff
1b
e2
ea
f2
d7
09
09
02
0a
f8
ff
05
0a
f1
f5
e3
e7
00
1f
05
02
09
e7
0b
da
e5
f9
16
e9
19
de
eb
f7
f3
fc
dd
ea
d4
09
e3
00
fd
ec
0f
00
fb
e5
ea
df
f3
12
01
f2
ee
0c
d3
dc
ea
e9
ef
ef
f2
0e
02
fa
01
fe
ed
e8
f2
e9
10
fa
4d
fd
fb
23
e9
ee
e3
ec
0f
23
14
0c
11
f2
09
1f
f9
ec
00
34
fd
e6
1c
29
02
f5
f3
f3
e4
1c
08
b8
bf
fe
0c
18
09
e7
21
ee
01
14
01
32
f0
21
fe
0f
17
eb
17
da
09
14
f7
ef
d7
cf
f6
e6
03
1c
f6
1b
d1
20
cf
16
12
df
09
04
14
e9
24
ff
f3
08
f6
1a
f0
d0
13
fb
ff
0a
0d
f1
ef
e4
cc
1b
20
d2
13
10
f6
06
bd
04
05
0a
12
06
f6
ea
e6
fe
09
1c
d0
ee
09
10
14
eb
0d
11
f7
00
f1
f0
ee
09
0d
06
1d
fd
f8
13
0a
2f
0b
fe
f7
cd
f1
09
d4
e2
ee
ee
06
21
0f
fb
d2
19
04
e9
09
00
4a
1c
0a
f1
ea
34
06
1a
21
e4
1b
e2
2d
05
cd
0a
e5
f4
04
1f
07
fc
01
fa
2e
1e
02
f8
e8
07
ef
11
2e
f6
0a
f4
fd
cc
0d
15
d8
0f
f4
ec
f8
de
fa
c0
29
0d
fa
02
07
14
fb
f1
d2
0d
3a
e7
db
35
06
00
e6
fe
18
f9
28
14
20
01
11
24
0e
0f
0f
f4
24
fc
1c
ec
f3
02
cd
0e
c0
e1
01
07
19
07
0a
22
1d
e4
0b
c9
f2
22
fa
0c
fb
d8
e0
ec
fa
ed
08
fc
fb
14
ec
15
ec
0e
00
09
22
f5
24
cb
0a
25
e8
f6
f0
c3
04
17
05
fb
0f
f5
e4
dc
d9
08
e5
1c
1f
05
ea
0a
03
27
e8
0f
ec
ed
1c
17
f2
07
e9
ee
12
ef
37
c9
06
0e
18
fd
14
fe
fb
02
f4
d3
eb
10
f4
09
0c
f8
08
f4
34
d5
09
0e
f1
2b
25
f3
13
df
15
e5
e6
f7
01
f8
f5
e2
08
0c
f1
21
f6
02
cc
01
07
0e
0e
05
38
f7
f6
28
03
ff
fb
08
fc
2d
04
12
fd
19
f6
e8
1d
07
e5
da
e1
1f
de
1a
12
10
10
15
06
ec
e8
ff
1b
13
ec
0b
f7
0e
05
1c
05
f8
ff
f8
1c
fc
e2
f6
c5
ed
f1
17
e4
05
0b
0e
15
ff
27
01
f1
2f
fc
24
22
06
07
da
fa
e9
11
18
fb
2e
34
d4
2d
fc
06
d4
26
f8
e5
f1
12
16
fc
ff
07
0f
02
ef
af
2c
16
ff
09
fe
2b
10
33
0b
29
f7
f2
08
13
32
00
0f
df
02
16
ec
fb
02
db
f1
bf
03
17
11
09
e4
ed
08
f4
eb
08
1f
00
0e
22
cc
ec
ea
e6
f5
d4
f6
f3
eb
db
2a
f4
00
04
ed
0a
1b
d7
fa
db
14
f6
0a
02
08
13
f0
1d
13
02
03
16
0d
24
05
fc
f8
23
fe
21
09
f2
0f
18
f0
13
01
ed
16
13
0b
11
02
04
16
fd
27
0c
03
f1
ec
1b
08
ea
00
f8
02
0d
18
25
14
43
1d
d2
e5
c0
f9
d8
17
f0
25
e4
01
01
1e
e8
de
0b
f6
fe
29
da
ba
0f
de
fe
fd
20
1b
21
e6
fb
fc
d3
ea
04
04
f0
08
e2
db
d6
e8
0b
0c
e3
d0
ee
e0
0e
16
ee
18
f0
f2
1f
29
f3
09
2d
e5
16
17
0a
16
fa
16
12
c5
f9
12
1c
13
df
f5
0a
ea
0e
fb
16
05
f0
f4
c5
d3
ea
0f
0c
20
0d
f1
f6
14
e5
09
d1
00
07
f2
d9
00
2a
1b
0b
09
fb
df
e7
d3
03
f7
da
f0
0c
13
09
f0
e6
eb
ee
f4
f9
0d
1e
00
07
ef
09
be
2b
25
d3
03
f0
0d
e6
13
e4
0f
ed
c6
18
06
e8
f5
1b
e8
ed
08
14
f5
f9
d0
10
ea
c6
17
eb
f7
22
1e
4e
f0
04
fe
02
fe
08
10
03
08
0c
21
df
12
f8
32
05
09
0e
31
f2
0a
23
0c
fa
22
14
d6
fe
03
f6
05
12
e1
f1
fa
ec
07
fe
fb
e4
13
27
00
01
0f
0a
eb
11
04
09
f3
3d
ff
f3
01
10
11
14
f6
d2
0e
ef
28
09
16
1a
12
38
c9
15
04
13
15
dd
f9
fa
ff
0d
08
00
02
f5
10
0b
f3
0c
19
02
e5
fc
f7
02
f4
da
03
fe
f7
fd
0e
e0
f2
08
e0
03
04
1d
00
fc
ea
fd
09
f1
1e
1c
22
1d
13
de
ec
00
f8
03
d3
e7
1b
0f