1f
e6
c3
ea
bf
ec
d6
df
d0
25
c2
c5
f7
f7
01
10
f5
d5
06
cf
0a
e2
fd
e7
db
d5
04
e3
de
04
f9
dd
d0
2a
2f
f8
18
15
d5
1e
fd
e5
0d
f1
b2
4d
eb
e2
ed
19
26
05
f0
2d
0a
05
f5
f6
06
1d
d5
e6
13
f9
18
1b
e6
d2
e1
06
11
f5
ed
dd
0f
c9
ec
f5
13
06
e2
d1
27
d0
17
ed
da
e9
ee
dc
fa
01
08
eb
1a
14
c7
00
d9
e8
f0
e6
c3
ff
e2
f8
e6
f7
06
26
b6
15
0a
1e
b9
30
ee
f8
10
f5
d5
d5
33
ea
1f
d6
0a
dc
1e
4c
dc
23
d5
07
ae
0f
11
32
16
e8
eb
ff
e0
ea
e9
1b
04
e3
fc
c0
f6
10
f8
d5
e1
08
0a
be
22
1f
88
cd
1b
f8
0d
f2
ea
0c
e4
04
05
ec
cf
15
1d
df
d0
0f
ef
1e
c1
f5
d5
1d
19
05
e0
c8
08
1b
0d
c9
fd
fd
04
30
16
10
04
16
d2
d6
bf
f5
e3
f1
da
eb
1a
0a
1a
23
e2
ce
e6
fe
d4
d9
d3
16
09
ce
d0
e5
f2
07
16
ec
1a
d5
28
24
cf
05
03
ce
18
0a
f6
df
e4
08
f4
17
f8
e2
0e
e2
13
ba
02
d7
d3
03
dd
1b
f7
fa
0b
05
04
e7
09
06
e9
f5
c0
da
cf
13
08
14
26
f9
c2
f4
04
a7
12
08
f0
d0
0f
a3
df
d3
02
08
db
14
c2
1f
df
fa
1e
fd
fc
f0
fa
15
d6
ec
ed
fc
e7
ee
13
ea
0f
ec
e8
2c
11
0b
eb
e1
df
29
dd
22
02
09
14
fd
07
fb
24
06
e3
c5
22
e4
2e
13
d2
cd
c1
19
e7
ec
1c
da
09
df
0f
d6
de
da
f4
06
01
35
e3
1a
0a
fd
e1
0e
e8
e7
10
18
13
0f
de
16
1a
fa
26
09
10
c9
e4
f7
17
be
1b
07
db
fd
27
00
f1
16
d3
da
df
eb
15
e7
e1
1d
f6
dd
10
be
bc
fa
cb
17
e1
d8
2b
fa
1d
dc
03
ff
ef
19
16
dc
e4
23
ce
cb
d9
22
2b
20
24
17
dc
01
1b
d8
0e
07
12
fb
f7
20
0b
04
0b
02
c6
ff
12
15
e4
df
12
d9
d9
fb
ff
02
dd
ed
20
dd
ae
e4
bf
21
f3
29
c0
18
d2
0a
d3
0e
ee
c5
34
01
e8
32
07
12
16
fe
22
d5
fb
02
f2
13
fc
14
f1
12
f4
f0
fa
15
d6
db
11
f5
11
f4
e7
1b
dc
f9
fa
00
fa
e6
df
10
f8
01
a7
de
f4
e8
10
f7
13
07
e9
fc
18
ea
19
f6
50
e2
dc
b4
c4
b6
25
0f
07
0c
23
e8
00
1f
c5
e2
f7
f9
1f
d7
23
13
d4
01
f6
0f
cf
c0
ec
d5
07
fb
04
0f
2d
02
da
19
d4
ee
06
de
bb
15
25
19
ec
e8
20
f6
ef
d8
c7
f2
a9
f7
fe
17
f9
1e
10
19
e2
dd
f7
d4
09
00
14
db
ed
16
09
d2
f7
e9
cb
b0
ed
0a
f8
fa
35
c4
0b
03
c1
05
e5
23
de
f8
1a
fe
ef
0e
2c
fb
ec
ff
26
02
eb
e8
12
19
fb
ff
bf
dd
31
1e
1c
e9
20
35
f7
e2
df
fd
c2
e3
fb
19
ea
e9
1c
dd
fa
fa
e5
08
bb
c3
c8
00
07
d3
05
e6
07
eb
0c
02
fd
e5
14
e7
0e
12
f4
07
13
c7
0a
da
1f
12
e7
dd
2b
ff
1a
f1
02
04
f7
ea
fc
c7
1e
19
25
14
cf
e8
ff
1d
d7
aa
c9
15
bf
d7
fc
00
c3
f8
22
e8
df
1e
e6
e8
04
0a
d1
d9
f1
c1
eb
d8
c9
f7
27
eb
e4
c9
e8
fb
01
fd
27
e2
0a
ef
16
fc
1d
e6
15
10
e5
0e
e6
06
d3
db
f2
06
d3
d0
1a
f9
c1
0a
14
f8
c8
19
0a
ec
a5
e7
1c
d5
f3
0b
0e
ec
08
0f
e1
1a
f2
02
21
1c
e7
e6
02
e9
fb
ff
ee
de
30
13
1f
e3
1f
07
f2
ed
28
da
df
01
02
02
0e
21
0d
f3
d1
d8
be
e4
dc
e8
30
14
f0
e9
12
be
c7
c9
cf
07
fb
ef
1f
06
ed
1b
1f
00
ef
0f
1e
ca
ca
ee
c5
d3
b1
16
27
03